<pad>	0
<unk>	0
<s>	0
</s>	0
[PAD]	0
[UNK]	0
[CLS]	0
[SEP]	0
▁t	-0
he	-1
▁a	-2
ou	-3
▁s	-4
▁m	-5
▁w	-6
in	-7
re	-8
ha	-9
▁the	-10
nd	-11
▁b	-12
is	-13
or	-14
▁f	-15
▁I	-16
er	-17
ll	-18
it	-19
on	-20
▁d	-21
▁c	-22
▁n	-23
▁l	-24
▁y	-25
es	-26
en	-27
▁th	-28
ar	-29
▁h	-30
▁o	-31
▁to	-32
▁you	-33
▁p	-34
▁T	-35
hat	-36
▁A	-37
▁he	-38
st	-39
ve	-40
ot	-41
▁and	-42
ow	-43
ing	-44
▁of	-45
an	-46
om	-47
▁g	-48
at	-49
▁be	-50
▁W	-51
se	-52
▁my	-53
▁in	-54
▁ha	-55
ce	-56
le	-57
ay	-58
ld	-59
ir	-60
et	-61
ed	-62
ut	-63
▁B	-64
▁me	-65
im	-66
▁S	-67
ith	-68
▁not	-69
▁H	-70
ch	-71
▁that	-72
▁is	-73
▁M	-74
gh	-75
▁And	-76
▁for	-77
▁u	-78
ke	-79
▁C	-80
▁we	-81
our	-82
oo	-83
ill	-84
▁e	-85
▁with	-86
her	-87
▁it	-88
ent	-89
▁your	-90
ad	-91
ri	-92
▁O	-93
▁thou	-94
▁st	-95
▁k	-96
▁L	-97
ome	-98
▁his	-99
▁F	-100
▁G	-101
ght	-102
EN	-103
ord	-104
▁re	-105
id	-106
ra	-107
▁The	-108
▁have	-109
▁him	-110
IN	-111
ly	-112
▁li	-113
as	-114
▁P	-115
▁this	-116
ur	-117
IO	-118
al	-119
▁so	-120
▁as	-121
▁de	-122
▁on	-123
▁R	-124
ore	-125
ro	-126
▁N	-127
hi	-128
ould	-129
ood	-130
AR	-131
ck	-132
ain	-133
ver	-134
▁Y	-135
est	-136
▁sha	-137
▁thy	-138
ess	-139
▁will	-140
▁do	-141
ea	-142
▁no	-143
am	-144
▁E	-145
▁but	-146
▁D	-147
us	-148
▁se	-149
US	-150
if	-151
▁'	-152
ge	-153
▁all	-154
and	-155
▁Th	-156
▁su	-157
ake	-158
▁To	-159
▁her	-160
ru	-161
ion	-162
▁an	-163
▁K	-164
▁lo	-165
ard	-166
ter	-167
han	-168
▁sp	-169
ell	-170
ear	-171
▁thee	-172
▁fa	-173
▁shall	-174
▁our	-175
▁by	-176
th	-177
UC	-178
▁are	-179
il	-180
ING	-181
▁ne	-182
▁kn	-183
rom	-184
ho	-185
▁v	-186
▁That	-187
ER	-188
OR	-189
ast	-190
ct	-191
ous	-192
▁what	-193
▁sh	-194
ight	-195
ul	-196
ET	-197
ant	-198
▁up	-199
sel	-200
▁good	-201
qu	-202
▁But	-203
art	-204
row	-205
ath	-206
ine	-207
▁com	-208
▁mu	-209
▁lord	-210
hich	-211
nt	-212
▁pr	-213
▁man	-214
▁at	-215
▁V	-216
one	-217
▁whe	-218
▁con	-219
▁What	-220
▁am	-221
end	-222
ic	-223
ES	-224
ble	-225
ry	-226
ong	-227
▁from	-228
ie	-229
▁she	-230
▁bl	-231
ive	-232
ven	-233
▁go	-234
▁For	-235
▁more	-236
▁them	-237
em	-238
▁was	-239
IC	-240
out	-241
au	-242
▁sir	-243
other	-244
are	-245
oth	-246
ol	-247
▁if	-248
▁He	-249
▁now	-250
▁hat	-251
▁there	-252
▁would	-253
AN	-254
ost	-255
▁know	-256
▁can	-257
LO	-258
ind	-259
ers	-260
IUS	-261
ep	-262
self	-263
ARD	-264
▁say	-265
▁KING	-266
ather	-267
ond	-268
ate	-269
res	-270
fe	-271
▁sw	-272
▁here	-273
▁love	-274
▁their	-275
▁My	-276
▁or	-277
▁than	-278
▁br	-279
pp	-280
--	-281
▁us	-282
▁king	-283
▁they	-284
▁then	-285
all	-286
▁ar	-287
od	-288
▁let	-289
▁un	-290
ig	-291
▁wor	-292
ure	-293
ink	-294
▁may	-295
hy	-296
ame	-297
▁come	-298
fore	-299
ort	-300
▁As	-301
▁qu	-302
ook	-303
▁well	-304
el	-305
ish	-306
LI	-307
▁Whe	-308
▁j	-309
KE	-310
ves	-311
▁one	-312
▁hath	-313
irst	-314
▁make	-315
▁You	-316
▁gra	-317
reat	-318
ak	-319
ng	-320
▁must	-321
gain	-322
ound	-323
▁were	-324
▁ho	-325
▁see	-326
▁should	-327
▁like	-328
ci	-329
▁pro	-330
ue	-331
eak	-332
TIO	-333
▁sa	-334
ity	-335
▁pl	-336
▁mad	-337
▁father	-338
▁had	-339
um	-340
▁did	-341
▁upon	-342
OM	-343
ime	-344
pe	-345
▁too	-346
ice	-347
ON	-348
▁J	-349
▁dis	-350
ence	-351
▁death	-352
ward	-353
▁which	-354
▁en	-355
▁If	-356
ose	-357
own	-358
▁speak	-359
▁po	-360
▁when	-361
ful	-362
▁out	-363
▁fri	-364
▁how	-365
entle	-366
io	-367
pt	-368
un	-369
ICH	-370
▁again	-371
▁RICH	-372
▁tru	-373
OL	-374
de	-375
UKE	-376
▁DUKE	-377
man	-378
▁heart	-379
▁yet	-380
ick	-381
▁hand	-382
very	-383
▁With	-384
▁RICHARD	-385
▁who	-386
ENTIO	-387
▁Thou	-388
ign	-389
▁We	-390
▁some	-391
ance	-392
▁Which	-393
▁hon	-394
▁mar	-395
nce	-396
▁r	-397
ies	-398
▁In	-399
▁son	-400
ire	-401
▁off	-402
▁mine	-403
ist	-404
INC	-405
▁al	-406
ince	-407
har	-408
orn	-409
ack	-410
▁Why	-411
wn	-412
▁Of	-413
▁God	-414
EL	-415
▁hea	-416
▁such	-417
▁time	-418
oy	-419
▁First	-420
▁hear	-421
▁So	-422
ness	-423
▁brother	-424
ec	-425
▁these	-426
▁Cl	-427
▁blood	-428
▁ab	-429
▁ex	-430
ither	-431
▁give	-432
UE	-433
▁fo	-434
▁Is	-435
▁No	-436
▁day	-437
▁ear	-438
▁ro	-439
▁look	-440
▁think	-441
▁II	-442
▁How	-443
▁life	-444
▁tell	-445
EST	-446
ise	-447
▁ey	-448
AB	-449
eet	-450
▁where	-451
UCH	-452
▁take	-453
▁word	-454
oul	-455
▁friend	-456
▁Q	-457
ther	-458
▁This	-459
ag	-460
age	-461
LOUC	-462
▁des	-463
ESTER	-464
▁GLOUC	-465
▁GLOUCESTER	-466
ef	-467
een	-468
erv	-469
▁Come	-470
ady	-471
ust	-472
rown	-473
▁gentle	-474
ings	-475
▁Lord	-476
▁U	-477
▁ri	-478
urse	-479
ave	-480
RY	-481
ase	-482
▁Rome	-483
tis	-484
UEEN	-485
▁art	-486
▁lea	-487
▁VINC	-488
▁QUEEN	-489
▁VINCENTIO	-490
way	-491
▁OF	-492
▁war	-493
▁most	-494
▁honour	-495
▁fl	-496
▁Mar	-497
▁much	-498
UM	-499
LAN	-500
▁sl	-501
▁Where	-502
AM	-503
urn	-504
▁made	-505
▁tw	-506
ment	-507
▁fear	-508
▁hast	-509
▁Now	-510
▁Who	-511
▁bet	-512
ENRY	-513
aught	-514
▁HENRY	-515
▁cou	-516
▁great	-517
▁Be	-518
ber	-519
not	-520
▁bre	-521
ved	-522
▁never	-523
▁new	-524
▁fair	-525
cc	-526
ee	-527
ss	-528
▁af	-529
ower	-530
ap	-531
igh	-532
▁AN	-533
▁men	-534
itt	-535
aster	-536
orrow	-537
▁Your	-538
uke	-539
▁It	-540
iz	-541
ough	-542
ORK	-543
▁YORK	-544
▁any	-545
▁call	-546
▁part	-547
▁Or	-548
▁ra	-549
ation	-550
INIUS	-551
ST	-552
ide	-553
ree	-554
▁ad	-555
▁comm	-556
▁cannot	-557
▁pre	-558
▁true	-559
▁stand	-560
▁heaven	-561
▁PET	-562
▁name	-563
AU	-564
▁been	-565
▁pray	-566
old	-567
▁cl	-568
hing	-569
▁sweet	-570
DW	-571
▁EDW	-572
▁per	-573
▁ple	-574
▁EDWARD	-575
ple	-576
▁GR	-577
,--	-578
▁doth	-579
▁noble	-580
▁wr	-581
ears	-582
▁own	-583
▁LUC	-584
ouse	-585
▁done	-586
▁There	-587
ull	-588
▁tr	-589
▁way	-590
ife	-591
▁head	-592
▁other	-593
RO	-594
aw	-595
▁mean	-596
▁pres	-597
UT	-598
▁Ed	-599
▁bear	-600
red	-601
▁sc	-602
▁nor	-603
AP	-604
EO	-605
▁Ay	-606
OMEO	-607
▁When	-608
▁soul	-609
▁very	-610
▁ROMEO	-611
▁Edward	-612
ass	-613
▁An	-614
ENEN	-615
aint	-616
ving	-617
▁both	-618
▁MENEN	-619
▁night	-620
▁world	-621
▁before	-622
▁MENENIUS	-623
ace	-624
ger	-625
▁By	-626
ause	-627
▁queen	-628
li	-629
▁Let	-630
TH	-631
▁mo	-632
▁chi	-633
aughter	-634
RUCH	-635
▁Here	-636
▁Then	-637
RUCHIO	-638
▁PETRUCHIO	-639
able	-640
▁cont	-641
▁dead	-642
▁down	-643
TES	-644
▁app	-645
ite	-646
▁wh	-647
▁ke	-648
▁rem	-649
▁being	-650
per	-651
▁myself	-652
ab	-653
les	-654
▁MAR	-655
▁Than	-656
▁arm	-657
▁beg	-658
ilt	-659
ORIO	-660
LANUS	-661
▁thus	-662
▁CORIO	-663
▁leave	-664
▁CORIOLANUS	-665
▁Sec	-666
▁grace	-667
▁Second	-668
▁unt	-669
ction	-670
ress	-671
▁Nor	-672
▁eyes	-673
▁LE	-674
▁im	-675
▁mother	-676
led	-677
▁ma	-678
less	-679
▁old	-680
ran	-681
land	-682
INA	-683
▁rep	-684
itiz	-685
▁ever	-686
itizen	-687
lo	-688
ps	-689
sw	-690
▁She	-691
▁int	-692
▁live	-693
▁long	-694
▁wife	-695
▁child	-696
▁wom	-697
▁poor	-698
▁friends	-699
▁III	-700
▁away	-701
▁cons	-702
▁Go	-703
▁might	-704
eace	-705
ford	-706
nder	-707
▁Sir	-708
▁die	-709
▁stay	-710
▁comes	-711
ks	-712
oud	-713
atch	-714
wick	-715
▁War	-716
▁many	-717
▁ru	-718
▁rest	-719
▁house	-720
▁pe	-721
▁crown	-722
▁Warwick	-723
ff	-724
ows	-725
▁le	-726
▁cour	-727
Tis	-728
come	-729
ison	-730
▁His	-731
▁ent	-732
▁har	-733
▁thought	-734
LA	-735
SAB	-736
ELLA	-737
▁lie	-738
▁ISAB	-739
▁ISABELLA	-740
erc	-741
ian	-742
iss	-743
uck	-744
RAN	-745
▁set	-746
▁daughter	-747
che	-748
▁Well	-749
▁Romeo	-750
▁nothing	-751
ULI	-752
ors	-753
ONTES	-754
ULIET	-755
atter	-756
▁tong	-757
▁JULIET	-758
▁better	-759
▁LEONTES	-760
▁St	-761
▁VI	-762
▁Nay	-763
ittle	-764
▁gone	-765
▁prince	-766
rant	-767
AD	-768
ADY	-769
int	-770
ought	-771
▁LADY	-772
AL	-773
CE	-774
me	-775
ENCE	-776
well	-777
▁tri	-778
ied	-779
▁Pro	-780
▁keep	-781
▁news	-782
os	-783
▁res	-784
▁sle	-785
▁wit	-786
▁best	-787
▁against	-788
ces	-789
for	-790
hall	-791
ious	-792
▁Serv	-793
▁those	-794
ier	-795
ool	-796
hard	-797
▁SIC	-798
▁acc	-799
▁gri	-800
▁comp	-801
▁hence	-802
▁little	-803
▁Citizen	-804
▁SICINIUS	-805
▁Not	-806
▁hour	-807
▁lords	-808
▁thing	-809
une	-810
akes	-811
▁put	-812
ardon	-813
▁face	-814
lse	-815
ret	-816
sed	-817
ult	-818
▁On	-819
llow	-820
▁end	-821
▁kind	-822
EY	-823
ft	-824
▁two	-825
▁still	-826
▁young	-827
ont	-828
ork	-829
ield	-830
▁pri	-831
▁himself	-832
ud	-833
alk	-834
▁Thy	-835
▁pur	-836
▁LUCIO	-837
▁power	-838
ale	-839
ert	-840
ins	-841
▁IV	-842
▁Ric	-843
▁cha	-844
▁Richard	-845
▁CL	-846
▁sub	-847
▁count	-848
▁therefore	-849
TI	-850
cl	-851
ew	-852
▁gu	-853
ried	-854
cious	-855
iness	-856
▁dear	-857
▁else	-858
▁unto	-859
▁first	-860
▁peace	-861
▁BR	-862
▁sm	-863
ason	-864
hile	-865
▁Have	-866
▁Will	-867
▁duke	-868
▁till	-869
▁could	-870
ail	-871
ect	-872
ile	-873
uty	-874
▁co	-875
▁hus	-876
▁tra	-877
▁back	-878
▁words	-879
▁though	-880
ETH	-881
▁ELI	-882
▁bid	-883
▁dre	-884
▁tre	-885
ABETH	-886
▁York	-887
▁fell	-888
▁find	-889
▁need	-890
▁earth	-891
▁tongue	-892
ius	-893
yal	-894
band	-895
ople	-896
▁lady	-897
▁thine	-898
ty	-899
IAN	-900
men	-901
eech	-902
orse	-903
▁bra	-904
▁hel	-905
▁home	-906
▁hope	-907
▁seem	-908
▁forth	-909
ark	-910
eth	-911
ray	-912
enry	-913
▁Yet	-914
▁high	-915
▁Henry	-916
▁husband	-917
vere	-918
▁Good	-919
▁right	-920
get	-921
▁chan	-922
tw	-923
ARW	-924
ICK	-925
uth	-926
▁ban	-927
▁WARW	-928
▁mind	-929
▁people	-930
▁WARWICK	-931
ds	-932
ix	-933
AST	-934
ach	-935
hip	-936
rer	-937
▁Do	-938
▁All	-939
▁che	-940
ister	-941
▁char	-942
▁conf	-943
▁show	-944
▁Shall	-945
ged	-946
▁bri	-947
▁hands	-948
HAM	-949
fort	-950
▁imp	-951
▁joy	-952
▁why	-953
▁Nurse	-954
▁cause	-955
▁master	-956
UL	-957
▁gl	-958
APUL	-959
▁law	-960
▁They	-961
▁mist	-962
▁none	-963
▁once	-964
▁said	-965
▁serv	-966
APULET	-967
▁CAPULET	-968
▁fort	-969
▁every	-970
GE	-971
IL	-972
MIO	-973
ren	-974
▁bod	-975
ousin	-976
▁bring	-977
RI	-978
bt	-979
▁dou	-980
UCK	-981
eed	-982
UTUS	-983
ates	-984
▁BUCK	-985
▁pass	-986
INGHAM	-987
▁BRUTUS	-988
▁please	-989
▁BUCKINGHAM	-990
lt	-991
BRO	-992
ESS	-993
iet	-994
ird	-995
▁BOL	-996
BROKE	-997
RANIO	-998
▁From	-999
▁light	-1000
▁BOLING	-1001
▁TRANIO	-1002
▁BOLINGBROKE	-1003
eel	-1004
▁wo	-1005
swer	-1006
vost	-1007
▁bes	-1008
▁nat	-1009
▁thr	-1010
▁royal	-1011
▁tears	-1012
▁whose	-1013
▁present	-1014
mb	-1015
ary	-1016
cle	-1017
its	-1018
▁Our	-1019
▁boy	-1020
▁came	-1021
▁just	-1022
▁since	-1023
lf	-1024
vy	-1025
ock	-1026
ory	-1027
roke	-1028
▁dev	-1029
▁full	-1030
▁after	-1031
▁heard	-1032
▁under	-1033
▁wrong	-1034
▁pardon	-1035
NE	-1036
GAR	-1037
pose	-1038
GARET	-1039
▁happ	-1040
▁land	-1041
▁place	-1042
▁MARGARET	-1043
ATH	-1044
ens	-1045
AMIL	-1046
▁ere	-1047
▁mis	-1048
▁King	-1049
▁last	-1050
▁state	-1051
sand	-1052
▁care	-1053
▁hold	-1054
▁kill	-1055
▁meet	-1056
▁sorrow	-1057
ORD	-1058
GELO	-1059
cent	-1060
esty	-1061
▁GRE	-1062
▁eye	-1063
ition	-1064
▁help	-1065
▁whom	-1066
▁ANGELO	-1067
▁thousand	-1068
▁Eng	-1069
▁fal	-1070
ARINA	-1071
▁less	-1072
arence	-1073
▁answer	-1074
▁follow	-1075
SC	-1076
irt	-1077
▁Sh	-1078
▁ch	-1079
cius	-1080
▁bus	-1081
▁far	-1082
▁pat	-1083
▁sun	-1084
ceive	-1085
▁KATH	-1086
▁enem	-1087
▁fool	-1088
▁weep	-1089
selves	-1090
▁about	-1091
▁shame	-1092
▁hither	-1093
▁Clarence	-1094
▁KATHARINA	-1095
iol	-1096
urde	-1097
▁fall	-1098
▁maid	-1099
▁Marcius	-1100
▁gentleman	-1101
day	-1102
▁ob	-1103
asure	-1104
▁into	-1105
▁Un	-1106
▁Up	-1107
ALUS	-1108
▁ESC	-1109
▁coun	-1110
▁hate	-1111
▁court	-1112
▁grief	-1113
▁makes	-1114
▁cousin	-1115
▁ESCALUS	-1116
▁gracious	-1117
air	-1118
▁Al	-1119
imes	-1120
ject	-1121
▁stri	-1122
▁woman	-1123
iv	-1124
ove	-1125
▁Hath	-1126
▁stre	-1127
▁turn	-1128
▁worth	-1129
▁comfort	-1130
alt	-1131
ild	-1132
ons	-1133
deed	-1134
ices	-1135
ling	-1136
▁bed	-1137
▁hum	-1138
▁DUCH	-1139
▁Duke	-1140
▁dost	-1141
▁talk	-1142
▁wilt	-1143
▁sleep	-1144
urderer	-1145
▁DUCHESS	-1146
ERC	-1147
itor	-1148
ount	-1149
pher	-1150
▁bel	-1151
▁Ange	-1152
▁body	-1153
▁over	-1154
▁i	-1155
ute	-1156
▁bu	-1157
▁Her	-1158
▁att	-1159
▁dra	-1160
▁inst	-1161
morrow	-1162
▁fault	-1163
▁sound	-1164
▁thank	-1165
▁Angelo	-1166
IA	-1167
ised	-1168
▁adv	-1169
ience	-1170
▁play	-1171
AMILLO	-1172
▁false	-1173
▁prove	-1174
▁indeed	-1175
▁CAMILLO	-1176
▁another	-1177
ily	-1178
▁vo	-1179
ieve	-1180
omet	-1181
▁has	-1182
▁ret	-1183
▁ser	-1184
▁use	-1185
▁wel	-1186
▁Even	-1187
▁deed	-1188
▁Would	-1189
▁sword	-1190
▁fellow	-1191
▁Provost	-1192
ENS	-1193
ORT	-1194
ade	-1195
ans	-1196
▁bo	-1197
▁HORT	-1198
▁even	-1199
▁pers	-1200
▁vill	-1201
▁fight	-1202
▁matter	-1203
▁HORTENS	-1204
▁fortune	-1205
RIAR	-1206
hold	-1207
▁Upon	-1208
▁sent	-1209
▁FRIAR	-1210
▁grave	-1211
▁prison	-1212
▁sovere	-1213
▁country	-1214
▁HORTENSIO	-1215
,'	-1216
STA	-1217
eal	-1218
ury	-1219
APTI	-1220
▁Are	-1221
▁cur	-1222
▁dan	-1223
▁merc	-1224
▁send	-1225
▁virt	-1226
▁BAPTI	-1227
▁doubt	-1228
▁years	-1229
▁banish	-1230
▁rather	-1231
▁BAPTISTA	-1232
YC	-1233
mp	-1234
▁Ty	-1235
▁gr	-1236
OLYC	-1237
fect	-1238
ouch	-1239
pect	-1240
▁AUT	-1241
▁COM	-1242
▁ass	-1243
▁hang	-1244
▁want	-1245
▁wish	-1246
OLYCUS	-1247
▁reven	-1248
▁truth	-1249
▁COMINIUS	-1250
▁business	-1251
▁AUTOLYCUS	-1252
.'	-1253
dd	-1254
▁At	-1255
▁CLAR	-1256
▁More	-1257
▁disc	-1258
▁lies	-1259
▁only	-1260
▁Third	-1261
▁shalt	-1262
▁reason	-1263
▁CLARENCE	-1264
ms	-1265
ere	-1266
ior	-1267
pen	-1268
ENES	-1269
▁cra	-1270
▁sea	-1271
pherd	-1272
rance	-1273
▁arms	-1274
▁stra	-1275
▁dream	-1276
▁breath	-1277
▁command	-1278
ENV	-1279
der	-1280
▁gi	-1281
OLIO	-1282
ener	-1283
▁NOR	-1284
▁lay	-1285
▁sec	-1286
▁BENV	-1287
▁prom	-1288
▁Clown	-1289
▁stran	-1290
▁Gentle	-1291
▁BENVOLIO	-1292
SP	-1293
ERO	-1294
ROSP	-1295
UMIO	-1296
▁sen	-1297
▁Take	-1298
▁holy	-1299
▁pity	-1300
▁wind	-1301
▁PROSP	-1302
▁proud	-1303
▁remem	-1304
▁somet	-1305
▁GRUMIO	-1306
▁enough	-1307
▁content	-1308
▁PROSPERO	-1309
ia	-1310
hed	-1311
ken	-1312
▁Su	-1313
ERCU	-1314
ator	-1315
▁Did	-1316
▁bea	-1317
▁Kate	-1318
▁dare	-1319
▁fare	-1320
▁sold	-1321
▁spir	-1322
▁MERCU	-1323
▁lives	-1324
▁swear	-1325
▁three	-1326
▁MERCUTIO	-1327
▁Murderer	-1328
IS	-1329
ike	-1330
eter	-1331
▁dep	-1332
▁get	-1333
▁Were	-1334
▁gods	-1335
▁tend	-1336
▁nature	-1337
▁within	-1338
▁Servant	-1339
▁villain	-1340
▁welcome	-1341
▁LUCENTIO	-1342
OMP	-1343
ars	-1344
ham	-1345
LAND	-1346
▁gre	-1347
▁saw	-1348
ester	-1349
▁POMP	-1350
▁foul	-1351
▁free	-1352
▁kiss	-1353
▁happy	-1354
▁madam	-1355
▁sister	-1356
▁things	-1357
▁mistress	-1358
▁sovereign	-1359
AUL	-1360
any	-1361
apt	-1362
att	-1363
hal	-1364
unt	-1365
ient	-1366
vers	-1367
▁Was	-1368
▁Give	-1369
▁PAUL	-1370
▁city	-1371
▁break	-1372
▁means	-1373
▁yield	-1374
▁PAULINA	-1375
▁beseech	-1376
▁subject	-1377
eft	-1378
ery	-1379
▁aw	-1380
ague	-1381
▁Say	-1382
▁den	-1383
▁mer	-1384
onder	-1385
▁Look	-1386
▁born	-1387
▁oath	-1388
gainst	-1389
gether	-1390
▁horse	-1391
▁yours	-1392
▁GREMIO	-1393
▁POMPEY	-1394
NIA	-1395
OLI	-1396
anc	-1397
OLUM	-1398
balt	-1399
ches	-1400
usic	-1401
▁Com	-1402
▁dru	-1403
▁tem	-1404
▁POLI	-1405
▁fire	-1406
▁supp	-1407
▁VOLUM	-1408
▁faith	-1409
▁looks	-1410
▁while	-1411
▁wound	-1412
▁bloody	-1413
▁England	-1414
▁VOLUMNIA	-1415
▁yourself	-1416
ey	-1417
ues	-1418
INGS	-1419
▁car	-1420
▁maj	-1421
▁spo	-1422
▁win	-1423
enger	-1424
▁Fare	-1425
▁HAST	-1426
▁cond	-1427
▁requ	-1428
centio	-1429
ingman	-1430
▁common	-1431
▁traitor	-1432
▁HASTINGS	-1433
▁Servingman	-1434
by	-1435
AUR	-1436
rong	-1437
▁Can	-1438
▁May	-1439
▁def	-1440
▁lam	-1441
▁mon	-1442
broke	-1443
▁Hast	-1444
▁LAUR	-1445
▁mark	-1446
ertain	-1447
▁uncle	-1448
essenger	-1449
▁LAURENCE	-1450
▁children	-1451
BY	-1452
BER	-1453
▁Ah	-1454
form	-1455
▁Jul	-1456
▁met	-1457
▁val	-1458
▁beat	-1459
▁late	-1460
▁left	-1461
▁soon	-1462
▁sight	-1463
▁Tybalt	-1464
▁danger	-1465
▁tender	-1466
▁majesty	-1467
▁Therefore	-1468
FF	-1469
ten	-1470
use	-1471
▁Sp	-1472
LIFF	-1473
THUM	-1474
like	-1475
▁sin	-1476
▁woe	-1477
▁days	-1478
▁foot	-1479
▁save	-1480
▁seen	-1481
▁told	-1482
BERLAND	-1483
▁NORTHUM	-1484
▁warrant	-1485
▁NORTHUMBERLAND	-1486
ID	-1487
TA	-1488
rem	-1489
▁Lu	-1490
▁Pl	-1491
ides	-1492
idow	-1493
▁sad	-1494
▁does	-1495
▁gener	-1496
▁mercy	-1497
▁report	-1498
▁return	-1499
▁farewell	-1500
up	-1501
dom	-1502
hes	-1503
rel	-1504
earn	-1505
ring	-1506
ters	-1507
unes	-1508
▁sit	-1509
▁ANNE	-1510
▁deep	-1511
▁gold	-1512
▁sure	-1513
▁heavy	-1514
▁marry	-1515
▁Though	-1516
▁purpose	-1517
▁through	-1518
▁without	-1519
▁together	-1520
bl	-1521
ca	-1522
ERD	-1523
aim	-1524
ict	-1525
▁PR	-1526
INCE	-1527
cher	-1528
enty	-1529
▁Had	-1530
▁cho	-1531
▁ill	-1532
▁rec	-1533
ments	-1534
▁Clif	-1535
▁Mont	-1536
▁cold	-1537
▁ears	-1538
▁grow	-1539
▁lost	-1540
ignior	-1541
▁deser	-1542
▁nurse	-1543
▁Juliet	-1544
▁PRINCE	-1545
▁person	-1546
▁strange	-1547
▁Clifford	-1548
az	-1549
mer	-1550
ush	-1551
▁MI	-1552
▁Ri	-1553
ains	-1554
ceed	-1555
ours	-1556
ross	-1557
vent	-1558
▁Bol	-1559
▁Cam	-1560
▁Cor	-1561
▁ask	-1562
▁wat	-1563
▁Tell	-1564
▁disp	-1565
▁suff	-1566
▁liege	-1567
▁pluck	-1568
▁times	-1569
▁Boling	-1570
▁spirit	-1571
▁believe	-1572
▁thyself	-1573
▁Bolingbroke	-1574
ets	-1575
ift	-1576
▁Ha	-1577
▁Wh	-1578
▁jo	-1579
ever	-1580
▁One	-1581
▁age	-1582
▁air	-1583
▁sil	-1584
▁Away	-1585
▁Some	-1586
▁heir	-1587
▁loss	-1588
▁says	-1589
▁Whose	-1590
▁learn	-1591
▁point	-1592
▁Should	-1593
▁Signior	-1594
aid	-1595
ced	-1596
ial	-1597
ner	-1598
▁cry	-1599
▁fly	-1600
▁past	-1601
▁devil	-1602
▁friar	-1603
▁haste	-1604
▁trust	-1605
▁Coriol	-1606
▁desire	-1607
▁ground	-1608
▁instru	-1609
▁entreat	-1610
▁justice	-1611
▁Farewell	-1612
gu	-1613
sh	-1614
aud	-1615
ges	-1616
ina	-1617
ixt	-1618
ined	-1619
outh	-1620
▁Sen	-1621
▁mur	-1622
▁ord	-1623
▁vis	-1624
aking	-1625
night	-1626
▁Like	-1627
▁Pray	-1628
▁betw	-1629
▁bold	-1630
▁fast	-1631
▁near	-1632
▁found	-1633
▁slain	-1634
▁France	-1635
▁toward	-1636
▁service	-1637
▁remember	-1638
▁straight	-1639
LE	-1640
UF	-1641
LOR	-1642
▁Gl	-1643
LORI	-1644
UFID	-1645
oman	-1646
ution	-1647
▁hard	-1648
▁wear	-1649
▁AUFID	-1650
▁FLORI	-1651
▁These	-1652
▁alone	-1653
▁curse	-1654
▁quick	-1655
▁beauty	-1656
▁strong	-1657
▁worthy	-1658
▁married	-1659
▁AUFIDIUS	-1660
▁Messenger	-1661
xt	-1662
ION	-1663
TON	-1664
let	-1665
▁hu	-1666
adam	-1667
ithe	-1668
ning	-1669
ured	-1670
▁See	-1671
▁bec	-1672
▁run	-1673
▁woo	-1674
audio	-1675
▁exec	-1676
▁open	-1677
▁poss	-1678
▁enemy	-1679
▁grant	-1680
▁ready	-1681
▁touch	-1682
▁Claudio	-1683
▁brought	-1684
▁general	-1685
▁revenge	-1686
!'	-1687
bs	-1688
gs	-1689
ERS	-1690
aunt	-1691
cept	-1692
ible	-1693
inks	-1694
▁fur	-1695
▁inc	-1696
▁inf	-1697
▁iss	-1698
umber	-1699
▁deli	-1700
▁duty	-1701
▁lose	-1702
▁prof	-1703
▁quar	-1704
▁canst	-1705
▁hours	-1706
▁knows	-1707
▁youth	-1708
▁charge	-1709
▁itself	-1710
▁Senator	-1711
▁confess	-1712
▁thoughts	-1713
▁Gentleman	-1714
AS	-1715
EB	-1716
pl	-1717
ua	-1718
vo	-1719
ouc	-1720
CIUS	-1721
ched	-1722
illo	-1723
ship	-1724
▁Bec	-1725
▁SEB	-1726
▁del	-1727
▁par	-1728
ithee	-1729
riage	-1730
▁desp	-1731
▁dist	-1732
▁feel	-1733
▁morn	-1734
▁read	-1735
ASTIAN	-1736
▁Glouc	-1737
▁Madam	-1738
▁speed	-1739
▁Master	-1740
▁stands	-1741
▁streng	-1742
▁twenty	-1743
▁Against	-1744
▁MARCIUS	-1745
▁Montague	-1746
▁Shepherd	-1747
▁SEBASTIAN	-1748
OW	-1749
op	-1750
eep	-1751
olk	-1752
oop	-1753
ump	-1754
▁Pr	-1755
cess	-1756
▁div	-1757
▁jud	-1758
▁fore	-1759
▁half	-1760
▁hell	-1761
▁mock	-1762
▁post	-1763
ingham	-1764
▁field	-1765
▁resol	-1766
fection	-1767
▁behold	-1768
▁Camillo	-1769
▁counsel	-1770
▁fearful	-1771
no	-1772
DEL	-1773
ads	-1774
alm	-1775
ols	-1776
▁Bo	-1777
▁ye	-1778
osom	-1779
▁cut	-1780
▁dam	-1781
▁min	-1782
▁ter	-1783
DELLO	-1784
ortal	-1785
▁BION	-1786
▁Buck	-1787
▁Till	-1788
▁batt	-1789
▁each	-1790
▁trib	-1791
▁work	-1792
▁wret	-1793
▁bosom	-1794
▁bound	-1795
▁known	-1796
▁short	-1797
▁hearts	-1798
▁honest	-1799
▁Hastings	-1800
▁marriage	-1801
▁BIONDELLO	-1802
▁Buckingham	-1803
▁Gloucester	-1804
of	-1805
sc	-1806
rah	-1807
the	-1808
▁ve	-1809
ench	-1810
folk	-1811
iers	-1812
ones	-1813
pare	-1814
▁Cap	-1815
▁ten	-1816
▁tit	-1817
▁whi	-1818
▁Thus	-1819
▁Vols	-1820
▁dish	-1821
▁draw	-1822
▁harm	-1823
▁seek	-1824
▁suit	-1825
▁tale	-1826
▁guilt	-1827
▁serve	-1828
▁widow	-1829
▁women	-1830
▁attend	-1831
▁murder	-1832
▁strike	-1833
▁voices	-1834
▁wonder	-1835
▁Norfolk	-1836
▁company	-1837
▁highness	-1838
▁something	-1839
OP	-1840
Tw	-1841
▁CA	-1842
▁ag	-1843
ERLE	-1844
hood	-1845
most	-1846
▁AUM	-1847
▁bur	-1848
▁cor	-1849
▁sat	-1850
TONIO	-1851
ander	-1852
ished	-1853
▁knew	-1854
▁pret	-1855
▁side	-1856
▁sing	-1857
▁didst	-1858
▁watch	-1859
▁change	-1860
▁loving	-1861
▁ANTONIO	-1862
▁AUMERLE	-1863
▁heavens	-1864
▁Lucentio	-1865
▁strength	-1866
▁gentlemen	-1867
ALO	-1868
ents	-1869
▁GON	-1870
▁Pet	-1871
▁Wel	-1872
▁act	-1873
▁aff	-1874
▁bit	-1875
▁Bian	-1876
▁Lanc	-1877
▁Tran	-1878
▁sake	-1879
▁stir	-1880
▁wast	-1881
▁Marry	-1882
▁brave	-1883
▁cloud	-1884
▁enter	-1885
ethinks	-1886
▁enemies	-1887
▁pleasure	-1888
▁Lancaster	-1889
bly	-1890
fid	-1891
ils	-1892
rew	-1893
▁Sw	-1894
▁dr	-1895
▁ty	-1896
▁wa	-1897
ives	-1898
oose	-1899
▁HER	-1900
▁Pom	-1901
▁Unt	-1902
▁ext	-1903
▁gar	-1904
▁pie	-1905
▁pra	-1906
▁Lady	-1907
▁Most	-1908
▁begg	-1909
▁chee	-1910
▁next	-1911
▁pale	-1912
▁sign	-1913
ceived	-1914
▁breat	-1915
▁close	-1916
▁gates	-1917
▁music	-1918
▁souls	-1919
▁title	-1920
▁Bianca	-1921
▁coming	-1922
▁course	-1923
▁suffer	-1924
▁thanks	-1925
▁withal	-1926
▁deliver	-1927
be	-1928
AUD	-1929
ats	-1930
els	-1931
▁Au	-1932
▁Ch	-1933
▁sk	-1934
etch	-1935
vour	-1936
▁abs	-1937
▁fit	-1938
AUDIO	-1939
MIONE	-1940
claim	-1941
oward	-1942
▁Rich	-1943
▁forg	-1944
▁grie	-1945
▁jest	-1946
▁lips	-1947
▁rich	-1948
▁sick	-1949
▁weak	-1950
▁CLIFF	-1951
▁Petru	-1952
▁order	-1953
▁plain	-1954
▁become	-1955
▁either	-1956
▁CLAUDIO	-1957
▁CLIFFORD	-1958
▁HERMIONE	-1959
▁patience	-1960
▁themselves	-1961
DA	-1962
isf	-1963
kes	-1964
lly	-1965
oof	-1966
ses	-1967
urp	-1968
▁EL	-1969
▁JO	-1970
▁ac	-1971
arry	-1972
chio	-1973
east	-1974
irth	-1975
race	-1976
rest	-1977
ries	-1978
twas	-1979
▁Bes	-1980
▁reg	-1981
▁ven	-1982
▁wis	-1983
RANDA	-1984
ready	-1985
twere	-1986
▁Call	-1987
▁LORD	-1988
▁Make	-1989
▁cast	-1990
▁forb	-1991
▁prop	-1992
▁same	-1993
▁took	-1994
▁wall	-1995
fidius	-1996
▁Being	-1997
▁Since	-1998
▁along	-1999
▁cheer	-2000
▁merry	-2001
▁sworn	-2002
▁worse	-2003
▁Tranio	-2004
▁breast	-2005
▁consul	-2006
▁forget	-2007
▁poison	-2008
▁virtue	-2009
▁MIRANDA	-2010
▁further	-2011
▁Aufidius	-2012
▁Petruchio	-2013
HN	-2014
cy	-2015
SON	-2016
lst	-2017
▁Re	-2018
▁cr	-2019
▁du	-2020
▁ta	-2021
ally	-2022
ions	-2023
rows	-2024
rust	-2025
vern	-2026
▁bad	-2027
▁emb	-2028
▁enc	-2029
▁red	-2030
▁wed	-2031
▁Alas	-2032
▁JOHN	-2033
▁book	-2034
▁dire	-2035
▁four	-2036
▁gave	-2037
▁move	-2038
▁self	-2039
▁soft	-2040
▁wise	-2041
▁begin	-2042
▁given	-2043
▁issue	-2044
▁liber	-2045
▁loves	-2046
▁mouth	-2047
▁battle	-2048
▁office	-2049
▁already	-2050
▁consent	-2051
▁morning	-2052
▁request	-2053
▁Hereford	-2054
▁dangerous	-2055
nk	-2056
pes	-2057
▁Ar	-2058
anus	-2059
dden	-2060
each	-2061
fter	-2062
icer	-2063
mber	-2064
mond	-2065
orge	-2066
uous	-2067
used	-2068
▁Yes	-2069
▁exp	-2070
▁foe	-2071
▁gro	-2072
▁lad	-2073
▁pay	-2074
▁burn	-2075
▁goes	-2076
▁sons	-2077
▁succ	-2078
▁trou	-2079
▁Speak	-2080
▁Tower	-2081
▁black	-2082
▁feast	-2083
▁frown	-2084
▁Before	-2085
▁satisf	-2086
▁wounds	-2087
▁between	-2088
▁neither	-2089
▁quarrel	-2090
▁Richmond	-2091
▁soldiers	-2092
NT	-2093
awd	-2094
hem	-2095
irm	-2096
ots	-2097
▁Ab	-2098
aret	-2099
aris	-2100
chan	-2101
empt	-2102
ging	-2103
ires	-2104
rist	-2105
ting	-2106
ures	-2107
▁bar	-2108
▁dro	-2109
▁est	-2110
▁hot	-2111
▁mal	-2112
▁und	-2113
TESBY	-2114
garet	-2115
owers	-2116
▁Must	-2117
▁Such	-2118
▁case	-2119
▁dark	-2120
▁priv	-2121
▁sigh	-2122
▁thri	-2123
▁vict	-2124
▁bless	-2125
▁bride	-2126
▁brief	-2127
▁often	-2128
▁water	-2129
▁Unless	-2130
▁having	-2131
▁speech	-2132
▁thence	-2133
▁Because	-2134
▁CATESBY	-2135
▁Welcome	-2136
▁servant	-2137
▁presence	-2138
po	-2139
ILI	-2140
emn	-2141
ona	-2142
▁ev	-2143
alth	-2144
ends	-2145
▁ble	-2146
▁bow	-2147
▁got	-2148
▁pen	-2149
▁sum	-2150
cient	-2151
ondon	-2152
▁Bapt	-2153
▁Both	-2154
▁GREY	-2155
▁Keep	-2156
▁Whom	-2157
▁deny	-2158
▁town	-2159
▁wars	-2160
▁Saint	-2161
▁Their	-2162
▁compl	-2163
▁dread	-2164
▁inter	-2165
▁kings	-2166
▁loved	-2167
▁seems	-2168
▁spoke	-2169
▁visit	-2170
▁voice	-2171
▁London	-2172
▁mighty	-2173
▁mortal	-2174
▁throne	-2175
▁Baptist	-2176
▁flatter	-2177
▁respect	-2178
▁Margaret	-2179
▁Coriolanus	-2180
CA	-2181
IV	-2182
ip	-2183
so	-2184
bed	-2185
ern	-2186
oun	-2187
▁De	-2188
▁Ge	-2189
ILIA	-2190
iant	-2191
ided	-2192
ired	-2193
ourn	-2194
ught	-2195
▁Ere	-2196
▁RIV	-2197
▁bab	-2198
▁bro	-2199
▁buy	-2200
▁cap	-2201
▁col	-2202
▁fra	-2203
▁hur	-2204
▁vow	-2205
IANCA	-2206
▁Isab	-2207
▁Lest	-2208
▁prot	-2209
▁safe	-2210
ainted	-2211
▁Paris	-2212
▁deeds	-2213
▁knock	-2214
▁BIANCA	-2215
▁George	-2216
▁RIVERS	-2217
▁action	-2218
▁appear	-2219
▁bitter	-2220
▁dishon	-2221
▁sudden	-2222
▁ancient	-2223
▁chamber	-2224
▁prayers	-2225
▁promise	-2226
▁worship	-2227
▁Baptista	-2228
▁princely	-2229
ls	-2230
BOW	-2231
cks	-2232
esh	-2233
now	-2234
ura	-2235
▁pu	-2236
AUNT	-2237
ated	-2238
lish	-2239
nown	-2240
oney	-2241
resh	-2242
urch	-2243
▁ang	-2244
▁ign	-2245
▁lim	-2246
▁opp	-2247
▁reb	-2248
▁sac	-2249
essed	-2250
otion	-2251
right	-2252
stand	-2253
▁bawd	-2254
▁lead	-2255
▁rage	-2256
▁viol	-2257
antage	-2258
▁ELBOW	-2259
▁GAUNT	-2260
▁Roman	-2261
▁Stand	-2262
▁appro	-2263
▁creat	-2264
▁cross	-2265
▁fetch	-2266
▁flesh	-2267
▁heads	-2268
▁scorn	-2269
▁coward	-2270
▁lament	-2271
▁triump	-2272
▁kingdom	-2273
▁patient	-2274
▁prepare	-2275
▁success	-2276
▁valiant	-2277
▁witness	-2278
▁presently	-2279
UR	-2280
to	-2281
GUE	-2282
iff	-2283
ler	-2284
urs	-2285
▁Bl	-2286
▁Jo	-2287
▁Ox	-2288
▁TY	-2289
▁ow	-2290
ONTA	-2291
aken	-2292
mand	-2293
sper	-2294
▁cle	-2295
▁eat	-2296
▁ins	-2297
▁lab	-2298
▁unw	-2299
antag	-2300
ensio	-2301
ities	-2302
itted	-2303
▁Hort	-2304
▁Merc	-2305
▁gall	-2306
▁kins	-2307
▁lack	-2308
▁moon	-2309
▁prin	-2310
▁scar	-2311
▁wash	-2312
▁MONTA	-2313
▁Think	-2314
▁drink	-2315
▁least	-2316
▁offer	-2317
▁slave	-2318
▁throw	-2319
▁Christ	-2320
▁Oxford	-2321
▁defend	-2322
▁faults	-2323
▁secret	-2324
▁forward	-2325
▁prithee	-2326
▁MONTAGUE	-2327
▁tribunes	-2328
▁Hortensio	-2329
ac	-2330
als	-2331
bit	-2332
ees	-2333
ley	-2334
pey	-2335
ued	-2336
▁id	-2337
aked	-2338
feit	-2339
host	-2340
ines	-2341
king	-2342
ully	-2343
vest	-2344
ying	-2345
▁Con	-2346
▁Gre	-2347
▁Kat	-2348
▁Whi	-2349
▁ben	-2350
▁fie	-2351
▁mid	-2352
▁nay	-2353
▁occ	-2354
▁sur	-2355
▁Doth	-2356
▁Hark	-2357
▁damn	-2358
▁dest	-2359
▁hide	-2360
▁writ	-2361
asters	-2362
harina	-2363
▁Bohem	-2364
▁North	-2365
▁beast	-2366
▁small	-2367
▁Pompey	-2368
▁almost	-2369
▁chance	-2370
▁depart	-2371
▁pretty	-2372
▁possess	-2373
▁thither	-2374
umberland	-2375
▁subjects	-2376
▁Katharina	-2377
▁execution	-2378
▁slaughter	-2379
▁Northumberland	-2380
AT	-2381
RG	-2382
ITA	-2383
arl	-2384
aul	-2385
rum	-2386
umb	-2387
▁Ad	-2388
▁Am	-2389
▁Br	-2390
▁Ca	-2391
▁Ex	-2392
▁ut	-2393
hind	-2394
oint	-2395
then	-2396
ural	-2397
▁eas	-2398
inger	-2399
ingly	-2400
ledge	-2401
▁Hold	-2402
▁PERD	-2403
▁Paul	-2404
▁VIRG	-2405
▁base	-2406
▁fill	-2407
▁fond	-2408
▁form	-2409
▁glad	-2410
▁inno	-2411
▁pain	-2412
▁stru	-2413
▁tear	-2414
▁wert	-2415
cience	-2416
perate	-2417
▁Peace	-2418
▁Sweet	-2419
▁birth	-2420
▁hadst	-2421
▁trump	-2422
▁usurp	-2423
▁awhile	-2424
▁favour	-2425
▁goodly	-2426
▁living	-2427
▁whence	-2428
▁Bohemia	-2429
▁PERDITA	-2430
▁certain	-2431
▁hearing	-2432
▁offence	-2433
▁perform	-2434
▁proceed	-2435
▁quickly	-2436
▁VIRGILIA	-2437
▁virtuous	-2438
LY	-2439
ze	-2440
dge	-2441
eds	-2442
eem	-2443
raw	-2444
ror	-2445
▁ay	-2446
▁ca	-2447
▁ur	-2448
IANA	-2449
ding	-2450
iest	-2451
omes	-2452
orth	-2453
over	-2454
▁Off	-2455
▁SLY	-2456
▁Yea	-2457
▁adm	-2458
▁inj	-2459
▁pit	-2460
▁shi	-2461
▁tor	-2462
edant	-2463
force	-2464
isure	-2465
ustom	-2466
▁Stay	-2467
▁fier	-2468
▁knee	-2469
▁mild	-2470
▁shad	-2471
▁slew	-2472
▁walk	-2473
▁wild	-2474
astard	-2475
▁angry	-2476
▁blows	-2477
▁forsw	-2478
▁kneel	-2479
▁match	-2480
▁pleas	-2481
▁quiet	-2482
▁worst	-2483
▁Isabel	-2484
▁church	-2485
▁guilty	-2486
▁lawful	-2487
▁MARIANA	-2488
▁greater	-2489
▁leisure	-2490
▁soldier	-2491
▁treason	-2492
▁weeping	-2493
▁deserved	-2494
▁affection	-2495
gg	-2496
arn	-2497
awn	-2498
gue	-2499
joy	-2500
ked	-2501
med	-2502
ony	-2503
ual	-2504
vol	-2505
zen	-2506
▁ST	-2507
▁Tw	-2508
▁ap	-2509
▁em	-2510
ARIS	-2511
adua	-2512
ames	-2513
ighb	-2514
read	-2515
rupt	-2516
▁Bel	-2517
▁Men	-2518
▁Out	-2519
▁fam	-2520
▁hap	-2521
▁med	-2522
▁mod	-2523
▁nob	-2524
▁sho	-2525
▁unc	-2526
▁unk	-2527
▁won	-2528
ended	-2529
eness	-2530
fully	-2531
remio	-2532
rumio	-2533
▁Mist	-2534
▁blow	-2535
▁doom	-2536
▁fled	-2537
▁list	-2538
▁neck	-2539
▁sole	-2540
▁year	-2541
▁PARIS	-2542
▁Padua	-2543
▁Watch	-2544
▁While	-2545
▁ignor	-2546
▁march	-2547
▁needs	-2548
▁reign	-2549
▁sense	-2550
▁shows	-2551
antagen	-2552
itizens	-2553
osition	-2554
▁Gremio	-2555
▁Grumio	-2556
▁behind	-2557
▁clouds	-2558
▁contin	-2559
▁encoun	-2560
▁forbid	-2561
▁govern	-2562
▁ladies	-2563
▁letter	-2564
▁second	-2565
▁speaks	-2566
▁English	-2567
▁because	-2568
▁breathe	-2569
▁condemn	-2570
▁letters	-2571
▁liberty	-2572
▁measure	-2573
▁trouble	-2574
▁wouldst	-2575
▁prisoner	-2576
▁sentence	-2577
▁shepherd	-2578
▁Plantagen	-2579
▁dishonour	-2580
▁ourselves	-2581
▁banishment	-2582
:'	-2583
dle	-2584
ize	-2585
oor	-2586
oss	-2587
rue	-2588
vel	-2589
acle	-2590
aves	-2591
ider	-2592
iles	-2593
rous	-2594
ster	-2595
▁Ant	-2596
▁Hea	-2597
▁Int	-2598
▁Too	-2599
▁big	-2600
▁cru	-2601
▁dog	-2602
▁dry	-2603
▁lan	-2604
▁mut	-2605
▁oft	-2606
▁pet	-2607
▁ref	-2608
aring	-2609
ators	-2610
ndred	-2611
▁Fear	-2612
▁five	-2613
▁held	-2614
▁join	-2615
▁laid	-2616
▁note	-2617
▁obey	-2618
▁seat	-2619
▁sort	-2620
▁stor	-2621
▁temp	-2622
▁vain	-2623
▁womb	-2624
▁Gaunt	-2625
▁PETER	-2626
▁above	-2627
▁aside	-2628
▁bones	-2629
▁drunk	-2630
▁fresh	-2631
▁grand	-2632
▁lived	-2633
▁noise	-2634
▁piece	-2635
▁rough	-2636
▁steal	-2637
▁Sirrah	-2638
▁appare	-2639
▁choose	-2640
▁golden	-2641
▁longer	-2642
▁morrow	-2643
▁remain	-2644
▁hundred	-2645
▁prosper	-2646
▁victory	-2647
▁dispatch	-2648
▁proclaim	-2649
▁conscience	-2650
▁Plantagenet	-2651
bb	-2652
hn	-2653
ny	-2654
ts	-2655
!--	-2656
ART	-2657
WIS	-2658
ban	-2659
ety	-2660
ieu	-2661
ott	-2662
rim	-2663
set	-2664
ume	-2665
vey	-2666
▁En	-2667
▁Fa	-2668
▁Me	-2669
▁Sc	-2670
▁ef	-2671
RIEL	-2672
ceit	-2673
erle	-2674
iled	-2675
ular	-2676
ulet	-2677
▁DOR	-2678
▁Per	-2679
▁exc	-2680
▁ind	-2681
▁lau	-2682
▁len	-2683
▁low	-2684
▁saf	-2685
▁sch	-2686
▁sto	-2687
▁sus	-2688
asion	-2689
inius	-2690
lease	-2691
ounds	-2692
posed	-2693
uthor	-2694
▁Earl	-2695
▁Hear	-2696
▁LART	-2697
▁Unto	-2698
▁bend	-2699
▁fine	-2700
▁lust	-2701
▁obed	-2702
▁purs	-2703
▁shed	-2704
▁tent	-2705
▁warm	-2706
▁woes	-2707
atesby	-2708
icious	-2709
▁ARIEL	-2710
▁Could	-2711
▁LEWIS	-2712
▁bears	-2713
▁broke	-2714
▁conqu	-2715
▁doing	-2716
▁drown	-2717
▁glory	-2718
▁knees	-2719
▁lands	-2720
▁pride	-2721
▁saint	-2722
▁stain	-2723
▁steel	-2724
▁stood	-2725
▁swift	-2726
▁venge	-2727
▁double	-2728
▁effect	-2729
▁forgot	-2730
▁labour	-2731
▁revere	-2732
▁threat	-2733
▁wisdom	-2734
▁Capulet	-2735
▁Catesby	-2736
▁LARTIUS	-2737
▁blessed	-2738
▁counter	-2739
▁despair	-2740
▁kinsman	-2741
▁slander	-2742
▁towards	-2743
▁Watchman	-2744
▁citizens	-2745
▁precious	-2746
▁desperate	-2747
▁encounter	-2748
▁entertain	-2749
▁knowledge	-2750
▁yourselves	-2751
;'	-2752
AMP	-2753
TIS	-2754
ang	-2755
irl	-2756
owb	-2757
ude	-2758
uff	-2759
▁fe	-2760
cted	-2761
ease	-2762
iful	-2763
rent	-2764
vail	-2765
▁Aum	-2766
▁CUR	-2767
▁Dis	-2768
▁Fri	-2769
▁Ver	-2770
▁eld	-2771
▁fat	-2772
▁few	-2773
▁fru	-2774
▁pun	-2775
▁ran	-2776
▁uns	-2777
eterm	-2778
gment	-2779
iance	-2780
ility	-2781
itors	-2782
rence	-2783
▁Cons	-2784
▁John	-2785
▁Mowb	-2786
▁SAMP	-2787
▁abro	-2788
▁army	-2789
▁capt	-2790
▁corn	-2791
▁died	-2792
▁foll	-2793
▁hair	-2794
▁kept	-2795
▁seal	-2796
▁sour	-2797
▁stud	-2798
ations	-2799
estion	-2800
ointed	-2801
ontent	-2802
▁alive	-2803
▁const	-2804
▁contr	-2805
▁dance	-2806
▁enjoy	-2807
▁guess	-2808
▁guest	-2809
▁money	-2810
▁mount	-2811
▁plant	-2812
▁quoth	-2813
▁remed	-2814
▁sever	-2815
▁white	-2816
▁CURTIS	-2817
▁Keeper	-2818
▁Pedant	-2819
▁Within	-2820
▁author	-2821
▁beggar	-2822
▁cheeks	-2823
▁deadly	-2824
▁determ	-2825
▁fought	-2826
▁health	-2827
▁manner	-2828
▁struck	-2829
▁Aumerle	-2830
▁Mowbray	-2831
▁SAMPSON	-2832
▁bastard	-2833
▁flowers	-2834
▁honours	-2835
▁masters	-2836
▁lordship	-2837
▁methinks	-2838
▁promised	-2839
▁wretched	-2840
▁understand	-2841
BU	-2842
ne	-2843
:--	-2844
GON	-2845
LEY	-2846
ash	-2847
den	-2848
ief	-2849
mit	-2850
ppy	-2851
tle	-2852
▁Fl	-2853
▁Ne	-2854
BURY	-2855
bury	-2856
ewis	-2857
head	-2858
ited	-2859
osed	-2860
reed	-2861
utio	-2862
ways	-2863
▁Put	-2864
▁aid	-2865
▁deg	-2866
▁pal	-2867
▁rot	-2868
▁sim	-2869
▁try	-2870
GONUS	-2871
ament	-2872
ounce	-2873
▁ANTI	-2874
▁Mine	-2875
▁Poor	-2876
▁cred	-2877
▁gent	-2878
▁prov	-2879
orious	-2880
▁Lewis	-2881
▁among	-2882
▁calls	-2883
▁cried	-2884
▁cruel	-2885
▁early	-2886
▁going	-2887
▁greet	-2888
▁guard	-2889
▁judge	-2890
▁liest	-2891
▁moved	-2892
▁seven	-2893
▁shake	-2894
▁spent	-2895
▁stars	-2896
▁teach	-2897
▁truly	-2898
▁Either	-2899
▁Heaven	-2900
▁Pardon	-2901
▁demand	-2902
▁dreams	-2903
▁extrem	-2904
▁humble	-2905
▁neighb	-2906
▁priest	-2907
▁scarce	-2908
▁summer	-2909
▁valour	-2910
▁wretch	-2911
▁account	-2912
▁charity	-2913
▁foolish	-2914
▁herself	-2915
▁kindred	-2916
▁officer	-2917
▁triumph	-2918
▁whether	-2919
▁Citizens	-2920
▁Mercutio	-2921
▁brothers	-2922
▁ANTIGONUS	-2923
▁honourable	-2924
BR	-2925
lp	-2926
ATC	-2927
BRA	-2928
ask	-2929
iew	-2930
ify	-2931
pir	-2932
roy	-2933
▁ba	-2934
▁ga	-2935
Twas	-2936
ians	-2937
ites	-2938
leep	-2939
mble	-2940
▁Bet	-2941
▁Bid	-2942
▁add	-2943
▁cir	-2944
▁din	-2945
▁rid	-2946
▁unf	-2947
▁yea	-2948
arted	-2949
ating	-2950
house	-2951
ining	-2952
orthy	-2953
under	-2954
▁Made	-2955
▁Mars	-2956
▁Once	-2957
▁RATC	-2958
▁anon	-2959
▁beha	-2960
▁bids	-2961
▁dism	-2962
▁ease	-2963
▁envy	-2964
▁fart	-2965
▁hung	-2966
▁idle	-2967
▁imag	-2968
▁ours	-2969
▁pack	-2970
▁rise	-2971
▁thro	-2972
▁view	-2973
▁wail	-2974
though	-2975
▁Alack	-2976
▁Faith	-2977
▁Harry	-2978
▁Music	-2979
▁Never	-2980
▁benef	-2981
▁blame	-2982
▁chast	-2983
▁crave	-2984
▁dwell	-2985
▁faint	-2986
▁faire	-2987
▁force	-2988
▁glass	-2989
▁laugh	-2990
▁miser	-2991
▁month	-2992
▁party	-2993
▁stone	-2994
▁subst	-2995
▁trial	-2996
▁walls	-2997
▁weary	-2998
▁abroad	-2999
▁bright	-3000
▁custom	-3001
▁malice	-3002
▁others	-3003
▁thinks	-3004
▁winter	-3005
▁Volsces	-3006
▁butcher	-3007
▁fellows	-3008
▁private	-3009
▁provost	-3010
▁thereof	-3011
▁Cominius	-3012
▁RATCLIFF	-3013
▁kindness	-3014
▁minister	-3015
▁condition	-3016
▁satisfied	-3017
▁vengeance	-3018
▁wherefore	-3019
ALT	-3020
HOP	-3021
amp	-3022
ope	-3023
BALT	-3024
cell	-3025
enes	-3026
lock	-3027
ners	-3028
omas	-3029
rees	-3030
scal	-3031
vell	-3032
with	-3033
▁Des	-3034
▁Fie	-3035
▁Rut	-3036
▁Vin	-3037
▁bef	-3038
▁env	-3039
▁god	-3040
▁hol	-3041
▁rel	-3042
▁smo	-3043
▁unb	-3044
▁unl	-3045
▁unp	-3046
▁ver	-3047
▁wag	-3048
▁wre	-3049
ANLEY	-3050
ISHOP	-3051
ailor	-3052
allow	-3053
antua	-3054
eless	-3055
icked	-3056
ident	-3057
orous	-3058
rench	-3059
▁Barn	-3060
▁Show	-3061
▁True	-3062
▁acqu	-3063
▁arri	-3064
▁bite	-3065
▁boot	-3066
▁deal	-3067
▁dull	-3068
▁easy	-3069
▁evil	-3070
▁firm	-3071
▁foes	-3072
▁gown	-3073
▁incl	-3074
▁lest	-3075
▁meat	-3076
▁root	-3077
▁vice	-3078
▁vile	-3079
▁After	-3080
▁Hence	-3081
▁Lords	-3082
▁Peter	-3083
▁Under	-3084
▁blind	-3085
▁concl	-3086
▁corse	-3087
▁cover	-3088
▁fruit	-3089
▁mayst	-3090
▁quite	-3091
▁shore	-3092
▁shrew	-3093
▁sport	-3094
▁wench	-3095
▁Mantua	-3096
▁Please	-3097
▁TYBALT	-3098
▁Thomas	-3099
▁Whilst	-3100
▁afford	-3101
▁convey	-3102
▁deputy	-3103
▁excuse	-3104
▁flower	-3105
▁former	-3106
▁humour	-3107
▁prophe	-3108
▁school	-3109
▁swords	-3110
▁tyrant	-3111
▁Corioli	-3112
▁Paulina	-3113
▁Rutland	-3114
▁STANLEY	-3115
▁changed	-3116
▁counten	-3117
▁honesty	-3118
▁tongues	-3119
▁Methinks	-3120
▁judgment	-3121
▁question	-3122
▁received	-3123
▁Vincentio	-3124
'?	-3125
AK	-3126
ek	-3127
AND	-3128
HOM	-3129
ead	-3130
llo	-3131
she	-3132
und	-3133
▁Lo	-3134
AKEN	-3135
aper	-3136
azed	-3137
ered	-3138
ilia	-3139
omer	-3140
ract	-3141
rate	-3142
rift	-3143
roth	-3144
vish	-3145
▁Art	-3146
▁Ind	-3147
▁Sic	-3148
▁Tut	-3149
▁spe	-3150
HOMAS	-3151
acher	-3152
anley	-3153
arden	-3154
cians	-3155
ement	-3156
rison	-3157
twixt	-3158
ursed	-3159
woman	-3160
▁Dost	-3161
▁Jove	-3162
▁Love	-3163
▁Wilt	-3164
▁brow	-3165
▁circ	-3166
▁cure	-3167
▁disg	-3168
▁door	-3169
▁dust	-3170
▁fain	-3171
▁feed	-3172
▁gift	-3173
▁girl	-3174
▁leng	-3175
▁nose	-3176
▁stab	-3177
▁stop	-3178
ealous	-3179
idings	-3180
▁Caius	-3181
▁Death	-3182
▁Friar	-3183
▁blest	-3184
▁brows	-3185
▁fiery	-3186
▁ghost	-3187
▁green	-3188
▁gross	-3189
▁grown	-3190
▁joint	-3191
▁knave	-3192
▁pains	-3193
▁proof	-3194
▁sheep	-3195
▁spake	-3196
▁stoop	-3197
▁taken	-3198
▁twice	-3199
▁tyran	-3200
▁BRAKEN	-3201
▁Prince	-3202
▁THOMAS	-3203
▁Verona	-3204
▁affair	-3205
▁always	-3206
▁buried	-3207
▁choice	-3208
▁divine	-3209
▁finger	-3210
▁import	-3211
▁leaves	-3212
▁necess	-3213
▁remedy	-3214
▁repent	-3215
▁sacred	-3216
▁safety	-3217
▁senate	-3218
▁sirrah	-3219
▁spring	-3220
▁undert	-3221
▁whilst	-3222
▁wicked	-3223
▁wither	-3224
▁wrongs	-3225
▁Besides	-3226
▁Brother	-3227
▁Stanley	-3228
▁embrace	-3229
▁prevail	-3230
▁prevent	-3231
▁reasons	-3232
▁silence	-3233
▁therein	-3234
▁thunder	-3235
▁Mistress	-3236
▁creature	-3237
▁innocent	-3238
▁occasion	-3239
▁perceive	-3240
▁traitors	-3241
▁BRAKENBURY	-3242
?'	-3243
jo	-3244
mn	-3245
sp	-3246
GOR	-3247
ONE	-3248
STR	-3249
eld	-3250
hys	-3251
loy	-3252
nat	-3253
oly	-3254
omp	-3255
pin	-3256
shi	-3257
▁AE	-3258
▁OV	-3259
▁ed	-3260
▁es	-3261
ERBY	-3262
GORY	-3263
aced	-3264
anch	-3265
aste	-3266
ault	-3267
elve	-3268
hant	-3269
itol	-3270
oard	-3271
orry	-3272
unts	-3273
▁Apo	-3274
▁avo	-3275
▁cre	-3276
▁dec	-3277
▁eag	-3278
▁ele	-3279
▁emp	-3280
▁lar	-3281
▁rob	-3282
▁shr	-3283
ctise	-3284
enius	-3285
hysic	-3286
inous	-3287
▁Turn	-3288
▁bark	-3289
▁drop	-3290
▁empt	-3291
▁fury	-3292
▁rock	-3293
▁rude	-3294
▁sail	-3295
▁shar	-3296
▁ship	-3297
▁sits	-3298
▁used	-3299
▁went	-3300
ERDONE	-3301
STRESS	-3302
ardine	-3303
edious	-3304
othing	-3305
unning	-3306
▁DERBY	-3307
▁Somer	-3308
▁adieu	-3309
▁allow	-3310
▁anger	-3311
▁belly	-3312
▁cares	-3313
▁cheek	-3314
▁claim	-3315
▁condu	-3316
▁drawn	-3317
▁fares	-3318
▁langu	-3319
▁loath	-3320
▁loyal	-3321
▁maids	-3322
▁mayor	-3323
▁plead	-3324
▁round	-3325
▁smile	-3326
▁tempt	-3327
▁troth	-3328
▁utter	-3329
▁weeds	-3330
▁wings	-3331
▁Having	-3332
▁Indeed	-3333
▁Myself	-3334
▁assist	-3335
▁broken	-3336
▁design	-3337
▁fright	-3338
▁garden	-3339
▁hollow	-3340
▁inform	-3341
▁knight	-3342
▁oracle	-3343
▁plague	-3344
▁prayer	-3345
▁renown	-3346
▁rotten	-3347
▁stones	-3348
▁wanton	-3349
aughters	-3350
▁Capitol	-3351
▁GREGORY	-3352
▁Prithee	-3353
▁Wherein	-3354
▁Without	-3355
▁absence	-3356
▁commend	-3357
▁delight	-3358
▁deserve	-3359
▁despite	-3360
▁profess	-3361
▁violent	-3362
▁wherein	-3363
▁MISTRESS	-3364
▁Menenius	-3365
▁OVERDONE	-3366
▁Somerset	-3367
▁deceived	-3368
▁ignorant	-3369
▁imprison	-3370
▁practise	-3371
▁treacher	-3372
▁trumpets	-3373
▁Barnardine	-3374
▁countenance	-3375
MON	-3376
act	-3377
aze	-3378
cha	-3379
esy	-3380
isa	-3381
mon	-3382
pet	-3383
ALER	-3384
FORD	-3385
MOND	-3386
ards	-3387
ashi	-3388
cend	-3389
draw	-3390
eeth	-3391
eous	-3392
haps	-3393
held	-3394
ione	-3395
ises	-3396
ongs	-3397
othe	-3398
rand	-3399
rehe	-3400
semb	-3401
utes	-3402
▁Lea	-3403
▁Pol	-3404
▁Pre	-3405
▁Res	-3406
▁SOM	-3407
▁Sha	-3408
▁aim	-3409
▁amb	-3410
▁det	-3411
▁dew	-3412
▁due	-3413
▁dur	-3414
▁hid	-3415
▁hit	-3416
▁pil	-3417
▁pin	-3418
▁six	-3419
ERSET	-3420
iment	-3421
mione	-3422
rious	-3423
▁Grey	-3424
▁Into	-3425
▁Know	-3426
▁Mark	-3427
▁Pisa	-3428
▁alas	-3429
▁babe	-3430
▁ball	-3431
▁cell	-3432
▁earn	-3433
▁gain	-3434
▁heav	-3435
▁lamb	-3436
▁loud	-3437
▁nine	-3438
▁ones	-3439
▁pair	-3440
▁pawn	-3441
▁publ	-3442
▁ruin	-3443
▁sens	-3444
▁star	-3445
▁stat	-3446
▁tune	-3447
▁wont	-3448
ALERIA	-3449
change	-3450
ission	-3451
itting	-3452
pinion	-3453
ursday	-3454
▁Great	-3455
▁Three	-3456
▁aught	-3457
▁awake	-3458
▁borne	-3459
▁carry	-3460
▁chief	-3461
▁cries	-3462
▁deare	-3463
▁fatal	-3464
▁fools	-3465
▁gives	-3466
▁names	-3467
▁persu	-3468
▁sighs	-3469
▁steed	-3470
▁stock	-3471
▁storm	-3472
▁stuff	-3473
▁tread	-3474
▁whole	-3475
▁wives	-3476
▁woful	-3477
onounce	-3478
▁Apollo	-3479
▁Cousin	-3480
▁Rivers	-3481
▁advise	-3482
▁asleep	-3483
▁begins	-3484
▁castle	-3485
▁colour	-3486
▁damned	-3487
▁devise	-3488
▁excell	-3489
▁infect	-3490
▁motion	-3491
▁nobles	-3492
▁number	-3493
▁offend	-3494
▁proper	-3495
▁rememb	-3496
▁resign	-3497
▁simple	-3498
▁supper	-3499
▁thrive	-3500
▁throat	-3501
▁thrust	-3502
▁undone	-3503
ethought	-3504
▁VALERIA	-3505
▁affairs	-3506
▁becomes	-3507
▁benefit	-3508
▁burthen	-3509
▁deposed	-3510
▁envious	-3511
▁express	-3512
▁farther	-3513
▁follows	-3514
▁hanging	-3515
▁jealous	-3516
▁meaning	-3517
▁outward	-3518
▁passing	-3519
▁pleased	-3520
▁protect	-3521
▁receive	-3522
▁tedious	-3523
▁tidings	-3524
▁vantage	-3525
▁Hermione	-3526
▁Musician	-3527
▁RICHMOND	-3528
▁SOMERSET	-3529
▁Thursday	-3530
▁banished	-3531
▁dreadful	-3532
▁garments	-3533
▁possible	-3534
▁prepared	-3535
▁shouldst	-3536
▁Christian	-3537
▁authority	-3538
▁followers	-3539
▁disposition	-3540
BH	-3541
HY	-3542
SA	-3543
eg	-3544
go	-3545
ub	-3546
ene	-3547
enn	-3548
gle	-3549
hop	-3550
rib	-3551
ron	-3552
run	-3553
thi	-3554
▁Bi	-3555
▁er	-3556
▁ir	-3557
BHOR	-3558
BRAY	-3559
ETER	-3560
LIUS	-3561
OPSA	-3562
USHY	-3563
anct	-3564
ancy	-3565
arch	-3566
ared	-3567
atsw	-3568
cing	-3569
ello	-3570
iffe	-3571
ills	-3572
ldom	-3573
ords	-3574
room	-3575
yard	-3576
yond	-3577
▁Boy	-3578
▁Has	-3579
▁MOW	-3580
▁bew	-3581
▁cal	-3582
▁cam	-3583
▁equ	-3584
▁lip	-3585
▁lod	-3586
▁owe	-3587
▁sup	-3588
▁top	-3589
▁van	-3590
after	-3591
eding	-3592
ellow	-3593
erved	-3594
imely	-3595
itude	-3596
loved	-3597
orses	-3598
ounty	-3599
ouses	-3600
place	-3601
usion	-3602
▁Bona	-3603
▁Help	-3604
▁Very	-3605
▁ange	-3606
▁band	-3607
▁bond	-3608
▁cens	-3609
▁conj	-3610
▁disd	-3611
▁drum	-3612
▁gage	-3613
▁hurt	-3614
▁lean	-3615
▁legs	-3616
▁lend	-3617
▁prey	-3618
▁quit	-3619
▁rash	-3620
▁room	-3621
▁seas	-3622
▁shut	-3623
▁step	-3624
▁sway	-3625
▁tort	-3626
▁weap	-3627
▁wine	-3628
enture	-3629
illing	-3630
iteous	-3631
ixenes	-3632
ortion	-3633
▁ABHOR	-3634
▁BUSHY	-3635
▁Biond	-3636
▁Leave	-3637
▁MAMIL	-3638
▁MOPSA	-3639
▁Still	-3640
▁accus	-3641
▁brook	-3642
▁chair	-3643
▁clear	-3644
▁crack	-3645
▁curst	-3646
▁delay	-3647
▁empty	-3648
▁exile	-3649
▁keeps	-3650
▁mourn	-3651
▁paper	-3652
▁parts	-3653
▁penit	-3654
▁peril	-3655
▁prize	-3656
▁sanct	-3657
▁sorry	-3658
▁speci	-3659
▁spend	-3660
▁store	-3661
▁taste	-3662
▁teeth	-3663
▁trans	-3664
▁unnat	-3665
▁until	-3666
▁wrath	-3667
atswain	-3668
utation	-3669
▁Tailor	-3670
▁accept	-3671
▁access	-3672
▁accuse	-3673
▁affect	-3674
▁beheld	-3675
▁belike	-3676
▁circum	-3677
▁denied	-3678
▁desert	-3679
▁dinner	-3680
▁flight	-3681
▁humbly	-3682
▁intend	-3683
▁kingly	-3684
▁palace	-3685
▁partic	-3686
▁perish	-3687
▁physic	-3688
▁punish	-3689
▁shadow	-3690
▁silver	-3691
▁solemn	-3692
▁twelve	-3693
▁wander	-3694
▁weight	-3695
▁Believe	-3696
▁MOWBRAY	-3697
▁Officer	-3698
▁betwixt	-3699
▁conquer	-3700
▁corrupt	-3701
▁cunning	-3702
▁perfect	-3703
▁protest	-3704
▁resolve	-3705
▁several	-3706
▁spirits	-3707
▁wedding	-3708
▁whither	-3709
▁ABHORSON	-3710
▁continue	-3711
▁contrary	-3712
▁courtesy	-3713
▁forsworn	-3714
▁goodness	-3715
▁murderer	-3716
▁petition	-3717
▁pleasant	-3718
▁resolved	-3719
▁threaten	-3720
▁Biondello	-3721
▁MAMILLIUS	-3722
▁Polixenes	-3723
▁advantage	-3724
▁daughters	-3725
▁miserable	-3726
▁neighbour	-3727
▁gentlewoman	-3728
CH	-3729
af	-3730
dy	-3731
rt	-3732
RCH	-3733
aff	-3734
ane	-3735
cio	-3736
ept	-3737
irg	-3738
oke	-3739
oot	-3740
ote	-3741
pic	-3742
que	-3743
ung	-3744
▁Co	-3745
▁di	-3746
▁pi	-3747
ALTH	-3748
ASAR	-3749
ERCY	-3750
amed	-3751
cape	-3752
cian	-3753
ency	-3754
erve	-3755
mity	-3756
oler	-3757
outs	-3758
ping	-3759
sequ	-3760
sing	-3761
uted	-3762
▁AEd	-3763
▁Nap	-3764
▁Rep	-3765
▁Two	-3766
▁ado	-3767
▁arg	-3768
▁bas	-3769
▁bud	-3770
▁clo	-3771
▁cup	-3772
▁dag	-3773
▁fee	-3774
▁fle	-3775
▁fro	-3776
▁sep	-3777
▁tut	-3778
▁wol	-3779
▁wot	-3780
aries	-3781
clock	-3782
ising	-3783
kedom	-3784
pping	-3785
rease	-3786
umble	-3787
▁ARCH	-3788
▁Bear	-3789
▁None	-3790
▁Only	-3791
▁amen	-3792
▁calm	-3793
▁comb	-3794
▁debt	-3795
▁dies	-3796
▁dign	-3797
▁diss	-3798
▁ends	-3799
▁fail	-3800
▁gate	-3801
▁hark	-3802
▁heed	-3803
▁hunt	-3804
▁joys	-3805
▁mend	-3806
▁miss	-3807
▁plot	-3808
▁pure	-3809
▁rose	-3810
▁slow	-3811
▁tomb	-3812
▁ways	-3813
▁wits	-3814
▁wond	-3815
▁wood	-3816
igence	-3817
lesome	-3818
ourish	-3819
picion	-3820
urance	-3821
urious	-3822
ustice	-3823
▁BALTH	-3824
▁Mayor	-3825
▁Might	-3826
▁PERCY	-3827
▁Right	-3828
▁chide	-3829
▁dares	-3830
▁durst	-3831
▁faces	-3832
▁fashi	-3833
▁folly	-3834
▁griev	-3835
▁groan	-3836
▁hopes	-3837
▁large	-3838
▁naked	-3839
▁scept	-3840
▁seest	-3841
▁sharp	-3842
▁spare	-3843
▁story	-3844
▁table	-3845
▁tremb	-3846
▁turns	-3847
▁weigh	-3848
▁whore	-3849
▁wreck	-3850
hearted	-3851
▁BISHOP	-3852
▁Father	-3853
▁French	-3854
▁beyond	-3855
▁bodies	-3856
▁called	-3857
▁comple	-3858
▁credit	-3859
▁crowns	-3860
▁cursed	-3861
▁curses	-3862
▁employ	-3863
▁endure	-3864
▁expect	-3865
▁fairly	-3866
▁hatred	-3867
▁horses	-3868
▁intent	-3869
▁joyful	-3870
▁making	-3871
▁market	-3872
▁misery	-3873
▁perpet	-3874
▁public	-3875
▁quench	-3876
▁reward	-3877
▁seeing	-3878
▁spoken	-3879
▁temper	-3880
▁terror	-3881
▁theirs	-3882
▁waters	-3883
▁whiles	-3884
▁yonder	-3885
▁Beseech	-3886
▁Marshal	-3887
▁Nothing	-3888
▁advance	-3889
▁apparel	-3890
▁attempt	-3891
▁beloved	-3892
▁colours	-3893
▁courage	-3894
▁dukedom	-3895
▁looking	-3896
▁mistake	-3897
▁natural	-3898
▁needful	-3899
▁opinion	-3900
▁painted	-3901
▁piteous	-3902
▁princes	-3903
▁remains	-3904
▁shortly	-3905
▁swallow	-3906
▁wounded	-3907
▁complain	-3908
▁discover	-3909
▁fortunes	-3910
▁instruct	-3911
▁language	-3912
▁princess	-3913
▁senators	-3914
▁services	-3915
▁sometime	-3916
▁BALTHASAR	-3917
▁assurance	-3918
▁commanded	-3919
▁excellent	-3920
▁happiness	-3921
▁hereafter	-3922
▁obedience	-3923
▁pronounce	-3924
▁sometimes	-3925
▁undertake	-3926
▁unnatural	-3927
▁discontent	-3928
▁government	-3929
▁instrument	-3930
▁counterfeit	-3931
▁remembrance	-3932
OS	-3933
oe	-3934
ys	-3935
?--	-3936
CAS	-3937
FOL	-3938
OSS	-3939
afe	-3940
bow	-3941
dds	-3942
fer	-3943
hor	-3944
ita	-3945
lar	-3946
lic	-3947
val	-3948
whe	-3949
▁El	-3950
▁Le	-3951
FOLK	-3952
ants	-3953
arts	-3954
atic	-3955
born	-3956
gers	-3957
hest	-3958
noon	-3959
oved	-3960
same	-3961
uary	-3962
uses	-3963
what	-3964
wise	-3965
▁App	-3966
▁Cal	-3967
▁Lay	-3968
▁Rem	-3969
▁Ret	-3970
▁Ros	-3971
▁Set	-3972
▁Tit	-3973
▁gru	-3974
▁haz	-3975
▁imm	-3976
▁its	-3977
▁kin	-3978
▁led	-3979
▁mag	-3980
▁odd	-3981
▁pol	-3982
▁sky	-3983
▁tap	-3984
▁ung	-3985
▁vex	-3986
akest	-3987
arent	-3988
ences	-3989
happy	-3990
ieved	-3991
ified	-3992
ishop	-3993
isper	-3994
olute	-3995
orset	-3996
think	-3997
ument	-3998
vours	-3999
▁Amen	-4000
▁Comm	-4001
▁Dear	-4002
▁Four	-4003
▁Jack	-4004
▁Long	-4005
▁Page	-4006
▁Post	-4007
▁ROSS	-4008
▁Sold	-4009
▁bare	-4010
▁boar	-4011
▁bott	-4012
▁cock	-4013
▁conc	-4014
▁east	-4015
▁fame	-4016
▁grey	-4017
▁host	-4018
▁isle	-4019
▁mere	-4020
▁mile	-4021
▁mill	-4022
▁odds	-4023
▁qual	-4024
▁repe	-4025
▁ring	-4026
▁rule	-4027
▁shun	-4028
▁sink	-4029
▁sins	-4030
▁slay	-4031
▁stol	-4032
▁test	-4033
▁virg	-4034
▁wait	-4035
▁worn	-4036
chance	-4037
ctions	-4038
idence	-4039
ourage	-4040
strous	-4041
uteous	-4042
▁Lucio	-4043
▁March	-4044
▁Those	-4045
▁Widow	-4046
▁Young	-4047
▁alter	-4048
▁block	-4049
▁blush	-4050
▁brain	-4051
▁cease	-4052
▁drops	-4053
▁drums	-4054
▁flies	-4055
▁frame	-4056
▁grows	-4057
▁journ	-4058
▁knife	-4059
▁leads	-4060
▁maint	-4061
▁meant	-4062
▁oppos	-4063
▁realm	-4064
▁rogue	-4065
▁scene	-4066
▁scope	-4067
▁seize	-4068
▁shape	-4069
▁slept	-4070
▁spite	-4071
▁strew	-4072
▁terms	-4073
▁thief	-4074
▁trade	-4075
▁trick	-4076
▁vault	-4077
▁venom	-4078
▁wants	-4079
▁winds	-4080
▁write	-4081
ination	-4082
ression	-4083
▁DORCAS	-4084
▁Dorset	-4085
▁Exeter	-4086
▁Naples	-4087
▁Volsce	-4088
▁Worthy	-4089
▁absent	-4090
▁accord	-4091
▁advers	-4092
▁armour	-4093
▁behalf	-4094
▁brings	-4095
▁camest	-4096
▁choler	-4097
▁comest	-4098
▁compan	-4099
▁dagger	-4100
▁degree	-4101
▁direct	-4102
▁enmity	-4103
▁freely	-4104
▁houses	-4105
▁imposs	-4106
▁intell	-4107
▁island	-4108
▁maiden	-4109
▁nought	-4110
▁powers	-4111
▁praise	-4112
▁purcha	-4113
▁repair	-4114
▁serves	-4115
▁smooth	-4116
▁NORFOLK	-4117
▁Whither	-4118
▁apprehe	-4119
▁captain	-4120
▁compass	-4121
▁disdain	-4122
▁earnest	-4123
▁fathers	-4124
▁granted	-4125
▁hateful	-4126
▁instant	-4127
▁manners	-4128
▁passage	-4129
▁passion	-4130
▁privile	-4131
▁sceptre	-4132
▁seeming	-4133
▁torment	-4134
▁unknown	-4135
▁weather	-4136
▁approach	-4137
▁consider	-4138
▁contract	-4139
▁deserves	-4140
▁friendly	-4141
▁glorious	-4142
▁increase	-4143
▁reverend	-4144
▁untimely	-4145
▁Boatswain	-4146
▁Gentlemen	-4147
▁contented	-4148
▁monstrous	-4149
▁respected	-4150
▁suspicion	-4151
▁particular	-4152
▁prosperous	-4153
▁resolution	-4154
▁treacherous	-4155
GH	-4156
NS	-4157
RR	-4158
fl	-4159
God	-4160
NSO	-4161
SET	-4162
elt	-4163
iny	-4164
kin	-4165
ped	-4166
rey	-4167
ric	-4168
uce	-4169
▁Se	-4170
▁Ye	-4171
▁da	-4172
RREL	-4173
ades	-4174
ales	-4175
atcl	-4176
erns	-4177
fret	-4178
iate	-4179
iven	-4180
just	-4181
oral	-4182
rain	-4183
reme	-4184
ruly	-4185
▁ALO	-4186
▁Ber	-4187
▁Bra	-4188
▁Ire	-4189
▁Lau	-4190
▁Mil	-4191
▁Pat	-4192
▁Rom	-4193
▁Son	-4194
▁dig	-4195
▁dri	-4196
▁ens	-4197
▁fig	-4198
▁glo	-4199
▁ing	-4200
▁jew	-4201
▁rap	-4202
▁spr	-4203
▁squ	-4204
ERDIN	-4205
aline	-4206
ances	-4207
andal	-4208
ature	-4209
ember	-4210
raced	-4211
▁Came	-4212
▁Down	-4213
▁Play	-4214
▁Save	-4215
▁Stri	-4216
▁Supp	-4217
▁able	-4218
▁bird	-4219
▁braw	-4220
▁bury	-4221
▁chat	-4222
▁clam	-4223
▁furn	-4224
▁lark	-4225
▁lion	-4226
▁melt	-4227
▁nobl	-4228
▁perj	-4229
▁puts	-4230
▁roar	-4231
▁ruth	-4232
▁spur	-4233
▁suck	-4234
▁tame	-4235
▁tide	-4236
▁vows	-4237
▁wept	-4238
▁About	-4239
▁Bring	-4240
▁Froth	-4241
▁GREEN	-4242
▁Ghost	-4243
▁Hunts	-4244
▁Ratcl	-4245
▁Titus	-4246
▁Until	-4247
▁abhor	-4248
▁adver	-4249
▁affli	-4250
▁alike	-4251
▁avoid	-4252
▁beard	-4253
▁begun	-4254
▁boots	-4255
▁build	-4256
▁catch	-4257
▁conce	-4258
▁daily	-4259
▁dress	-4260
▁dying	-4261
▁elder	-4262
▁fears	-4263
▁finds	-4264
▁flatt	-4265
▁haply	-4266
▁hasty	-4267
▁holds	-4268
▁lusty	-4269
▁nobly	-4270
▁north	-4271
▁parli	-4272
▁patri	-4273
▁peers	-4274
▁press	-4275
▁provo	-4276
▁purse	-4277
▁raise	-4278
▁recom	-4279
▁revol	-4280
▁sends	-4281
▁south	-4282
▁stamp	-4283
▁study	-4284
▁swell	-4285
▁tells	-4286
▁third	-4287
▁thorn	-4288
▁urged	-4289
▁veins	-4290
▁waste	-4291
▁witch	-4292
▁AEdile	-4293
▁ALONSO	-4294
▁DORSET	-4295
▁FERDIN	-4296
▁Romans	-4297
▁TYRREL	-4298
▁Thanks	-4299
▁aboard	-4300
▁advice	-4301
▁amazed	-4302
▁county	-4303
▁darest	-4304
▁disper	-4305
▁estate	-4306
▁famous	-4307
▁gently	-4308
▁giving	-4309
▁grieve	-4310
▁groans	-4311
▁hanged	-4312
▁hardly	-4313
▁kindly	-4314
▁lovely	-4315
▁muster	-4316
▁parent	-4317
▁pieces	-4318
▁profit	-4319
▁rascal	-4320
▁rebell	-4321
▁record	-4322
▁season	-4323
▁silent	-4324
▁single	-4325
▁smiles	-4326
▁taught	-4327
▁thrice	-4328
▁unless	-4329
▁virgin	-4330
▁wealth	-4331
▁worthi	-4332
▁Conspir	-4333
▁Ireland	-4334
▁Pomfret	-4335
▁Sicilia	-4336
▁Soldier	-4337
▁accused	-4338
▁arrived	-4339
▁assured	-4340
▁bearing	-4341
▁bethink	-4342
▁charged	-4343
▁conceit	-4344
▁conduct	-4345
▁current	-4346
▁destroy	-4347
▁enforce	-4348
▁forbear	-4349
▁garland	-4350
▁journey	-4351
▁soundly	-4352
▁special	-4353
▁streets	-4354
▁warlike	-4355
▁whereof	-4356
▁whisper	-4357
▁willing	-4358
▁wrought	-4359
▁Huntsman	-4360
▁Ratcliff	-4361
▁Rosaline	-4362
▁circumst	-4363
▁constant	-4364
▁greatest	-4365
▁grievous	-4366
▁maintain	-4367
▁perforce	-4368
▁revenged	-4369
▁shoulder	-4370
▁supposed	-4371
▁FERDINAND	-4372
▁afternoon	-4373
▁committed	-4374
▁messenger	-4375
▁perpetual	-4376
▁protector	-4377
▁sanctuary	-4378
▁willingly	-4379
▁affections	-4380
▁commission	-4381
▁parliament	-4382
▁instruments	-4383
▁imprisonment	-4384
Th	-4385
gl	-4386
ib	-4387
pr	-4388
zz	-4389
▁z	-4390
;--	-4391
LIS	-4392
aly	-4393
ams	-4394
cei	-4395
con	-4396
dig	-4397
eat	-4398
gar	-4399
icy	-4400
ipe	-4401
ipp	-4402
ker	-4403
law	-4404
nal	-4405
nty	-4406
rac	-4407
ser	-4408
uch	-4409
ulf	-4410
upt	-4411
vet	-4412
▁Fo	-4413
▁Ho	-4414
▁Sm	-4415
▁Vi	-4416
▁fi	-4417
▁sy	-4418
aces	-4419
aded	-4420
ages	-4421
alis	-4422
ater	-4423
clam	-4424
deem	-4425
eder	-4426
enna	-4427
erby	-4428
erer	-4429
esar	-4430
fall	-4431
grim	-4432
iety	-4433
llen	-4434
more	-4435
mory	-4436
omen	-4437
onci	-4438
owry	-4439
pass	-4440
roll	-4441
rrel	-4442
ties	-4443
time	-4444
tled	-4445
uing	-4446
uten	-4447
vior	-4448
▁Acc	-4449
▁Ben	-4450
▁Bus	-4451
▁Min	-4452
▁Six	-4453
▁Tar	-4454
▁ach	-4455
▁ago	-4456
▁apt	-4457
▁dim	-4458
▁fun	-4459
▁hie	-4460
▁hor	-4461
▁lin	-4462
▁mel	-4463
▁mir	-4464
▁oak	-4465
▁pot	-4466
▁sal	-4467
▁sue	-4468
▁une	-4469
▁ves	-4470
Twere	-4471
aming	-4472
ative	-4473
erity	-4474
ested	-4475
etite	-4476
faced	-4477
forth	-4478
groom	-4479
harge	-4480
ierce	-4481
ignty	-4482
orted	-4483
osing	-4484
ouchs	-4485
ourse	-4486
shire	-4487
ulate	-4488
ullus	-4489
▁Anti	-4490
▁Cond	-4491
▁Conf	-4492
▁Dare	-4493
▁Draw	-4494
▁aunt	-4495
▁bade	-4496
▁begu	-4497
▁boys	-4498
▁cere	-4499
▁cher	-4500
▁clim	-4501
▁feet	-4502
▁food	-4503
▁fors	-4504
▁frow	-4505
▁helm	-4506
▁holp	-4507
▁horn	-4508
▁inqu	-4509
▁lent	-4510
▁mult	-4511
▁nail	-4512
▁port	-4513
▁rare	-4514
▁reck	-4515
▁rejo	-4516
▁rust	-4517
▁salt	-4518
▁sees	-4519
▁sell	-4520
▁sets	-4521
▁sire	-4522
▁snow	-4523
▁sore	-4524
▁sple	-4525
▁stro	-4526
▁tall	-4527
▁task	-4528
▁unst	-4529
▁whip	-4530
▁wide	-4531
▁wing	-4532
▁yoke	-4533
▁yond	-4534
eeming	-4535
father	-4536
forced	-4537
semble	-4538
soever	-4539
▁Derby	-4540
▁Makes	-4541
▁Milan	-4542
▁Noble	-4543
▁Salis	-4544
▁abide	-4545
▁agree	-4546
▁alack	-4547
▁below	-4548
▁blunt	-4549
▁books	-4550
▁brace	-4551
▁chase	-4552
▁confe	-4553
▁corre	-4554
▁craft	-4555
▁diffe	-4556
▁equal	-4557
▁event	-4558
▁exerc	-4559
▁fancy	-4560
▁fires	-4561
▁flood	-4562
▁habit	-4563
▁image	-4564
▁manif	-4565
▁merit	-4566
▁newly	-4567
▁oaths	-4568
▁pitch	-4569
▁pound	-4570
▁prett	-4571
▁prick	-4572
▁regal	-4573
▁ruled	-4574
▁smell	-4575
▁sooth	-4576
▁stabb	-4577
▁sting	-4578
▁stopp	-4579
▁stout	-4580
▁stret	-4581
▁tarry	-4582
▁twain	-4583
▁weeps	-4584
▁wrink	-4585
ancholy	-4586
itation	-4587
ruction	-4588
utenant	-4589
▁Caesar	-4590
▁Cannot	-4591
▁Fourth	-4592
▁Marian	-4593
▁Rather	-4594
▁Tyrrel	-4595
▁Vienna	-4596
▁appeal	-4597
▁assure	-4598
▁ballad	-4599
▁barren	-4600
▁beasts	-4601
▁betray	-4602
▁caught	-4603
▁charac	-4604
▁deceit	-4605
▁disple	-4606
▁fairer	-4607
▁forced	-4608
▁graves	-4609
▁knaves	-4610
▁length	-4611
▁mouths	-4612
▁native	-4613
▁partly	-4614
▁points	-4615
▁raised	-4616
▁redeem	-4617
▁regard	-4618
▁resist	-4619
▁saying	-4620
▁secure	-4621
▁shield	-4622
▁slaves	-4623
▁stroke	-4624
▁surely	-4625
▁unjust	-4626
▁unkind	-4627
▁vessel	-4628
▁waking	-4629
▁Proceed	-4630
▁besides	-4631
▁betimes	-4632
▁commons	-4633
▁complex	-4634
▁defence	-4635
▁descend	-4636
▁desires	-4637
▁dignity	-4638
▁fairest	-4639
▁fashion	-4640
▁feeling	-4641
▁forfeit	-4642
▁forgive	-4643
▁froward	-4644
▁parting	-4645
▁pilgrim	-4646
▁reconci	-4647
▁substit	-4648
▁suspect	-4649
▁tempest	-4650
▁tremble	-4651
▁trumpet	-4652
▁tyranny	-4653
▁unhappy	-4654
▁virtues	-4655
▁accident	-4656
▁alliance	-4657
▁although	-4658
▁apparent	-4659
▁appetite	-4660
▁breathed	-4661
▁contempt	-4662
▁devotion	-4663
▁disgrace	-4664
▁exchange	-4665
▁faithful	-4666
▁forswear	-4667
▁mistrust	-4668
▁obedient	-4669
▁offended	-4670
▁penitent	-4671
▁powerful	-4672
▁renowned	-4673
▁sickness	-4674
▁standing	-4675
▁treasure	-4676
▁weakness	-4677
▁Salisbury	-4678
▁according	-4679
▁beholding	-4680
▁complaint	-4681
▁falsehood	-4682
▁household	-4683
▁rebellion	-4684
▁reverence	-4685
▁wholesome	-4686
▁bridegroom	-4687
▁conference	-4688
▁determined	-4689
▁impossible	-4690
▁melancholy	-4691
▁patricians	-4692
▁sovereignty	-4693
▁entertainment	-4694
Ay	-4695
DR	-4696
IT	-4697
gn	-4698
ns	-4699
rs	-4700
xe	-4701
.--	-4702
EOM	-4703
LOU	-4704
bod	-4705
com	-4706
eve	-4707
iam	-4708
nes	-4709
rat	-4710
tic	-4711
uit	-4712
▁Af	-4713
▁Aw	-4714
▁Kn	-4715
▁Ra	-4716
GHBY	-4717
ROTH	-4718
ases	-4719
bear	-4720
cary	-4721
cate	-4722
cies	-4723
dita	-4724
fold	-4725
ical	-4726
illy	-4727
inct	-4728
irty	-4729
iter	-4730
ivil	-4731
ized	-4732
long	-4733
maid	-4734
mong	-4735
onst	-4736
sell	-4737
teen	-4738
ulch	-4739
weal	-4740
wife	-4741
▁ADR	-4742
▁Cle	-4743
▁Cry	-4744
▁Cur	-4745
▁Get	-4746
▁Him	-4747
▁Lie	-4748
▁Thr	-4749
▁Val	-4750
▁Ven	-4751
▁WIL	-4752
▁axe	-4753
▁bir	-4754
▁bon	-4755
▁deb	-4756
▁eng	-4757
▁jot	-4758
▁lap	-4759
▁nap	-4760
▁ope	-4761
▁ped	-4762
▁pee	-4763
▁spl	-4764
▁spy	-4765
▁ste	-4766
▁suc	-4767
▁tim	-4768
▁var	-4769
▁vel	-4770
▁vol	-4771
▁wid	-4772
▁yes	-4773
aning	-4774
earer	-4775
erves	-4776
herit	-4777
icles	-4778
imble	-4779
irect	-4780
itten	-4781
omach	-4782
ories	-4783
othes	-4784
otted	-4785
stery	-4786
uries	-4787
ushes	-4788
▁Anon	-4789
▁Betw	-4790
▁Each	-4791
▁Fort	-4792
▁Hail	-4793
▁Lart	-4794
▁Many	-4795
▁Soft	-4796
▁Time	-4797
▁Tush	-4798
▁Vill	-4799
▁blem	-4800
▁bran	-4801
▁bred	-4802
▁buck	-4803
▁coff	-4804
▁cost	-4805
▁curt	-4806
▁deck	-4807
▁decl	-4808
▁edge	-4809
▁fact	-4810
▁fawn	-4811
▁fish	-4812
▁gaze	-4813
▁grat	-4814
▁iron	-4815
▁knot	-4816
▁lift	-4817
▁line	-4818
▁mess	-4819
▁mood	-4820
▁rail	-4821
▁rain	-4822
▁reap	-4823
▁ride	-4824
▁ripe	-4825
▁sham	-4826
▁shri	-4827
▁slip	-4828
▁spit	-4829
▁tail	-4830
▁toad	-4831
▁toil	-4832
▁tres	-4833
▁wake	-4834
▁west	-4835
▁whit	-4836
▁wink	-4837
bation	-4838
itable	-4839
seless	-4840
▁Among	-4841
▁Bushy	-4842
▁CLEOM	-4843
▁Didst	-4844
▁FROTH	-4845
▁Happy	-4846
▁Italy	-4847
▁Somet	-4848
▁Sound	-4849
▁Uncle	-4850
▁babes	-4851
▁began	-4852
▁burst	-4853
▁chall	-4854
▁civil	-4855
▁coron	-4856
▁counc	-4857
▁disgu	-4858
▁dowry	-4859
▁eagle	-4860
▁estim	-4861
▁hangs	-4862
▁harsh	-4863
▁hated	-4864
▁heirs	-4865
▁human	-4866
▁impat	-4867
▁incen	-4868
▁innoc	-4869
▁liken	-4870
▁lover	-4871
▁marks	-4872
▁minds	-4873
▁mirth	-4874
▁negle	-4875
▁occup	-4876
▁offic	-4877
▁pause	-4878
▁scold	-4879
▁spect	-4880
▁stick	-4881
▁super	-4882
▁swain	-4883
▁takes	-4884
▁taunt	-4885
▁thick	-4886
▁tooth	-4887
▁wager	-4888
▁wakes	-4889
▁warri	-4890
LOUGHBY	-4891
▁ADRIAN	-4892
▁Behold	-4893
▁Better	-4894
▁County	-4895
▁Follow	-4896
▁Return	-4897
▁Tullus	-4898
▁abused	-4899
▁bigger	-4900
▁chaste	-4901
▁craves	-4902
▁dearly	-4903
▁deaths	-4904
▁dismal	-4905
▁fierce	-4906
▁frowns	-4907
▁griefs	-4908
▁infant	-4909
▁keeper	-4910
▁league	-4911
▁lesser	-4912
▁lovest	-4913
▁manage	-4914
▁memory	-4915
▁modest	-4916
▁object	-4917
▁pierce	-4918
▁policy	-4919
▁refuse	-4920
▁remove	-4921
▁repeal	-4922
▁repose	-4923
▁retire	-4924
▁revolt	-4925
▁rights	-4926
▁seldom	-4927
▁served	-4928
▁shrewd	-4929
▁shroud	-4930
▁sights	-4931
▁steeds	-4932
▁subtle	-4933
▁suffic	-4934
▁suitor	-4935
▁sullen	-4936
▁supply	-4937
▁thirty	-4938
▁thread	-4939
▁trusty	-4940
▁uncles	-4941
▁visage	-4942
banished	-4943
othecary	-4944
ouchsafe	-4945
▁Commend	-4946
▁Lartius	-4947
▁Mariana	-4948
▁Perdita	-4949
▁Through	-4950
▁Whether	-4951
▁William	-4952
▁clothes	-4953
▁conceal	-4954
▁confirm	-4955
▁dearest	-4956
▁descent	-4957
▁feather	-4958
▁foreign	-4959
▁gallant	-4960
▁growing	-4961
▁meeting	-4962
▁modesty	-4963
▁mystery	-4964
▁perhaps	-4965
▁plainly	-4966
▁proclam	-4967
▁prophet	-4968
▁redress	-4969
▁remorse	-4970
▁removed	-4971
▁satisfy	-4972
▁scandal	-4973
▁sepulch	-4974
▁shadows	-4975
▁sorrows	-4976
▁strokes	-4977
▁stumble	-4978
▁succeed	-4979
▁sweeter	-4980
▁torture	-4981
▁windows	-4982
▁writing	-4983
▁yielded	-4984
▁younger	-4985
▁absolute	-4986
▁accursed	-4987
▁acquaint	-4988
▁careless	-4989
▁executed	-4990
▁exercise	-4991
▁fourteen	-4992
▁heartily	-4993
▁heavenly	-4994
▁monument	-4995
▁opposite	-4996
▁pleasing	-4997
▁purchase	-4998
▁selfsame	-4999
▁servants	-5000
▁stranger	-5001
▁stronger	-5002
▁trespass	-5003
▁withdraw	-5004
▁wondrous	-5005
▁youngest	-5006
▁CLEOMENES	-5007
▁adventure	-5008
▁appointed	-5009
▁beauteous	-5010
▁determine	-5011
▁direction	-5012
▁extremity	-5013
▁flatterer	-5014
▁greatness	-5015
▁ignorance	-5016
▁infection	-5017
▁mischance	-5018
▁privilege	-5019
▁trembling	-5020
▁WILLOUGHBY	-5021
▁commonweal	-5022
▁countrymen	-5023
▁triumphant	-5024
▁Conspirator	-5025
▁adversaries	-5026
▁executioner	-5027
▁instruction	-5028
EP	-5029
ax	-5030
gy	-5031
we	-5032
ARN	-5033
EPH	-5034
INE	-5035
ann	-5036
app	-5037
aug	-5038
bio	-5039
but	-5040
cue	-5041
esu	-5042
iar	-5043
ips	-5044
mas	-5045
ola	-5046
oon	-5047
owl	-5048
rif	-5049
sey	-5050
sha	-5051
son	-5052
sop	-5053
▁Ap	-5054
▁Gu	-5055
▁Im	-5056
▁Oh	-5057
▁Wr	-5058
▁ah	-5059
▁sn	-5060
AMUS	-5061
aker	-5062
ares	-5063
ased	-5064
athe	-5065
ayed	-5066
bble	-5067
bert	-5068
cels	-5069
ders	-5070
enge	-5071
hern	-5072
hrew	-5073
iced	-5074
icio	-5075
iddy	-5076
iege	-5077
ilth	-5078
ital	-5079
ived	-5080
iver	-5081
lied	-5082
nken	-5083
oops	-5084
oubt	-5085
rage	-5086
raid	-5087
rank	-5088
rity	-5089
sire	-5090
some	-5091
ueen	-5092
▁Att	-5093
▁Bre	-5094
▁Bur	-5095
▁Del	-5096
▁Ely	-5097
▁Fal	-5098
▁Imp	-5099
▁Old	-5100
▁Pri	-5101
▁RUT	-5102
▁Sur	-5103
▁Wed	-5104
▁Woe	-5105
▁ale	-5106
▁bag	-5107
▁cat	-5108
▁fix	-5109
▁hig	-5110
▁hom	-5111
▁hop	-5112
▁ink	-5113
▁lur	-5114
▁mil	-5115
▁net	-5116
▁orn	-5117
▁sav	-5118
▁tig	-5119
▁tou	-5120
▁tro	-5121
▁unm	-5122
▁yon	-5123
ables	-5124
acles	-5125
agues	-5126
ainty	-5127
ansom	-5128
ardel	-5129
atest	-5130
athed	-5131
cheth	-5132
chief	-5133
eping	-5134
ering	-5135
hamed	-5136
icate	-5137
inate	-5138
ision	-5139
itiff	-5140
keley	-5141
ontes	-5142
orney	-5143
pense	-5144
ratch	-5145
rible	-5146
twill	-5147
unate	-5148
▁Anne	-5149
▁BARN	-5150
▁Cast	-5151
▁Dido	-5152
▁Disp	-5153
▁Does	-5154
▁Fair	-5155
▁Find	-5156
▁Gree	-5157
▁Hang	-5158
▁Perc	-5159
▁Send	-5160
▁Vaug	-5161
▁Wife	-5162
▁ages	-5163
▁alms	-5164
▁bank	-5165
▁bere	-5166
▁bill	-5167
▁bore	-5168
▁butt	-5169
▁caps	-5170
▁coll	-5171
▁cram	-5172
▁crow	-5173
▁date	-5174
▁deaf	-5175
▁dogs	-5176
▁dove	-5177
▁drag	-5178
▁eter	-5179
▁exam	-5180
▁fant	-5181
▁flow	-5182
▁fret	-5183
▁godd	-5184
▁grew	-5185
▁hare	-5186
▁heat	-5187
▁hers	-5188
▁hind	-5189
▁hire	-5190
▁laws	-5191
▁lets	-5192
▁luck	-5193
▁main	-5194
▁neat	-5195
▁nest	-5196
▁nice	-5197
▁numb	-5198
▁nupt	-5199
▁page	-5200
▁paid	-5201
▁path	-5202
▁pear	-5203
▁pern	-5204
▁prep	-5205
▁rank	-5206
▁serp	-5207
▁sirs	-5208
▁subd	-5209
▁thie	-5210
▁thin	-5211
▁tren	-5212
▁trif	-5213
▁unfe	-5214
▁unse	-5215
▁urge	-5216
▁vent	-5217
▁ward	-5218
▁wolf	-5219
▁wore	-5220
▁worm	-5221
▁zeal	-5222
ARDINE	-5223
IDAMUS	-5224
ceives	-5225
ending	-5226
ercing	-5227
fellow	-5228
harged	-5229
headed	-5230
ilence	-5231
ingers	-5232
master	-5233
orough	-5234
pardon	-5235
scalus	-5236
ushing	-5237
▁Elbow	-5238
▁Grace	-5239
▁Green	-5240
▁Hadst	-5241
▁Licio	-5242
▁Prove	-5243
▁Queen	-5244
▁Shore	-5245
▁abuse	-5246
▁amiss	-5247
▁angel	-5248
▁appea	-5249
▁backs	-5250
▁bands	-5251
▁beaut	-5252
▁beget	-5253
▁birds	-5254
▁blast	-5255
▁boast	-5256
▁bread	-5257
▁breed	-5258
▁brown	-5259
▁burns	-5260
▁burnt	-5261
▁charm	-5262
▁cheap	-5263
▁dower	-5264
▁dozen	-5265
▁flint	-5266
▁forty	-5267
▁freed	-5268
▁giddy	-5269
▁goods	-5270
▁grain	-5271
▁heels	-5272
▁honey	-5273
▁jewel	-5274
▁lance	-5275
▁limbs	-5276
▁limit	-5277
▁lower	-5278
▁lying	-5279
▁metal	-5280
▁moral	-5281
▁moves	-5282
▁noted	-5283
▁price	-5284
▁prime	-5285
▁reply	-5286
▁share	-5287
▁shook	-5288
▁sings	-5289
▁spoil	-5290
▁stale	-5291
▁steps	-5292
▁stern	-5293
▁straw	-5294
▁suits	-5295
▁sweat	-5296
▁swore	-5297
▁thumb	-5298
▁torch	-5299
▁troop	-5300
▁trunk	-5301
▁waves	-5302
▁wills	-5303
ribunes	-5304
▁Cambio	-5305
▁Making	-5306
▁Strike	-5307
▁Surrey	-5308
▁Whiles	-5309
▁arrest	-5310
▁befall	-5311
▁bestow	-5312
▁borrow	-5313
▁bottom	-5314
▁contro	-5315
▁covert	-5316
▁escape	-5317
▁fardel	-5318
▁graced	-5319
▁guests	-5320
▁haught	-5321
▁hungry	-5322
▁injury	-5323
▁joints	-5324
▁likely	-5325
▁liking	-5326
▁livery	-5327
▁looked	-5328
▁meddle	-5329
▁minute	-5330
▁months	-5331
▁parted	-5332
▁places	-5333
▁rapier	-5334
▁rebels	-5335
▁restra	-5336
▁sacrif	-5337
▁saints	-5338
▁senses	-5339
▁shapes	-5340
▁shines	-5341
▁shrift	-5342
▁sooner	-5343
▁sought	-5344
▁spleen	-5345
▁statue	-5346
▁strive	-5347
▁thirst	-5348
▁transp	-5349
▁troops	-5350
▁tyrann	-5351
▁unfold	-5352
▁velvet	-5353
▁weapon	-5354
▁wooing	-5355
▁yields	-5356
▁Another	-5357
▁Escalus	-5358
▁Fortune	-5359
▁Justice	-5360
▁Leontes	-5361
▁RUTLAND	-5362
▁Vaughan	-5363
▁Villain	-5364
▁Whereto	-5365
▁actions	-5366
▁advised	-5367
▁affords	-5368
▁burning	-5369
▁caitiff	-5370
▁careful	-5371
▁carried	-5372
▁censure	-5373
▁cherish	-5374
▁clamour	-5375
▁conjure	-5376
▁disease	-5377
▁dismiss	-5378
▁drunken	-5379
▁execute	-5380
▁fearing	-5381
▁happily	-5382
▁imagine	-5383
▁liberal	-5384
▁madness	-5385
▁misfort	-5386
▁monarch	-5387
▁monster	-5388
▁nuptial	-5389
▁offices	-5390
▁peevish	-5391
▁pitiful	-5392
▁praises	-5393
▁process	-5394
▁putting	-5395
▁rejoice	-5396
▁royalty	-5397
▁sadness	-5398
▁scatter	-5399
▁shallow	-5400
▁stomach	-5401
▁stretch	-5402
▁suitors	-5403
▁tapster	-5404
▁telling	-5405
▁thereby	-5406
▁upright	-5407
▁wanting	-5408
▁whereon	-5409
▁written	-5410
▁Although	-5411
▁Berkeley	-5412
▁Laurence	-5413
▁Remember	-5414
▁anointed	-5415
▁behavior	-5416
▁bitterly	-5417
▁bleeding	-5418
▁blessing	-5419
▁childish	-5420
▁conceive	-5421
▁counsell	-5422
▁flourish	-5423
▁immortal	-5424
▁inclined	-5425
▁lengthen	-5426
▁likeness	-5427
▁midnight	-5428
▁nobility	-5429
▁officers	-5430
▁ruthless	-5431
▁sleeping	-5432
▁somewhat	-5433
▁thinking	-5434
▁tomorrow	-5435
▁violence	-5436
▁warriors	-5437
▁Methought	-5438
▁Wherefore	-5439
▁Wiltshire	-5440
▁apprehend	-5441
▁breathing	-5442
▁challenge	-5443
▁character	-5444
▁companion	-5445
▁courteous	-5446
▁discourse	-5447
▁dispersed	-5448
▁forthwith	-5449
▁grandsire	-5450
▁lightning	-5451
▁methought	-5452
▁necessity	-5453
▁prettiest	-5454
▁prevented	-5455
▁senseless	-5456
▁sepulchre	-5457
▁substance	-5458
▁ARCHIDAMUS	-5459
▁BARNARDINE	-5460
▁churchyard	-5461
▁coronation	-5462
▁pernicious	-5463
▁possession	-5464
▁proportion	-5465
▁reputation	-5466
▁succession	-5467
▁threatening	-5468
▁commonwealth	-5469
▁intelligence	-5470
▁proclamation	-5471
AG	-5472
IR	-5473
OT	-5474
ta	-5475
wd	-5476
yc	-5477
BAN	-5478
CRO	-5479
EOR	-5480
MOR	-5481
WAT	-5482
acy	-5483
adv	-5484
arm	-5485
asp	-5486
bey	-5487
cri	-5488
dal	-5489
ded	-5490
dst	-5491
got	-5492
hen	-5493
ndy	-5494
oes	-5495
rog	-5496
sen	-5497
uns	-5498
zed	-5499
▁Em	-5500
▁Ga	-5501
▁Qu	-5502
▁fr	-5503
▁gn	-5504
AGOT	-5505
ably	-5506
aged	-5507
agot	-5508
ardy	-5509
cket	-5510
cure	-5511
ersu	-5512
foot	-5513
give	-5514
here	-5515
hilo	-5516
hire	-5517
iban	-5518
iece	-5519
igon	-5520
itch	-5521
join	-5522
kind	-5523
lace	-5524
olks	-5525
oned	-5526
rald	-5527
reet	-5528
rich	-5529
riel	-5530
roof	-5531
spur	-5532
that	-5533
ulls	-5534
umed	-5535
upid	-5536
ushi	-5537
utch	-5538
vied	-5539
wing	-5540
▁Add	-5541
▁CAR	-5542
▁ELY	-5543
▁FIT	-5544
▁Fit	-5545
▁Gra	-5546
▁Hie	-5547
▁Hon	-5548
▁Mis	-5549
▁SIR	-5550
▁Saw	-5551
▁Sly	-5552
▁Sus	-5553
▁Ten	-5554
▁Wit	-5555
▁aud	-5556
▁bay	-5557
▁bol	-5558
▁bru	-5559
▁cab	-5560
▁cop	-5561
▁dem	-5562
▁fin	-5563
▁gam	-5564
▁gap	-5565
▁ice	-5566
▁inv	-5567
▁leg	-5568
▁lun	-5569
▁mat	-5570
▁mew	-5571
▁nar	-5572
▁pop	-5573
▁por	-5574
▁rag	-5575
▁rue	-5576
▁sau	-5577
▁sca	-5578
▁sed	-5579
▁una	-5580
▁wax	-5581
▁wet	-5582
CROOP	-5583
ELAND	-5584
EORGE	-5585
EPHEN	-5586
LIBAN	-5587
LISLE	-5588
WATER	-5589
alter	-5590
arers	-5591
blood	-5592
chers	-5593
emper	-5594
erest	-5595
guard	-5596
gundy	-5597
ickle	-5598
igent	-5599
igned	-5600
ilful	-5601
iliar	-5602
iners	-5603
iring	-5604
ishes	-5605
light	-5606
mbers	-5607
olved	-5608
order	-5609
oured	-5610
ranch	-5611
reant	-5612
shall	-5613
sophy	-5614
ulous	-5615
verty	-5616
vided	-5617
volio	-5618
which	-5619
▁Capt	-5620
▁Desp	-5621
▁Dian	-5622
▁Else	-5623
▁Ever	-5624
▁Five	-5625
▁Full	-5626
▁Gard	-5627
▁Jesu	-5628
▁Live	-5629
▁Much	-5630
▁Name	-5631
▁Part	-5632
▁Virt	-5633
▁WEST	-5634
▁aged	-5635
▁also	-5636
▁anch	-5637
▁balm	-5638
▁beef	-5639
▁bell	-5640
▁bent	-5641
▁brat	-5642
▁busy	-5643
▁buzz	-5644
▁cent	-5645
▁coat	-5646
▁cook	-5647
▁drew	-5648
▁felt	-5649
▁flat	-5650
▁fray	-5651
▁fres	-5652
▁goss	-5653
▁hail	-5654
▁herd	-5655
▁hist	-5656
▁hoar	-5657
▁hurl	-5658
▁keys	-5659
▁lect	-5660
▁lewd	-5661
▁load	-5662
▁lock	-5663
▁lour	-5664
▁mars	-5665
▁misc	-5666
▁mour	-5667
▁omit	-5668
▁owes	-5669
▁pace	-5670
▁palm	-5671
▁pent	-5672
▁pick	-5673
▁pict	-5674
▁pill	-5675
▁pomp	-5676
▁push	-5677
▁rack	-5678
▁rate	-5679
▁rear	-5680
▁rend	-5681
▁robb	-5682
▁sess	-5683
▁shel	-5684
▁shop	-5685
▁shru	-5686
▁smil	-5687
▁soci	-5688
▁soil	-5689
▁surp	-5690
▁tack	-5691
▁term	-5692
▁tied	-5693
▁tops	-5694
▁tree	-5695
▁trim	-5696
▁unre	-5697
▁vast	-5698
▁wave	-5699
▁week	-5700
▁wipe	-5701
action	-5702
egrity	-5703
idered	-5704
igonus	-5705
isting	-5706
nesday	-5707
owards	-5708
spurgh	-5709
tering	-5710
ventry	-5711
▁Above	-5712
▁Adieu	-5713
▁BAGOT	-5714
▁Bagot	-5715
▁Blunt	-5716
▁Canst	-5717
▁Comes	-5718
▁False	-5719
▁Persu	-5720
▁Raven	-5721
▁Shalt	-5722
▁Swear	-5723
▁Thine	-5724
▁Trust	-5725
▁Welsh	-5726
▁Women	-5727
▁Yield	-5728
▁abund	-5729
▁accom	-5730
▁alleg	-5731
▁amain	-5732
▁ambit	-5733
▁apace	-5734
▁array	-5735
▁beams	-5736
▁beats	-5737
▁clock	-5738
▁cozen	-5739
▁crook	-5740
▁disin	-5741
▁divor	-5742
▁droop	-5743
▁eaten	-5744
▁eight	-5745
▁ended	-5746
▁exped	-5747
▁falls	-5748
▁fever	-5749
▁fiend	-5750
▁frail	-5751
▁frank	-5752
▁frost	-5753
▁gains	-5754
▁gifts	-5755
▁goose	-5756
▁helps	-5757
▁imper	-5758
▁infer	-5759
▁insol	-5760
▁lambs	-5761
▁likes	-5762
▁lions	-5763
▁lists	-5764
▁merri	-5765
▁mould	-5766
▁ought	-5767
▁paint	-5768
▁petty	-5769
▁philo	-5770
▁plebe	-5771
▁purge	-5772
▁raven	-5773
▁reach	-5774
▁revel	-5775
▁robes	-5776
▁rouse	-5777
▁saved	-5778
▁ships	-5779
▁shoes	-5780
▁sides	-5781
▁silly	-5782
▁skill	-5783
▁slipp	-5784
▁stays	-5785
▁stead	-5786
▁stops	-5787
▁tired	-5788
▁towns	-5789
▁train	-5790
▁waked	-5791
▁wears	-5792
ceiving	-5793
isement	-5794
iveness	-5795
mediate	-5796
onstant	-5797
umbling	-5798
▁Appear	-5799
▁Curtis	-5800
▁GEORGE	-5801
▁Gaoler	-5802
▁Minola	-5803
▁Nature	-5804
▁SCROOP	-5805
▁Things	-5806
▁Venice	-5807
▁afraid	-5808
▁amends	-5809
▁aspect	-5810
▁attain	-5811
▁beaten	-5812
▁betide	-5813
▁boldly	-5814
▁bowels	-5815
▁brains	-5816
▁bridal	-5817
▁cheque	-5818
▁chosen	-5819
▁cloudy	-5820
▁couple	-5821
▁dearer	-5822
▁depose	-5823
▁detest	-5824
▁eldest	-5825
▁eleven	-5826
▁errand	-5827
▁esteem	-5828
▁except	-5829
▁falcon	-5830
▁figure	-5831
▁fondly	-5832
▁gladly	-5833
▁hazard	-5834
▁height	-5835
▁herald	-5836
▁homely	-5837
▁kisses	-5838
▁landed	-5839
▁lately	-5840
▁livest	-5841
▁lovers	-5842
▁marvel	-5843
▁middle	-5844
▁narrow	-5845
▁nights	-5846
▁notice	-5847
▁obsequ	-5848
▁prefer	-5849
▁prodig	-5850
▁prompt	-5851
▁proved	-5852
▁purple	-5853
▁ransom	-5854
▁reckon	-5855
▁riches	-5856
▁savage	-5857
▁seated	-5858
▁seized	-5859
▁severe	-5860
▁signal	-5861
▁slight	-5862
▁sounds	-5863
▁spread	-5864
▁stolen	-5865
▁storms	-5866
▁strict	-5867
▁swears	-5868
▁takest	-5869
▁testim	-5870
▁tricks	-5871
▁troubl	-5872
▁vanity	-5873
▁varlet	-5874
▁wisely	-5875
MORELAND	-5876
perience	-5877
▁Becomes	-5878
▁CALIBAN	-5879
▁Caliban	-5880
▁Captain	-5881
▁Comfort	-5882
▁Neither	-5883
▁Perhaps	-5884
▁Prepare	-5885
▁STEPHEN	-5886
▁Towards	-5887
▁Whereof	-5888
▁amongst	-5889
▁amorous	-5890
▁ashamed	-5891
▁bidding	-5892
▁blemish	-5893
▁ceremon	-5894
▁cheerly	-5895
▁conclud	-5896
▁consequ	-5897
▁couldst	-5898
▁designs	-5899
▁earthly	-5900
▁example	-5901
▁extreme	-5902
▁fantast	-5903
▁favours	-5904
▁fingers	-5905
▁freedom	-5906
▁furnish	-5907
▁ghostly	-5908
▁goddess	-5909
▁grandam	-5910
▁grieved	-5911
▁grieves	-5912
▁heavier	-5913
▁holding	-5914
▁hopeful	-5915
▁kinsmen	-5916
▁knowing	-5917
▁learned	-5918
▁marvell	-5919
▁members	-5920
▁mightst	-5921
▁neglect	-5922
▁ourself	-5923
▁outrage	-5924
▁parents	-5925
▁parties	-5926
▁partner	-5927
▁poverty	-5928
▁presume	-5929
▁profane	-5930
▁prophes	-5931
▁provide	-5932
▁restore	-5933
▁retired	-5934
▁scratch	-5935
▁settled	-5936
▁signify	-5937
▁smother	-5938
▁sounded	-5939
▁sweetly	-5940
▁temples	-5941
▁tempted	-5942
▁thieves	-5943
▁travell	-5944
▁weapons	-5945
▁winters	-5946
▁worldly	-5947
▁Benvolio	-5948
▁Burgundy	-5949
▁CARLISLE	-5950
▁Coventry	-5951
▁Gardener	-5952
▁Patience	-5953
▁Proclaim	-5954
▁Tribunes	-5955
▁Withdraw	-5956
▁attorney	-5957
▁bastards	-5958
▁boldness	-5959
▁compound	-5960
▁conclude	-5961
▁confound	-5962
▁conquest	-5963
▁contents	-5964
▁courtier	-5965
▁cowardly	-5966
▁darkness	-5967
▁devilish	-5968
▁entrance	-5969
▁greeting	-5970
▁likewise	-5971
▁merchant	-5972
▁mildness	-5973
▁mutinous	-5974
▁persuade	-5975
▁piercing	-5976
▁preserve	-5977
▁provoked	-5978
▁revenges	-5979
▁speaking	-5980
▁suddenly	-5981
▁thankful	-5982
▁treasons	-5983
▁troubled	-5984
▁usurping	-5985
▁villains	-5986
▁youthful	-5987
▁Antigonus	-5988
▁Vouchsafe	-5989
▁Wednesday	-5990
▁ambitious	-5991
▁condemned	-5992
▁constable	-5993
▁departure	-5994
▁downright	-5995
▁instantly	-5996
▁integrity	-5997
▁ministers	-5998
▁musicians	-5999
▁nobleness	-6000
▁readiness	-6001
▁reconcile	-6002
▁sentenced	-6003
▁tyrannous	-6004
▁wandering	-6005
▁accusation	-6006
▁acquainted	-6007
▁allegiance	-6008
▁complexion	-6009
▁entreaties	-6010
▁estimation	-6011
▁flattering	-6012
▁lamentable	-6013
▁misfortune	-6014
▁neighbours	-6015
▁occupation	-6016
▁philosophy	-6017
▁pilgrimage	-6018
▁recompense	-6019
▁substitute	-6020
▁sufficient	-6021
▁unkindness	-6022
▁Ravenspurgh	-6023
▁approbation	-6024
▁destruction	-6025
▁WESTMORELAND	-6026
▁circumstance	-6027
▁discontented	-6028
▁satisfaction	-6029
br	-6030
do	-6031
eb	-6032
uc	-6033
ug	-6034
Hic	-6035
amy	-6036
bot	-6037
boy	-6038
cra	-6039
cus	-6040
des	-6041
gea	-6042
gic	-6043
inu	-6044
len	-6045
lor	-6046
low	-6047
off	-6048
ril	-6049
rop	-6050
tin	-6051
uiv	-6052
urb	-6053
uts	-6054
wer	-6055
▁Ac	-6056
▁Er	-6057
▁ug	-6058
What	-6059
alks	-6060
ands	-6061
aped	-6062
back	-6063
bour	-6064
bric	-6065
cest	-6066
ctor	-6067
done	-6068
ella	-6069
eves	-6070
ewks	-6071
gues	-6072
hage	-6073
hand	-6074
hors	-6075
icle	-6076
ifth	-6077
inal	-6078
kest	-6079
lain	-6080
last	-6081
lect	-6082
lier	-6083
made	-6084
nday	-6085
oble	-6086
onio	-6087
orax	-6088
oriz	-6089
oses	-6090
rish	-6091
tied	-6092
ules	-6093
uned	-6094
unis	-6095
vive	-6096
wear	-6097
work	-6098
▁Adv	-6099
▁Aff	-6100
▁Che	-6101
▁Dep	-6102
▁Div	-6103
▁Har	-6104
▁Jup	-6105
▁Mur	-6106
▁Ned	-6107
▁Pem	-6108
▁Rel	-6109
▁Sit	-6110
▁Syc	-6111
▁Tra	-6112
▁ack	-6113
▁afe	-6114
▁ann	-6115
▁ape	-6116
▁ash	-6117
▁bul	-6118
▁dot	-6119
▁eff	-6120
▁fan	-6121
▁fox	-6122
▁fre	-6123
▁hag	-6124
▁key	-6125
▁mas	-6126
▁moe	-6127
▁mom	-6128
▁nod	-6129
▁obs	-6130
▁pow	-6131
▁pup	-6132
▁rhe	-6133
▁rig	-6134
▁rum	-6135
▁sap	-6136
▁sow	-6137
▁thw	-6138
▁tie	-6139
▁vul	-6140
Twixt	-6141
aints	-6142
amity	-6143
asant	-6144
avour	-6145
awful	-6146
aying	-6147
board	-6148
ening	-6149
horse	-6150
iders	-6151
inces	-6152
inies	-6153
inted	-6154
ively	-6155
lance	-6156
longs	-6157
ocate	-6158
oster	-6159
peian	-6160
ption	-6161
roach	-6162
shine	-6163
sooth	-6164
there	-6165
trees	-6166
ually	-6167
uring	-6168
water	-6169
▁ABRA	-6170
▁Best	-6171
▁Bold	-6172
▁Cart	-6173
▁Cont	-6174
▁Dest	-6175
▁Fall	-6176
▁Fell	-6177
▁Foul	-6178
▁Happ	-6179
▁Kent	-6180
▁Kind	-6181
▁Lead	-6182
▁Lend	-6183
▁Lies	-6184
▁Nept	-6185
▁Over	-6186
▁Purs	-6187
▁Read	-6188
▁Scot	-6189
▁Talk	-6190
▁Troy	-6191
▁Wert	-6192
▁West	-6193
▁acts	-6194
▁aims	-6195
▁alar	-6196
▁amaz	-6197
▁baby	-6198
▁bail	-6199
▁bald	-6200
▁blot	-6201
▁blue	-6202
▁bowl	-6203
▁bows	-6204
▁cler	-6205
▁cool	-6206
▁cord	-6207
▁crab	-6208
▁crim	-6209
▁dash	-6210
▁dece	-6211
▁deer	-6212
▁defy	-6213
▁desc	-6214
▁dine	-6215
▁diso	-6216
▁dole	-6217
▁dram	-6218
▁earl	-6219
▁fift	-6220
▁fulf	-6221
▁game	-6222
▁grim	-6223
▁gust	-6224
▁harl	-6225
▁heel	-6226
▁hill	-6227
▁inch	-6228
▁lads	-6229
▁leap	-6230
▁lick	-6231
▁lief	-6232
▁lute	-6233
▁mask	-6234
▁meal	-6235
▁meed	-6236
▁milk	-6237
▁nigh	-6238
▁noon	-6239
▁nort	-6240
▁obsc	-6241
▁pant	-6242
▁peer	-6243
▁perd	-6244
▁pest	-6245
▁plan	-6246
▁pour	-6247
▁race	-6248
▁ranc	-6249
▁rein	-6250
▁roof	-6251
▁runs	-6252
▁rush	-6253
▁sack	-6254
▁shot	-6255
▁silk	-6256
▁sixt	-6257
▁song	-6258
▁stag	-6259
▁summ	-6260
▁terr	-6261
▁torn	-6262
▁trow	-6263
▁undo	-6264
▁vass	-6265
▁veil	-6266
▁vial	-6267
▁welc	-6268
▁yare	-6269
BISHOP	-6270
advent	-6271
aments	-6272
anders	-6273
arried	-6274
attern	-6275
enches	-6276
govern	-6277
iments	-6278
ittany	-6279
lihood	-6280
ossess	-6281
ousins	-6282
rament	-6283
rantic	-6284
twould	-6285
uivant	-6286
ulting	-6287
▁Alban	-6288
▁Ariel	-6289
▁Bound	-6290
▁Break	-6291
▁Cupid	-6292
▁Fetch	-6293
▁Gives	-6294
▁Ready	-6295
▁Teach	-6296
▁Tewks	-6297
▁Thank	-6298
▁Throw	-6299
▁Touch	-6300
▁Truly	-6301
▁Tunis	-6302
▁Twice	-6303
▁aloud	-6304
▁apart	-6305
▁arise	-6306
▁ashes	-6307
▁blaze	-6308
▁bliss	-6309
▁blown	-6310
▁brand	-6311
▁cabin	-6312
▁canop	-6313
▁champ	-6314
▁chose	-6315
▁clean	-6316
▁cloak	-6317
▁coast	-6318
▁cords	-6319
▁crept	-6320
▁crows	-6321
▁crush	-6322
▁cushi	-6323
▁diest	-6324
▁dined	-6325
▁dried	-6326
▁drift	-6327
▁dukes	-6328
▁eager	-6329
▁evils	-6330
▁faced	-6331
▁fleet	-6332
▁flock	-6333
▁folks	-6334
▁fount	-6335
▁front	-6336
▁fully	-6337
▁gaunt	-6338
▁grass	-6339
▁groom	-6340
▁haunt	-6341
▁kites	-6342
▁level	-6343
▁linea	-6344
▁lodge	-6345
▁lowly	-6346
▁mates	-6347
▁medic	-6348
▁midst	-6349
▁model	-6350
▁moody	-6351
▁mouse	-6352
▁murde	-6353
▁nails	-6354
▁named	-6355
▁pearl	-6356
▁pilot	-6357
▁pinch	-6358
▁prate	-6359
▁print	-6360
▁puiss	-6361
▁rests	-6362
▁roses	-6363
▁sadly	-6364
▁score	-6365
▁seeks	-6366
▁shade	-6367
▁shown	-6368
▁slily	-6369
▁spark	-6370
▁spurs	-6371
▁stark	-6372
▁steep	-6373
▁stiff	-6374
▁stink	-6375
▁surpr	-6376
▁swoon	-6377
▁tardy	-6378
▁theme	-6379
▁tiger	-6380
▁toads	-6381
▁trees	-6382
▁tutor	-6383
▁unpro	-6384
▁vouch	-6385
▁waits	-6386
▁whist	-6387
▁worms	-6388
▁wring	-6389
advised	-6390
angling	-6391
emption	-6392
ication	-6393
racious	-6394
rateful	-6395
▁Answer	-6396
▁Antium	-6397
▁Bishop	-6398
▁Murder	-6399
▁Stands	-6400
▁Sunday	-6401
▁Virtue	-6402
▁Walter	-6403
▁abhorr	-6404
▁accomp	-6405
▁acknow	-6406
▁afeard	-6407
▁ancest	-6408
▁angels	-6409
▁asking	-6410
▁belong	-6411
▁bereft	-6412
▁beside	-6413
▁bestri	-6414
▁bosoms	-6415
▁bounty	-6416
▁branch	-6417
▁breaks	-6418
▁burden	-6419
▁butter	-6420
▁causes	-6421
▁closed	-6422
▁crying	-6423
▁dearth	-6424
▁deform	-6425
▁depend	-6426
▁devils	-6427
▁devour	-6428
▁distra	-6429
▁easily	-6430
▁embass	-6431
▁enrich	-6432
▁exceed	-6433
▁fallen	-6434
▁feasts	-6435
▁framed	-6436
▁frozen	-6437
▁gather	-6438
▁graces	-6439
▁growth	-6440
▁herein	-6441
▁hinder	-6442
▁insinu	-6443
▁invent	-6444
▁inward	-6445
▁knocks	-6446
▁leaden	-6447
▁lenity	-6448
▁lights	-6449
▁linger	-6450
▁lodged	-6451
▁magist	-6452
▁meaner	-6453
▁mildly	-6454
▁moiety	-6455
▁moment	-6456
▁moving	-6457
▁nimble	-6458
▁orator	-6459
▁patron	-6460
▁pedlar	-6461
▁pitied	-6462
▁plants	-6463
▁pursue	-6464
▁reigns	-6465
▁resemb	-6466
▁rushes	-6467
▁safely	-6468
▁search	-6469
▁speedy	-6470
▁spider	-6471
▁stocks	-6472
▁strife	-6473
▁taking	-6474
▁taunts	-6475
▁temple	-6476
▁thrown	-6477
▁unlike	-6478
▁unlook	-6479
▁unluck	-6480
▁unruly	-6481
▁unseen	-6482
▁utmost	-6483
▁watery	-6484
▁wedded	-6485
▁window	-6486
▁worser	-6487
▁yester	-6488
isterous	-6489
shearing	-6490
standing	-6491
▁ABRAHAM	-6492
▁Antonio	-6493
▁Command	-6494
▁Confess	-6495
▁Content	-6496
▁Courage	-6497
▁Jupiter	-6498
▁Mistake	-6499
▁Neptune	-6500
▁Prosper	-6501
▁Suppose	-6502
▁Sycorax	-6503
▁Thyself	-6504
▁adverse	-6505
▁afflict	-6506
▁appears	-6507
▁avoided	-6508
▁battles	-6509
▁beggars	-6510
▁bending	-6511
▁breasts	-6512
▁carries	-6513
▁chances	-6514
▁charges	-6515
▁climate	-6516
▁compare	-6517
▁dancing	-6518
▁destiny	-6519
▁dissemb	-6520
▁disturb	-6521
▁endured	-6522
▁eternal	-6523
▁falling	-6524
▁fifteen	-6525
▁frantic	-6526
▁glasses	-6527
▁hangman	-6528
▁harbour	-6529
▁harmony	-6530
▁harvest	-6531
▁heinous	-6532
▁history	-6533
▁ignoble	-6534
▁impeach	-6535
▁inquire	-6536
▁intents	-6537
▁lasting	-6538
▁leaving	-6539
▁loathed	-6540
▁lodging	-6541
▁loyalty	-6542
▁lunatic	-6543
▁manhood	-6544
▁marshal	-6545
▁midwife	-6546
▁minutes	-6547
▁mothers	-6548
▁murders	-6549
▁mustard	-6550
▁numbers	-6551
▁persons	-6552
▁popular	-6553
▁prating	-6554
▁pursuit	-6555
▁quarter	-6556
▁require	-6557
▁revenue	-6558
▁roaring	-6559
▁secrets	-6560
▁serious	-6561
▁serpent	-6562
▁sitting	-6563
▁sixteen	-6564
▁springs	-6565
▁steward	-6566
▁support	-6567
▁surfeit	-6568
▁talking	-6569
▁thereto	-6570
▁trifles	-6571
▁venture	-6572
▁wronged	-6573
adventure	-6574
▁Brittany	-6575
▁Capulets	-6576
▁Carthage	-6577
▁Isabella	-6578
▁Pembroke	-6579
▁Scotland	-6580
▁Sometime	-6581
▁Tarpeian	-6582
▁Volscian	-6583
▁advanced	-6584
▁advocate	-6585
▁approved	-6586
▁attended	-6587
▁believed	-6588
▁blushing	-6589
▁branches	-6590
▁calamity	-6591
▁changing	-6592
▁chiefest	-6593
▁commands	-6594
▁commends	-6595
▁concerns	-6596
▁confeder	-6597
▁cracking	-6598
▁damnable	-6599
▁delicate	-6600
▁despised	-6601
▁distress	-6602
▁doubtful	-6603
▁downfall	-6604
▁drinking	-6605
▁enforced	-6606
▁entreaty	-6607
▁everlast	-6608
▁extremes	-6609
▁familiar	-6610
▁forehead	-6611
▁forsooth	-6612
▁humility	-6613
▁incensed	-6614
▁infected	-6615
▁learning	-6616
▁manifest	-6617
▁mischief	-6618
▁mountain	-6619
▁murdered	-6620
▁musician	-6621
▁nighting	-6622
▁northern	-6623
▁offences	-6624
▁perjured	-6625
▁prophecy	-6626
▁prophesy	-6627
▁proudest	-6628
▁provided	-6629
▁recreant	-6630
▁reported	-6631
▁sensible	-6632
▁singular	-6633
▁smallest	-6634
▁statutes	-6635
▁sweetest	-6636
▁swelling	-6637
▁unworthy	-6638
▁whoreson	-6639
▁wrinkled	-6640
▁yielding	-6641
▁Montagues	-6642
▁Tewksbury	-6643
▁Volscians	-6644
▁afterward	-6645
▁confessor	-6646
▁conqueror	-6647
▁discharge	-6648
▁disgraced	-6649
▁guiltless	-6650
▁injustice	-6651
▁innocence	-6652
▁interrupt	-6653
▁loathsome	-6654
▁multitude	-6655
▁murderous	-6656
▁ornaments	-6657
▁otherwise	-6658
▁plebeians	-6659
▁royalties	-6660
▁sacrament	-6661
▁safeguard	-6662
▁shoulders	-6663
▁suffering	-6664
▁thousands	-6665
▁unwilling	-6666
▁wonderful	-6667
▁ARCHBISHOP	-6668
▁Lieutenant	-6669
▁boisterous	-6670
▁compassion	-6671
▁conclusion	-6672
▁confession	-6673
▁confidence	-6674
▁considered	-6675
▁correction	-6676
▁corruption	-6677
▁counsellor	-6678
▁flatterers	-6679
▁friendship	-6680
▁henceforth	-6681
▁likelihood	-6682
▁marvellous	-6683
▁oppression	-6684
▁perfection	-6685
▁prosperity	-6686
▁redemption	-6687
▁revengeful	-6688
▁slanderous	-6689
▁sufferance	-6690
▁tenderness	-6691
▁visitation	-6692
▁whatsoever	-6693
▁whispering	-6694
▁brotherhood	-6695
▁ceremonious	-6696
▁consequence	-6697
▁displeasure	-6698
▁imagination	-6699
▁lamentation	-6700
▁proceedings	-6701
Be	-6702
He	-6703
St	-6704
cr	-6705
ex	-6706
lm	-6707
lu	-6708
ph	-6709
AGE	-6710
ANI	-6711
ONA	-6712
REY	-6713
The	-6714
ado	-6715
ais	-6716
ald	-6717
ank	-6718
asy	-6719
ato	-6720
aws	-6721
bid	-6722
cat	-6723
cel	-6724
cip	-6725
cis	-6726
civ	-6727
eks	-6728
eny	-6729
hur	-6730
idd	-6731
iel	-6732
imo	-6733
ims	-6734
iqu	-6735
isk	-6736
jud	-6737
key	-6738
lip	-6739
met	-6740
mph	-6741
ops	-6742
rge	-6743
ros	-6744
rup	-6745
ted	-6746
thw	-6747
uge	-6748
ule	-6749
ums	-6750
wit	-6751
▁Ag	-6752
▁Cy	-6753
▁Du	-6754
▁EM	-6755
▁Ro	-6756
▁av	-6757
▁hy	-6758
▁om	-6759
▁vi	-6760
Gain	-6761
This	-6762
adem	-6763
atri	-6764
azon	-6765
bell	-6766
bles	-6767
cast	-6768
cock	-6769
core	-6770
cund	-6771
duce	-6772
ebus	-6773
ffer	-6774
gage	-6775
ghts	-6776
gled	-6777
good	-6778
gory	-6779
gued	-6780
iner	-6781
inew	-6782
ingu	-6783
itty	-6784
ival	-6785
izab	-6786
kens	-6787
lled	-6788
look	-6789
loqu	-6790
love	-6791
miss	-6792
mpet	-6793
odow	-6794
olar	-6795
olve	-6796
omin	-6797
peci	-6798
phan	-6799
pped	-6800
ppet	-6801
pret	-6802
quet	-6803
quis	-6804
reth	-6805
rial	-6806
rief	-6807
rion	-6808
ropp	-6809
seem	-6810
seth	-6811
side	-6812
sion	-6813
sses	-6814
uced	-6815
umes	-6816
umny	-6817
umps	-6818
ungs	-6819
upon	-6820
urer	-6821
urvy	-6822
voke	-6823
will	-6824
xton	-6825
your	-6826
▁Any	-6827
▁Arm	-6828
▁Ass	-6829
▁Bad	-6830
▁Ban	-6831
▁Def	-6832
▁Dor	-6833
▁End	-6834
▁Fly	-6835
▁Ill	-6836
▁Ins	-6837
▁Jer	-6838
▁Jud	-6839
▁Jun	-6840
▁Lam	-6841
▁Pha	-6842
▁Pho	-6843
▁Red	-6844
▁Ren	-6845
▁Run	-6846
▁SUR	-6847
▁Sin	-6848
▁Tur	-6849
▁box	-6850
▁coz	-6851
▁ded	-6852
▁der	-6853
▁dil	-6854
▁ebb	-6855
▁fem	-6856
▁fet	-6857
▁fif	-6858
▁gaz	-6859
▁haw	-6860
▁ire	-6861
▁kna	-6862
▁mum	-6863
▁non	-6864
▁obt	-6865
▁pox	-6866
▁ren	-6867
▁stu	-6868
▁tax	-6869
▁tea	-6870
▁toe	-6871
▁ton	-6872
▁toy	-6873
▁tur	-6874
▁vig	-6875
ANIEL	-6876
Twill	-6877
aches	-6878
adise	-6879
alion	-6880
allel	-6881
andle	-6882
antle	-6883
asing	-6884
athom	-6885
blown	-6886
chool	-6887
craft	-6888
echer	-6889
eches	-6890
ethon	-6891
feits	-6892
glass	-6893
gnant	-6894
grown	-6895
habit	-6896
heard	-6897
holds	-6898
icial	-6899
iding	-6900
illed	-6901
isome	-6902
ivers	-6903
licit	-6904
lling	-6905
neath	-6906
nsion	-6907
opher	-6908
overy	-6909
plish	-6910
ptory	-6911
rails	-6912
rieve	-6913
runes	-6914
scals	-6915
scape	-6916
ships	-6917
stone	-6918
strel	-6919
thing	-6920
throw	-6921
tised	-6922
verse	-6923
versy	-6924
whelm	-6925
where	-6926
▁BONA	-6927
▁Back	-6928
▁Cher	-6929
▁Cold	-6930
▁DION	-6931
▁Fill	-6932
▁Fran	-6933
▁Gold	-6934
▁Harp	-6935
▁Herc	-6936
▁High	-6937
▁Holy	-6938
▁Host	-6939
▁Join	-6940
▁Just	-6941
▁Left	-6942
▁NATH	-6943
▁Obey	-6944
▁Open	-6945
▁PAGE	-6946
▁Pres	-6947
▁Prof	-6948
▁Rest	-6949
▁Urge	-6950
▁abod	-6951
▁abst	-6952
▁airy	-6953
▁alto	-6954
▁answ	-6955
▁arch	-6956
▁awry	-6957
▁beet	-6958
▁boon	-6959
▁bush	-6960
▁cann	-6961
▁card	-6962
▁cave	-6963
▁chaf	-6964
▁chap	-6965
▁chop	-6966
▁clap	-6967
▁coal	-6968
▁crew	-6969
▁cuck	-6970
▁dame	-6971
▁diet	-6972
▁doct	-6973
▁dumb	-6974
▁farm	-6975
▁feat	-6976
▁fest	-6977
▁fits	-6978
▁foil	-6979
▁fold	-6980
▁forn	-6981
▁gait	-6982
▁gaol	-6983
▁gape	-6984
▁geld	-6985
▁gulf	-6986
▁hall	-6987
▁halt	-6988
▁heap	-6989
▁hole	-6990
▁hood	-6991
▁idly	-6992
▁inve	-6993
▁jade	-6994
▁knit	-6995
▁lace	-6996
▁levy	-6997
▁liar	-6998
▁link	-6999
▁liqu	-7000
▁male	-7001
▁marr	-7002
▁mast	-7003
▁moan	-7004
▁muff	-7005
▁negl	-7006
▁obst	-7007
▁pate	-7008
▁pays	-7009
▁perf	-7010
▁pine	-7011
▁prec	-7012
▁puff	-7013
▁pull	-7014
▁rats	-7015
▁rent	-7016
▁ridd	-7017
▁rode	-7018
▁sear	-7019
▁sequ	-7020
▁sith	-7021
▁spar	-7022
▁sped	-7023
▁stem	-7024
▁sued	-7025
▁sugg	-7026
▁sung	-7027
▁syll	-7028
▁tink	-7029
▁ugly	-7030
▁unth	-7031
▁vine	-7032
▁warn	-7033
▁wasp	-7034
▁weal	-7035
▁weed	-7036
▁whet	-7037
Gainst	-7038
actors	-7039
ailing	-7040
aining	-7041
antime	-7042
apable	-7043
arison	-7044
asures	-7045
bearer	-7046
cedent	-7047
chelor	-7048
elting	-7049
erving	-7050
estern	-7051
franch	-7052
iquity	-7053
ivered	-7054
leness	-7055
liness	-7056
mongst	-7057
omenes	-7058
orizel	-7059
otless	-7060
ouches	-7061
piring	-7062
randam	-7063
ressed	-7064
rician	-7065
riment	-7066
strong	-7067
terate	-7068
ueless	-7069
uments	-7070
voided	-7071
witted	-7072
▁Again	-7073
▁Arise	-7074
▁Carry	-7075
▁Every	-7076
▁Fifth	-7077
▁Flore	-7078
▁Forth	-7079
▁Groom	-7080
▁Infer	-7081
▁Knock	-7082
▁Lodow	-7083
▁Lovel	-7084
▁Mercy	-7085
▁Percy	-7086
▁Seize	-7087
▁Shame	-7088
▁Sixth	-7089
▁Smile	-7090
▁Tarqu	-7091
▁Wales	-7092
▁Whate	-7093
▁Worse	-7094
▁Write	-7095
▁actor	-7096
▁admir	-7097
▁admit	-7098
▁afoot	-7099
▁afore	-7100
▁allay	-7101
▁aloof	-7102
▁amend	-7103
▁antic	-7104
▁apply	-7105
▁arbit	-7106
▁argos	-7107
▁armed	-7108
▁beads	-7109
▁befal	-7110
▁begot	-7111
▁blade	-7112
▁bleed	-7113
▁bodes	-7114
▁bount	-7115
▁brass	-7116
▁brawl	-7117
▁bribe	-7118
▁broad	-7119
▁budge	-7120
▁chest	-7121
▁climb	-7122
▁coals	-7123
▁crest	-7124
▁dared	-7125
▁decay	-7126
▁doors	-7127
▁doves	-7128
▁draws	-7129
▁drows	-7130
▁eloqu	-7131
▁embra	-7132
▁error	-7133
▁exact	-7134
▁fills	-7135
▁filth	-7136
▁flame	-7137
▁foret	-7138
▁graft	-7139
▁greyh	-7140
▁hatch	-7141
▁hazel	-7142
▁hears	-7143
▁hedge	-7144
▁heigh	-7145
▁herbs	-7146
▁holid	-7147
▁imped	-7148
▁impud	-7149
▁lends	-7150
▁locks	-7151
▁loins	-7152
▁loose	-7153
▁lungs	-7154
▁madly	-7155
▁magic	-7156
▁miles	-7157
▁musty	-7158
▁noses	-7159
▁notes	-7160
▁penny	-7161
▁perem	-7162
▁plate	-7163
▁prays	-7164
▁privy	-7165
▁pupil	-7166
▁quake	-7167
▁rages	-7168
▁rebel	-7169
▁relig	-7170
▁repet	-7171
▁ripen	-7172
▁rites	-7173
▁rocks	-7174
▁safer	-7175
▁sands	-7176
▁saucy	-7177
▁scape	-7178
▁scour	-7179
▁separ	-7180
▁shift	-7181
▁shout	-7182
▁siege	-7183
▁signs	-7184
▁sinew	-7185
▁slack	-7186
▁spilt	-7187
▁split	-7188
▁staff	-7189
▁stirs	-7190
▁sugar	-7191
▁tamed	-7192
▁tents	-7193
▁thres	-7194
▁token	-7195
▁tower	-7196
▁treat	-7197
▁tried	-7198
▁truer	-7199
▁unple	-7200
▁using	-7201
▁value	-7202
▁waken	-7203
▁wheel	-7204
▁whipt	-7205
enerate	-7206
entious	-7207
fulness	-7208
herited	-7209
itories	-7210
izabeth	-7211
kenbury	-7212
picious	-7213
shining	-7214
venient	-7215
▁Attend	-7216
▁Belike	-7217
▁Calais	-7218
▁Commit	-7219
▁Cursed	-7220
▁Darest	-7221
▁Direct	-7222
▁EMILIA	-7223
▁Emilia	-7224
▁Enough	-7225
▁Forbid	-7226
▁Greece	-7227
▁Hector	-7228
▁Herald	-7229
▁Neighb	-7230
▁Renown	-7231
▁Repent	-7232
▁SURREY	-7233
▁Twenty	-7234
▁Verily	-7235
▁agreed	-7236
▁allies	-7237
▁anchor	-7238
▁appell	-7239
▁ashore	-7240
▁assemb	-7241
▁attent	-7242
▁befits	-7243
▁beseem	-7244
▁beware	-7245
▁bishop	-7246
▁bleeds	-7247
▁bought	-7248
▁braved	-7249
▁canker	-7250
▁canopy	-7251
▁caused	-7252
▁centre	-7253
▁chains	-7254
▁chival	-7255
▁coldly	-7256
▁combat	-7257
▁confer	-7258
▁contri	-7259
▁create	-7260
▁darken	-7261
▁debase	-7262
▁deeper	-7263
▁deeply	-7264
▁defect	-7265
▁denial	-7266
▁device	-7267
▁diadem	-7268
▁dragon	-7269
▁dreamt	-7270
▁dwells	-7271
▁entire	-7272
▁events	-7273
▁famish	-7274
▁female	-7275
▁fights	-7276
▁firmly	-7277
▁fitted	-7278
▁forces	-7279
▁forest	-7280
▁fouler	-7281
▁gaoler	-7282
▁gloves	-7283
▁harlot	-7284
▁higher	-7285
▁homage	-7286
▁horror	-7287
▁hunger	-7288
▁impart	-7289
▁infirm	-7290
▁issued	-7291
▁jocund	-7292
▁killed	-7293
▁latest	-7294
▁limits	-7295
▁looker	-7296
▁louder	-7297
▁madest	-7298
▁madman	-7299
▁malign	-7300
▁marble	-7301
▁mellow	-7302
▁merely	-7303
▁minded	-7304
▁mutiny	-7305
▁napkin	-7306
▁naught	-7307
▁needle	-7308
▁nobler	-7309
▁nursed	-7310
▁obtain	-7311
▁orphan	-7312
▁pedant	-7313
▁permit	-7314
▁pledge	-7315
▁plucks	-7316
▁pocket	-7317
▁pounds	-7318
▁prerog	-7319
▁profan	-7320
▁prunes	-7321
▁puppet	-7322
▁quaint	-7323
▁queens	-7324
▁ragged	-7325
▁raging	-7326
▁rebuke	-7327
▁render	-7328
▁rescue	-7329
▁resort	-7330
▁rising	-7331
▁rivers	-7332
▁sayest	-7333
▁scorns	-7334
▁shower	-7335
▁shriek	-7336
▁shrink	-7337
▁silken	-7338
▁skulls	-7339
▁sleeps	-7340
▁sleepy	-7341
▁solely	-7342
▁spices	-7343
▁starve	-7344
▁strait	-7345
▁stream	-7346
▁street	-7347
▁succor	-7348
▁sunder	-7349
▁suppli	-7350
▁sweets	-7351
▁tailor	-7352
▁thorns	-7353
▁threes	-7354
▁trades	-7355
▁tumble	-7356
▁turned	-7357
▁unborn	-7358
▁unrest	-7359
▁vassal	-7360
▁volume	-7361
▁vulgar	-7362
▁widows	-7363
▁wilful	-7364
▁winged	-7365
▁wisest	-7366
▁woeful	-7367
▁wolves	-7368
ervation	-7369
ifferent	-7370
osterous	-7371
pecially	-7372
▁Advance	-7373
▁Amongst	-7374
▁Beshrew	-7375
▁Between	-7376
▁Betwixt	-7377
▁Condemn	-7378
▁Forbear	-7379
▁Francis	-7380
▁Grandam	-7381
▁Gregory	-7382
▁Masters	-7383
▁Measure	-7384
▁Phoebus	-7385
▁achieve	-7386
▁appoint	-7387
▁assault	-7388
▁baggage	-7389
▁banquet	-7390
▁beastly	-7391
▁beating	-7392
▁beguile	-7393
▁blister	-7394
▁calumny	-7395
▁capital	-7396
▁captive	-7397
▁changes	-7398
▁closely	-7399
▁conspir	-7400
▁contrad	-7401
▁cordial	-7402
▁council	-7403
▁counted	-7404
▁cousins	-7405
▁created	-7406
▁cuckold	-7407
▁curious	-7408
▁curtain	-7409
▁dangers	-7410
▁deceive	-7411
▁degrees	-7412
▁demands	-7413
▁direful	-7414
▁disobed	-7415
▁divided	-7416
▁divines	-7417
▁divorce	-7418
▁earldom	-7419
▁exclaim	-7420
▁faction	-7421
▁faintly	-7422
▁falsely	-7423
▁fasting	-7424
▁feeding	-7425
▁follies	-7426
▁footman	-7427
▁forsake	-7428
▁gentler	-7429
▁getting	-7430
▁glories	-7431
▁happier	-7432
▁haughty	-7433
▁hideous	-7434
▁highway	-7435
▁hurried	-7436
▁infring	-7437
▁inherit	-7438
▁knowest	-7439
▁lecture	-7440
▁lightly	-7441
▁longest	-7442
▁lustful	-7443
▁matters	-7444
▁merrily	-7445
▁mockery	-7446
▁mocking	-7447
▁natures	-7448
▁notwith	-7449
▁nourish	-7450
▁pardons	-7451
▁pastime	-7452
▁pattern	-7453
▁perjury	-7454
▁picture	-7455
▁plaints	-7456
▁procure	-7457
▁profits	-7458
▁pursued	-7459
▁raiment	-7460
▁rancour	-7461
▁rascals	-7462
▁recover	-7463
▁replied	-7464
▁reproof	-7465
▁rewards	-7466
▁roundly	-7467
▁scarlet	-7468
▁scholar	-7469
▁shelter	-7470
▁showers	-7471
▁smiling	-7472
▁society	-7473
▁solicit	-7474
▁spiders	-7475
▁suffice	-7476
▁superfl	-7477
▁suppose	-7478
▁supreme	-7479
▁tainted	-7480
▁threats	-7481
▁throats	-7482
▁tonight	-7483
▁tribune	-7484
▁tribute	-7485
▁undergo	-7486
▁villany	-7487
▁warning	-7488
▁wayward	-7489
▁weighty	-7490
▁wenches	-7491
▁western	-7492
▁whistle	-7493
▁wonders	-7494
mediately	-7495
perienced	-7496
▁Antiates	-7497
▁Consider	-7498
▁Dispatch	-7499
▁Doricles	-7500
▁Evermore	-7501
▁Florizel	-7502
▁Hercules	-7503
▁Lodowick	-7504
▁Meantime	-7505
▁Overdone	-7506
▁Phaethon	-7507
▁Thoughts	-7508
▁Touching	-7509
▁Welshmen	-7510
▁achieved	-7511
▁admitted	-7512
▁affright	-7513
▁ambition	-7514
▁appeared	-7515
▁bachelor	-7516
▁backward	-7517
▁bankrupt	-7518
▁baseness	-7519
▁bootless	-7520
▁brawling	-7521
▁breaking	-7522
▁breathes	-7523
▁breeding	-7524
▁chastity	-7525
▁choleric	-7526
▁comforts	-7527
▁confines	-7528
▁consumed	-7529
▁councils	-7530
▁counsels	-7531
▁delights	-7532
▁discords	-7533
▁disorder	-7534
▁distingu	-7535
▁division	-7536
▁drunkard	-7537
▁embraced	-7538
▁entrails	-7539
▁farthest	-7540
▁festival	-7541
▁fighting	-7542
▁frighted	-7543
▁fruitful	-7544
▁function	-7545
▁governor	-7546
▁harmless	-7547
▁husbands	-7548
▁imperial	-7549
▁indirect	-7550
▁inferior	-7551
▁injuries	-7552
▁intended	-7553
▁knightly	-7554
▁ladyship	-7555
▁mariners	-7556
▁medicine	-7557
▁merciful	-7558
▁millions	-7559
▁minstrel	-7560
▁miseries	-7561
▁mounting	-7562
▁mourning	-7563
▁needless	-7564
▁nobleman	-7565
▁peaceful	-7566
▁publicly	-7567
▁puissant	-7568
▁receives	-7569
▁regiment	-7570
▁remedies	-7571
▁required	-7572
▁requires	-7573
▁resolute	-7574
▁restored	-7575
▁returned	-7576
▁scarcely	-7577
▁scolding	-7578
▁stirring	-7579
▁stooping	-7580
▁strongly	-7581
▁strumpet	-7582
▁sunshine	-7583
▁tenderly	-7584
▁terrible	-7585
▁timeless	-7586
▁trembles	-7587
▁triumphs	-7588
▁unlawful	-7589
▁vineyard	-7590
▁welcomes	-7591
▁worthily	-7592
▁Affection	-7593
▁Cleomenes	-7594
▁Elizabeth	-7595
▁NATHANIEL	-7596
▁Patrician	-7597
▁amazement	-7598
▁blessings	-7599
▁caparison	-7600
▁concluded	-7601
▁confusion	-7602
▁consorted	-7603
▁counterpo	-7604
▁cowardice	-7605
▁creatures	-7606
▁delivered	-7607
▁disguised	-7608
▁dissemble	-7609
▁elsewhere	-7610
▁extremest	-7611
▁following	-7612
▁greetings	-7613
▁impatient	-7614
▁importune	-7615
▁injurious	-7616
▁insolence	-7617
▁insulting	-7618
▁lightness	-7619
▁merriment	-7620
▁mistaking	-7621
▁necessary	-7622
▁notorious	-7623
▁penitence	-7624
▁physician	-7625
▁poisonous	-7626
▁possessed	-7627
▁posterity	-7628
▁precedent	-7629
▁preserved	-7630
▁prisoners	-7631
▁reckoning	-7632
▁repossess	-7633
▁restraint	-7634
▁solemnity	-7635
▁testimony	-7636
▁treachery	-7637
▁troublous	-7638
▁unfeigned	-7639
▁utterance	-7640
▁witnesses	-7641
▁wrangling	-7642
▁Apothecary	-7643
▁Brakenbury	-7644
▁advertised	-7645
▁altogether	-7646
▁assistance	-7647
▁cheerfully	-7648
▁commanding	-7649
▁conditions	-7650
▁difference	-7651
▁discharged	-7652
▁distressed	-7653
▁expedition	-7654
▁headstrong	-7655
▁impatience	-7656
▁impediment	-7657
▁impression	-7658
▁inconstant	-7659
▁jealousies	-7660
▁knighthood	-7661
▁lieutenant	-7662
▁peremptory	-7663
▁persuasion	-7664
▁pestilence	-7665
▁pronounced	-7666
▁repetition	-7667
▁sisterhood	-7668
▁underneath	-7669
▁witchcraft	-7670
▁Christopher	-7671
▁acknowledge	-7672
▁chamberlain	-7673
▁comfortable	-7674
▁composition	-7675
▁controversy	-7676
▁forgiveness	-7677
▁grandfather	-7678
▁inclination	-7679
▁indifferent	-7680
▁interchange	-7681
▁nightingale	-7682
▁prerogative	-7683
▁territories	-7684
▁transported	-7685
▁apprehension	-7686
▁chastisement	-7687
▁schoolmaster	-7688
▁circumstances	-7689
▁understanding	-7690
▁notwithstanding	-7691
'!	-7692
CI	-7693
My	-7694
Ty	-7695
av	-7696
co	-7697
oz	-7698
sy	-7699
We	-7700
te	-7701
wh	-7702
'--	-7703
ARL	-7704
UNT	-7705
alf	-7706
alo	-7707
ami	-7708
aus	-7709
bel	-7710
bes	-7711
can	-7712
cho	-7713
cts	-7714
din	-7715
dis	-7716
dra	-7717
dur	-7718
ech	-7719
ele	-7720
erp	-7721
erw	-7722
fly	-7723
gom	-7724
hos	-7725
hra	-7726
ias	-7727
iby	-7728
ige	-7729
iod	-7730
isc	-7731
las	-7732
leh	-7733
lex	-7734
liv	-7735
lla	-7736
mak	-7737
min	-7738
nel	-7739
net	-7740
nit	-7741
nut	-7742
oln	-7743
orc	-7744
pol	-7745
por	-7746
qua	-7747
reg	-7748
ris	-7749
sia	-7750
ton	-7751
ubs	-7752
umn	-7753
usc	-7754
uto	-7755
vir	-7756
▁BL	-7757
▁Pe	-7758
▁SA	-7759
▁Ti	-7760
▁Tr	-7761
▁au	-7762
▁cy	-7763
▁eg	-7764
▁el	-7765
▁ew	-7766
▁ib	-7767
▁la	-7768
▁na	-7769
▁ny	-7770
▁ox	-7771
CISC	-7772
Fore	-7773
Good	-7774
Hear	-7775
Soul	-7776
Tell	-7777
acks	-7778
agoz	-7779
aith	-7780
alem	-7781
alls	-7782
ange	-7783
anks	-7784
apes	-7785
arth	-7786
ashy	-7787
atin	-7788
aved	-7789
bast	-7790
bery	-7791
bled	-7792
body	-7793
bred	-7794
cued	-7795
dent	-7796
door	-7797
eria	-7798
eyed	-7799
bu	-7800
fix	-7801
pse	-7802
spo	-7803
vil	-7804
alty	-7805
fend	-7806
ffic	-7807
geal	-7808
geon	-7809
gher	-7810
gone	-7811
happ	-7812
hear	-7813
hers	-7814
hild	-7815
hoop	-7816
hyme	-7817
ican	-7818
ilty	-7819
inet	-7820
isle	-7821
itae	-7822
itan	-7823
keep	-7824
lord	-7825
lore	-7826
lorn	-7827
lous	-7828
lves	-7829
mary	-7830
mast	-7831
mind	-7832
once	-7833
oted	-7834
pery	-7835
phos	-7836
pire	-7837
ples	-7838
pted	-7839
pter	-7840
qual	-7841
reef	-7842
rian	-7843
ribe	-7844
roop	-7845
rung	-7846
sick	-7847
song	-7848
take	-7849
this	-7850
tles	-7851
tree	-7852
tsey	-7853
uity	-7854
ulte	-7855
unch	-7856
urps	-7857
utus	-7858
vill	-7859
vity	-7860
▁Bea	-7861
▁Beg	-7862
▁Cob	-7863
▁Cot	-7864
▁Die	-7865
▁Dou	-7866
▁Dre	-7867
▁Ele	-7868
▁Err	-7869
▁Eur	-7870
▁Far	-7871
▁Fer	-7872
▁Hap	-7873
▁Inf	-7874
▁Lad	-7875
▁Lud	-7876
▁Mab	-7877
▁Nat	-7878
▁Opp	-7879
▁Phi	-7880
▁Pil	-7881
▁Pit	-7882
▁Ref	-7883
▁Rus	-7884
▁Sad	-7885
▁Sub	-7886
▁Uly	-7887
▁Unb	-7888
▁Unc	-7889
▁Unw	-7890
▁Var	-7891
▁bau	-7892
▁baw	-7893
▁cas	-7894
▁ced	-7895
▁cri	-7896
▁dol	-7897
▁duc	-7898
▁dug	-7899
It	-7900
arr	-7901
azy	-7902
bon	-7903
book	-7904
dict	-7905
▁ant	-7906
▁awe	-7907
▁dun	-7908
▁esc	-7909
▁fed	-7910
▁fen	-7911
▁fut	-7912
▁gay	-7913
▁gir	-7914
▁gle	-7915
▁hab	-7916
▁hen	-7917
▁jar	-7918
▁kit	-7919
▁map	-7920
▁mor	-7921
▁mot	-7922
▁mow	-7923
▁nea	-7924
▁nov	-7925
▁oce	-7926
▁orc	-7927
▁ost	-7928
▁phe	-7929
▁pir	-7930
▁poo	-7931
▁pry	-7932
▁raw	-7933
▁rip	-7934
▁rod	-7935
▁roy	-7936
▁rub	-7937
▁sex	-7938
▁sly	-7939
▁sty	-7940
▁tum	-7941
▁utt	-7942
▁vap	-7943
▁vio	-7944
▁web	-7945
▁wra	-7946
Heart	-7947
abour	-7948
acket	-7949
ackey	-7950
agate	-7951
agems	-7952
agine	-7953
anous	-7954
arded	-7955
areth	-7956
asciv	-7957
asite	-7958
assad	-7959
ately	-7960
atics	-7961
atory	-7962
aving	-7963
bborn	-7964
bered	-7965
brain	-7966
ccess	-7967
ceipt	-7968
child	-7969
cible	-7970
doing	-7971
eases	-7972
ected	-7973
endom	-7974
ennel	-7975
ently	-7976
erely	-7977
erman	-7978
ersha	-7979
ggard	-7980
gging	-7981
greed	-7982
gress	-7983
hance	-7984
iable	-7985
icide	-7986
icing	-7987
ieldy	-7988
ifter	-7989
igeia	-7990
ilver	-7991
imois	-7992
imple	-7993
inite	-7994
iving	-7995
ivity	-7996
izard	-7997
jects	-7998
journ	-7999
abb	-8000
bri	-8001
cas	-8002
voc	-8003
cipl	-8004
empl	-8005
mony	-8006
peak	-8007
urbs	-8008
▁Cut	-8009
▁hew	-8010
▁yew	-8011
Souls	-8012
guish	-8013
lause	-8014
lings	-8015
loyal	-8016
lphur	-8017
nders	-8018
odity	-8019
oison	-8020
olour	-8021
omest	-8022
oming	-8023
ongue	-8024
onour	-8025
oting	-8026
pence	-8027
peror	-8028
piece	-8029
poses	-8030
press	-8031
prise	-8032
pture	-8033
quess	-8034
quiet	-8035
raign	-8036
reach	-8037
rings	-8038
rosby	-8039
score	-8040
stood	-8041
stool	-8042
thren	-8043
urity	-8044
using	-8045
ustle	-8046
vener	-8047
verns	-8048
weary	-8049
weigh	-8050
wench	-8051
women	-8052
▁Acqu	-8053
▁Adam	-8054
▁Base	-8055
▁Bore	-8056
▁Bret	-8057
▁Care	-8058
▁Deep	-8059
▁Dick	-8060
▁Dion	-8061
▁EARL	-8062
▁FRAN	-8063
▁Fitz	-8064
▁Fool	-8065
▁Gall	-8066
▁Glad	-8067
▁Half	-8068
▁Hard	-8069
▁Hung	-8070
▁Jule	-8071
▁Juno	-8072
▁Last	-8073
▁Leic	-8074
▁Less	-8075
▁Lift	-8076
▁Luke	-8077
▁Meet	-8078
▁Near	-8079
▁Nine	-8080
▁Pale	-8081
▁Ross	-8082
▁Seal	-8083
▁Sent	-8084
▁Sirs	-8085
▁Step	-8086
▁Stir	-8087
▁Stop	-8088
▁Suff	-8089
▁Tend	-8090
▁Told	-8091
▁Trem	-8092
▁Weep	-8093
▁Went	-8094
▁adul	-8095
▁aery	-8096
▁agre	-8097
▁aqua	-8098
▁aust	-8099
my	-8100
soe	-8101
hast	-8102
warn	-8103
▁Sel	-8104
▁egg	-8105
▁pul	-8106
asted	-8107
usual	-8108
worth	-8109
▁Carl	-8110
▁Girl	-8111
▁bait	-8112
▁bale	-8113
▁barb	-8114
▁barr	-8115
▁bash	-8116
▁bate	-8117
▁bats	-8118
▁beho	-8119
▁bide	-8120
▁bier	-8121
▁bind	-8122
▁bone	-8123
▁bulk	-8124
▁calf	-8125
▁caus	-8126
▁cele	-8127
▁cert	-8128
▁chid	-8129
▁cony	-8130
▁crad	-8131
▁crut	-8132
▁cuff	-8133
▁curs	-8134
▁dial	-8135
▁dimm	-8136
▁doit	-8137
▁emul	-8138
▁exha	-8139
▁eyeb	-8140
▁fate	-8141
▁fees	-8142
▁file	-8143
▁flag	-8144
▁fowl	-8145
▁gear	-8146
▁gild	-8147
▁gilt	-8148
▁gnaw	-8149
▁grub	-8150
▁heal	-8151
▁hilt	-8152
▁hint	-8153
▁hook	-8154
▁howl	-8155
▁hush	-8156
▁ibat	-8157
▁jump	-8158
▁keen	-8159
▁kern	-8160
▁lain	-8161
▁lame	-8162
▁lamp	-8163
▁lane	-8164
▁lass	-8165
▁lazy	-8166
▁limb	-8167
▁lurk	-8168
▁mart	-8169
▁mass	-8170
▁mete	-8171
▁ming	-8172
▁muse	-8173
▁mute	-8174
▁nuns	-8175
▁pals	-8176
▁park	-8177
▁peck	-8178
▁pens	-8179
▁pith	-8180
▁poll	-8181
▁raze	-8182
▁resp	-8183
▁road	-8184
▁rood	-8185
▁rope	-8186
▁scra	-8187
▁skin	-8188
▁soar	-8189
▁stew	-8190
▁subm	-8191
▁sues	-8192
▁suns	-8193
▁surm	-8194
▁surn	-8195
▁swim	-8196
▁symp	-8197
▁thra	-8198
▁tire	-8199
▁Staf	-8200
▁ribb	-8201
▁toss	-8202
▁toys	-8203
▁trod	-8204
▁unaw	-8205
▁unlo	-8206
▁unsc	-8207
▁vehe	-8208
▁vest	-8209
▁ware	-8210
▁wary	-8211
▁yard	-8212
Tybalt	-8213
acious	-8214
antial	-8215
arling	-8216
atiate	-8217
attery	-8218
bering	-8219
boding	-8220
durate	-8221
echery	-8222
eliver	-8223
ellows	-8224
ension	-8225
enting	-8226
esters	-8227
eterat	-8228
favour	-8229
gomery	-8230
haniel	-8231
horson	-8232
iction	-8233
ierced	-8234
ighton	-8235
inance	-8236
inctly	-8237
iously	-8238
ixture	-8239
lehill	-8240
livion	-8241
makers	-8242
mbling	-8243
minded	-8244
oubted	-8245
oughby	-8246
overed	-8247
people	-8248
pherds	-8249
randon	-8250
reathe	-8251
rehend	-8252
retion	-8253
ristol	-8254
rolled	-8255
ruised	-8256
scaped	-8257
school	-8258
scribe	-8259
shapen	-8260
ternal	-8261
tinent	-8262
usalem	-8263
usters	-8264
vering	-8265
withal	-8266
▁Abbot	-8267
▁Afric	-8268
▁Alone	-8269
▁April	-8270
▁Awake	-8271
▁BLUNT	-8272
▁Black	-8273
▁Blind	-8274
▁Blood	-8275
▁Blush	-8276
▁Brave	-8277
▁Cheer	-8278
▁Child	-8279
▁Const	-8280
▁Dukes	-8281
▁Envir	-8282
▁Exton	-8283
▁Found	-8284
▁Given	-8285
▁Guild	-8286
▁Helen	-8287
▁Irish	-8288
▁James	-8289
▁Knows	-8290
▁LORDS	-8291
▁Latin	-8292
▁Lives	-8293
▁Loved	-8294
▁Mount	-8295
▁Night	-8296
▁Place	-8297
▁Plain	-8298
▁Pluck	-8299
▁Proud	-8300
▁Quick	-8301
▁Ragoz	-8302
▁Revol	-8303
▁SALIS	-8304
▁Sland	-8305
▁Sleep	-8306
▁Small	-8307
▁Spoke	-8308
▁Susan	-8309
▁Takes	-8310
▁Tiber	-8311
▁Trans	-8312
▁Turks	-8313
▁White	-8314
▁aches	-8315
▁added	-8316
▁adder	-8317
▁adorn	-8318
▁agony	-8319
▁amity	-8320
▁annoy	-8321
▁asked	-8322
▁atone	-8323
▁awful	-8324
▁bandy	-8325
▁basil	-8326
▁bawdy	-8327
▁bench	-8328
▁bills	-8329
▁bites	-8330
▁blasp	-8331
▁blots	-8332
▁bonds	-8333
▁bonny	-8334
▁bragg	-8335
▁brine	-8336
▁built	-8337
▁chaff	-8338
▁chain	-8339
▁choke	-8340
▁chron	-8341
▁cleft	-8342
▁coats	-8343
▁cropp	-8344
▁curbs	-8345
▁daint	-8346
▁depth	-8347
▁dooms	-8348
▁dropp	-8349
▁edict	-8350
▁effem	-8351
▁endea	-8352
▁endow	-8353
▁ensue	-8354
▁estab	-8355
▁fails	-8356
▁fence	-8357
▁fifty	-8358
▁flour	-8359
▁forms	-8360
▁gamut	-8361
▁giant	-8362
▁girls	-8363
▁glove	-8364
▁goest	-8365
▁gorge	-8366
▁greed	-8367
▁grove	-8368
▁hardy	-8369
▁harms	-8370
▁haven	-8371
▁helms	-8372
▁herds	-8373
▁hills	-8374
▁hoped	-8375
▁impre	-8376
▁incur	-8377
▁influ	-8378
▁knell	-8379
▁lacks	-8380
▁liars	-8381
▁linen	-8382
▁longs	-8383
▁manly	-8384
▁masqu	-8385
▁moans	-8386
▁needy	-8387
▁niece	-8388
▁ninet	-8389
▁nymph	-8390
▁outst	-8391
▁parch	-8392
▁parle	-8393
▁pikes	-8394
▁piled	-8395
▁pines	-8396
▁plays	-8397
▁plent	-8398
▁ports	-8399
▁posts	-8400
▁pratt	-8401
▁quest	-8402
▁rates	-8403
▁rheum	-8404
▁rings	-8405
▁sails	-8406
▁scare	-8407
▁scars	-8408
▁senis	-8409
▁shine	-8410
▁shock	-8411
▁shunn	-8412
▁slide	-8413
▁smelt	-8414
▁sober	-8415
▁songs	-8416
▁space	-8417
▁spear	-8418
▁spell	-8419
▁spurn	-8420
▁stage	-8421
▁start	-8422
▁stole	-8423
▁strat	-8424
▁stray	-8425
▁strip	-8426
▁stuck	-8427
▁suret	-8428
▁surly	-8429
▁swine	-8430
▁tales	-8431
▁threw	-8432
▁tides	-8433
▁tunes	-8434
▁unacc	-8435
▁unfit	-8436
▁unity	-8437
▁unman	-8438
▁unpre	-8439
▁upper	-8440
▁usage	-8441
▁verge	-8442
▁vices	-8443
▁visor	-8444
▁wagon	-8445
▁walks	-8446
▁whate	-8447
aration	-8448
bastian	-8449
cession	-8450
erwhelm	-8451
forward	-8452
igation	-8453
liction	-8454
minster	-8455
reefold	-8456
resseth	-8457
seeming	-8458
▁Amazon	-8459
▁Assist	-8460
▁Awaked	-8461
▁Banish	-8462
▁Become	-8463
▁Castle	-8464
▁Church	-8465
▁Cobham	-8466
▁Crosby	-8467
▁Europe	-8468
▁Except	-8469
▁Fellow	-8470
▁Forget	-8471
▁Hallow	-8472
▁Honest	-8473
▁Julius	-8474
▁Lammas	-8475
▁Little	-8476
▁Ludlow	-8477
▁Merely	-8478
▁Philip	-8479
▁Plashy	-8480
▁Player	-8481
▁Prodig	-8482
▁Redeem	-8483
▁Repair	-8484
▁Rescue	-8485
▁Russia	-8486
▁Sorrow	-8487
▁Throng	-8488
▁Tongue	-8489
▁Valent	-8490
▁Whence	-8491
▁Withal	-8492
▁Yonder	-8493
▁abuses	-8494
▁acting	-8495
▁adulte	-8496
▁ambush	-8497
▁argosy	-8498
▁ascend	-8499
▁attach	-8500
▁avouch	-8501
▁bauble	-8502
▁became	-8503
▁beetle	-8504
▁bewray	-8505
▁births	-8506
▁biting	-8507
▁blasts	-8508
▁blocks	-8509
▁bonnet	-8510
▁brazen	-8511
▁broils	-8512
▁buckle	-8513
▁burial	-8514
▁busied	-8515
▁bustle	-8516
▁candle	-8517
▁cannib	-8518
▁chafed	-8519
▁charms	-8520
▁cheers	-8521
▁chides	-8522
▁clergy	-8523
▁clothe	-8524
▁coffin	-8525
▁colder	-8526
▁commit	-8527
▁conver	-8528
▁courts	-8529
▁crimes	-8530
▁crutch	-8531
▁dainty	-8532
▁dances	-8533
▁daring	-8534
▁darkly	-8535
▁decree	-8536
▁digest	-8537
▁dishes	-8538
▁divers	-8539
▁divide	-8540
▁doings	-8541
▁drinks	-8542
▁driven	-8543
▁drowsy	-8544
▁ducats	-8545
▁eating	-8546
▁elders	-8547
▁encomp	-8548
▁enjoin	-8549
▁enjoys	-8550
▁enters	-8551
▁execut	-8552
▁expost	-8553
▁fabric	-8554
▁fathom	-8555
▁feeble	-8556
▁fester	-8557
▁fickle	-8558
▁fiends	-8559
▁filthy	-8560
▁fitter	-8561
▁flayed	-8562
▁fliers	-8563
▁flinty	-8564
▁floods	-8565
▁fourth	-8566
▁fruits	-8567
▁future	-8568
▁garlic	-8569
▁gentry	-8570
▁ginger	-8571
▁gotten	-8572
▁gratis	-8573
▁greets	-8574
▁handle	-8575
▁happen	-8576
▁harder	-8577
▁hearth	-8578
▁hounds	-8579
▁hourly	-8580
▁humane	-8581
▁impose	-8582
▁infamy	-8583
▁issues	-8584
▁jewels	-8585
▁justly	-8586
▁kennel	-8587
▁kitche	-8588
▁leader	-8589
▁lesson	-8590
▁levied	-8591
▁lineal	-8592
▁lively	-8593
▁mantle	-8594
▁mathem	-8595
▁melted	-8596
▁mirror	-8597
▁morsel	-8598
▁nearer	-8599
▁nerves	-8600
▁nettle	-8601
▁ordain	-8602
▁parcel	-8603
▁passes	-8604
▁penury	-8605
▁period	-8606
▁placed	-8607
▁planet	-8608
▁porter	-8609
▁potion	-8610
▁powder	-8611
▁presum	-8612
▁pricks	-8613
▁proofs	-8614
▁prover	-8615
▁purged	-8616
▁purses	-8617
▁quarre	-8618
▁rabble	-8619
▁rarest	-8620
▁refuge	-8621
▁region	-8622
▁rehear	-8623
▁relish	-8624
▁remiss	-8625
▁remote	-8626
▁repaid	-8627
▁revell	-8628
▁revers	-8629
▁revive	-8630
▁rigour	-8631
▁rogues	-8632
▁rumour	-8633
▁saddle	-8634
▁salute	-8635
▁scouts	-8636
▁seemed	-8637
▁shamed	-8638
▁sheets	-8639
▁shores	-8640
▁shouts	-8641
▁sickly	-8642
▁smiled	-8643
▁soften	-8644
▁softly	-8645
▁solace	-8646
▁spoils	-8647
▁starts	-8648
▁strain	-8649
▁strang	-8650
▁streak	-8651
▁stride	-8652
▁string	-8653
▁subdue	-8654
▁suborn	-8655
▁summon	-8656
▁supple	-8657
▁survey	-8658
▁talked	-8659
▁tatter	-8660
▁tellus	-8661
▁thorny	-8662
▁thrift	-8663
▁throng	-8664
▁tinker	-8665
▁titles	-8666
▁traged	-8667
▁tragic	-8668
▁treaty	-8669
▁treble	-8670
▁trudge	-8671
▁tumult	-8672
▁turtle	-8673
▁uneven	-8674
▁unwill	-8675
▁urging	-8676
▁usurer	-8677
▁vanish	-8678
▁verity	-8679
▁vigour	-8680
▁violet	-8681
▁waning	-8682
▁wasted	-8683
▁welkin	-8684
▁wheels	-8685
▁wheres	-8686
▁wildly	-8687
▁wishes	-8688
▁wooers	-8689
▁yellow	-8690
asonable	-8691
changing	-8692
cription	-8693
peration	-8694
ratitude	-8695
▁Bearing	-8696
▁Brandon	-8697
▁Breathe	-8698
▁Bristol	-8699
▁Brought	-8700
▁Delphos	-8701
▁Destroy	-8702
▁Dighton	-8703
▁Enforce	-8704
▁Forgive	-8705
▁Forrest	-8706
▁Happily	-8707
▁Heavens	-8708
▁Hostess	-8709
▁Imagine	-8710
▁Mariner	-8711
▁Meaning	-8712
▁Mercury	-8713
▁Princes	-8714
▁Seeking	-8715
▁Setting	-8716
▁Showing	-8717
▁Silence	-8718
▁Tarquin	-8719
▁Thither	-8720
▁Ulysses	-8721
▁Valeria	-8722
▁Witness	-8723
▁Wouldst	-8724
▁ability	-8725
▁amended	-8726
▁anguish	-8727
▁arrival	-8728
▁article	-8729
▁ballads	-8730
▁bargain	-8731
▁bashful	-8732
▁battery	-8733
▁beggary	-8734
▁begging	-8735
▁belongs	-8736
▁beshrew	-8737
▁besiege	-8738
▁bewitch	-8739
▁bondage	-8740
▁breaths	-8741
▁briefly	-8742
▁brittle	-8743
▁buzzard	-8744
▁calling	-8745
▁capable	-8746
▁carrion	-8747
▁clouded	-8748
▁coffers	-8749
▁compell	-8750
▁consort	-8751
▁consuls	-8752
▁consume	-8753
▁control	-8754
▁convent	-8755
▁convers	-8756
▁corners	-8757
▁courses	-8758
▁crowned	-8759
▁cushion	-8760
▁dastard	-8761
▁dealing	-8762
▁decrees	-8763
▁derived	-8764
▁deserts	-8765
▁desired	-8766
▁discipl	-8767
▁discred	-8768
▁dislike	-8769
▁distrib	-8770
▁doleful	-8771
▁doublet	-8772
▁doubted	-8773
▁duteous	-8774
▁effects	-8775
▁engross	-8776
▁evident	-8777
▁fairies	-8778
▁fitting	-8779
▁foaming	-8780
▁fooling	-8781
▁footing	-8782
▁forerun	-8783
▁forlorn	-8784
▁forsook	-8785
▁fresher	-8786
▁gainsay	-8787
▁glister	-8788
▁goodman	-8789
▁gossips	-8790
▁greatly	-8791
▁hatches	-8792
▁heavily	-8793
▁helmets	-8794
▁helping	-8795
▁highest	-8796
▁hostess	-8797
▁incense	-8798
▁infancy	-8799
▁inhabit	-8800
▁injured	-8801
▁instead	-8802
▁intends	-8803
▁justify	-8804
▁keeping	-8805
▁kissing	-8806
▁knavery	-8807
▁longing	-8808
▁lurking	-8809
▁mangled	-8810
▁mankind	-8811
▁message	-8812
▁mistook	-8813
▁nearest	-8814
▁nightly	-8815
▁ominous	-8816
▁opening	-8817
▁opposed	-8818
▁orchard	-8819
▁orderly	-8820
▁orphans	-8821
▁painful	-8822
▁parlous	-8823
▁partake	-8824
▁partial	-8825
▁peasant	-8826
▁perused	-8827
▁plotted	-8828
▁plucked	-8829
▁poorest	-8830
▁portion	-8831
▁praised	-8832
▁precise	-8833
▁presses	-8834
▁prodigy	-8835
▁produce	-8836
▁proffer	-8837
▁pursues	-8838
▁qualify	-8839
▁quality	-8840
▁quicken	-8841
▁receipt	-8842
▁recount	-8843
▁regreet	-8844
▁release	-8845
▁relieve	-8846
▁requite	-8847
▁resteth	-8848
▁returns	-8849
▁rightly	-8850
▁robbers	-8851
▁royally	-8852
▁sailors	-8853
▁scourge	-8854
▁seeking	-8855
▁seemeth	-8856
▁sending	-8857
▁serving	-8858
▁session	-8859
▁shorten	-8860
▁slender	-8861
▁smoking	-8862
▁soonest	-8863
▁spotted	-8864
▁sprites	-8865
▁stabbed	-8866
▁stripes	-8867
▁studied	-8868
▁studies	-8869
▁subdued	-8870
▁suburbs	-8871
▁sulphur	-8872
▁summers	-8873
▁surname	-8874
▁sweeten	-8875
▁swifter	-8876
▁swiftly	-8877
▁teeming	-8878
▁tending	-8879
▁thirsty	-8880
▁torches	-8881
▁traffic	-8882
▁turning	-8883
▁univers	-8884
▁unusual	-8885
▁violate	-8886
▁waiting	-8887
▁wealthy	-8888
▁wearing	-8889
▁whipped	-8890
▁winding	-8891
▁wishing	-8892
ascivious	-8893
beseeming	-8894
pretation	-8895
▁Abhorson	-8896
▁Accursed	-8897
▁Acquaint	-8898
▁Carlisle	-8899
▁Chertsey	-8900
▁Children	-8901
▁FRANCISC	-8902
▁Persuade	-8903
▁Ragozine	-8904
▁Renowned	-8905
▁Senators	-8906
▁Stafford	-8907
▁Standing	-8908
▁Thinking	-8909
▁Together	-8910
▁Yourself	-8911
▁abundant	-8912
▁affected	-8913
▁ambassad	-8914
▁applause	-8915
▁argument	-8916
▁articles	-8917
▁aspiring	-8918
▁assembly	-8919
▁bastardy	-8920
▁beauties	-8921
▁beggarly	-8922
▁beguiled	-8923
▁brethren	-8924
▁bringing	-8925
▁butchers	-8926
▁censured	-8927
▁ceremony	-8928
▁champion	-8929
▁charters	-8930
▁cheerful	-8931
▁chivalry	-8932
▁complete	-8933
▁confined	-8934
▁creation	-8935
▁creeping	-8936
▁criminal	-8937
▁crutches	-8938
▁daylight	-8939
▁deceased	-8940
▁delivery	-8941
▁detested	-8942
▁differen	-8943
▁directly	-8944
▁discreet	-8945
▁diseases	-8946
▁disguise	-8947
▁disloyal	-8948
▁disperse	-8949
▁disposed	-8950
▁drooping	-8951
▁drowning	-8952
▁dwelling	-8953
▁election	-8954
▁elements	-8955
▁embraces	-8956
▁enfranch	-8957
▁entering	-8958
▁exclaims	-8959
▁external	-8960
▁factious	-8961
▁fashions	-8962
▁fearless	-8963
▁feasting	-8964
▁foretell	-8965
▁freshest	-8966
▁fretting	-8967
▁frowning	-8968
▁handsome	-8969
▁homicide	-8970
▁hopeless	-8971
▁horrible	-8972
▁infinite	-8973
▁infringe	-8974
▁instance	-8975
▁interest	-8976
▁jointure	-8977
▁laboured	-8978
▁laughter	-8979
▁leanness	-8980
▁manacles	-8981
▁marquess	-8982
▁marrying	-8983
▁mightily	-8984
▁molehill	-8985
▁mutinies	-8986
▁nineteen	-8987
▁obdurate	-8988
▁oblivion	-8989
▁obscured	-8990
▁ordering	-8991
▁painting	-8992
▁paradise	-8993
▁parasite	-8994
▁pleaseth	-8995
▁posterns	-8996
▁pregnant	-8997
▁prevails	-8998
▁prodigal	-8999
▁profound	-9000
▁purposes	-9001
▁reckless	-9002
▁relation	-9003
▁reprieve	-9004
▁requital	-9005
▁reserved	-9006
▁resisted	-9007
▁respects	-9008
▁restrain	-9009
▁rosemary	-9010
▁security	-9011
▁severity	-9012
▁slanders	-9013
▁somebody	-9014
▁speeches	-9015
▁speedily	-9016
▁stealing	-9017
▁steterat	-9018
▁stinking	-9019
▁stubborn	-9020
▁stumbled	-9021
▁swearing	-9022
▁thorough	-9023
▁timorous	-9024
▁torments	-9025
▁toucheth	-9026
▁trencher	-9027
▁trenches	-9028
▁tumbling	-9029
▁unawares	-9030
▁ungentle	-9031
▁unjustly	-9032
▁unrevere	-9033
▁unthrift	-9034
▁vexation	-9035
▁visiting	-9036
▁warrants	-9037
▁watchful	-9038
▁womanish	-9039
▁worships	-9040
▁worthier	-9041
estershire	-9042
▁Condition	-9043
▁Fitzwater	-9044
▁Forthwith	-9045
▁Hallowmas	-9046
▁Jerusalem	-9047
▁Nathaniel	-9048
▁Perchance	-9049
▁Persuades	-9050
▁SALISBURY	-9051
▁Sebastian	-9052
▁abundance	-9053
▁accompany	-9054
▁agreement	-9055
▁ancestors	-9056
▁appellant	-9057
▁arguments	-9058
▁attorneys	-9059
▁beautiful	-9060
▁beginning	-9061
▁butterfly	-9062
▁certainly	-9063
▁clamorous	-9064
▁commodity	-9065
▁complices	-9066
▁consented	-9067
▁conserves	-9068
▁continued	-9069
▁customary	-9070
▁deformity	-9071
▁diligence	-9072
▁discovery	-9073
▁distemper	-9074
▁doubtless	-9075
▁eloquence	-9076
▁emulation	-9077
▁encourage	-9078
▁entreated	-9079
▁expressly	-9080
▁fantastic	-9081
▁fortnight	-9082
▁fortunate	-9083
▁heaviness	-9084
▁incapable	-9085
▁infirmity	-9086
▁innocency	-9087
▁innocents	-9088
▁insinuate	-9089
▁intercept	-9090
▁invention	-9091
▁lengthens	-9092
▁liberties	-9093
▁malicious	-9094
▁malignant	-9095
▁minstrels	-9096
▁momentary	-9097
▁moveables	-9098
▁murdering	-9099
▁obsequies	-9100
▁offenders	-9101
▁ordinance	-9102
▁overheard	-9103
▁overthrow	-9104
▁patiently	-9105
▁perchance	-9106
▁persuaded	-9107
▁petitions	-9108
▁pleasures	-9109
▁privately	-9110
▁qualities	-9111
▁residence	-9112
▁sacrifice	-9113
▁separated	-9114
▁shameless	-9115
▁shepherds	-9116
▁signories	-9117
▁sparkling	-9118
▁spectacle	-9119
▁strangely	-9120
▁subscribe	-9121
▁suppliant	-9122
▁surprised	-9123
▁temperate	-9124
▁threefold	-9125
▁threshold	-9126
▁throughly	-9127
▁transport	-9128
▁unavoided	-9129
▁uncertain	-9130
▁unluckily	-9131
▁villanous	-9132
▁whereupon	-9133
▁wondering	-9134
▁worthiest	-9135
▁Englishman	-9136
▁Montgomery	-9137
▁Pursuivant	-9138
▁Willoughby	-9139
▁accomplish	-9140
▁adulteress	-9141
▁affliction	-9142
▁afterwards	-9143
▁alteration	-9144
▁apothecary	-9145
▁approaches	-9146
▁changeling	-9147
▁charitable	-9148
▁companions	-9149
▁complaints	-9150
▁conspiracy	-9151
▁countryman	-9152
▁degenerate	-9153
▁detestable	-9154
▁discretion	-9155
▁disinherit	-9156
▁displeased	-9157
▁distinctly	-9158
▁effeminate	-9159
▁enterprise	-9160
▁especially	-9161
▁favourable	-9162
▁forefather	-9163
▁imposition	-9164
▁ingrateful	-9165
▁inveterate	-9166
▁lineaments	-9167
▁magistrate	-9168
▁maidenhead	-9169
▁manifested	-9170
▁meditation	-9171
▁physicians	-9172
▁proceeding	-9173
▁profession	-9174
▁prophecies	-9175
▁punishment	-9176
▁reasonable	-9177
▁reconciled	-9178
▁remembered	-9179
▁spectators	-9180
▁speechless	-9181
▁stratagems	-9182
▁strengthen	-9183
▁submission	-9184
▁temperance	-9185
▁tongueless	-9186
▁unaccustom	-9187
▁unpleasing	-9188
▁unprovided	-9189
▁victorious	-9190
▁worshipful	-9191
▁wrongfully	-9192
▁Christendom	-9193
▁Westminster	-9194
▁accusations	-9195
▁advancement	-9196
▁authorities	-9197
▁commandment	-9198
▁complexions	-9199
▁confederate	-9200
▁considering	-9201
▁countermand	-9202
▁deliverance	-9203
▁desperately	-9204
▁dissembling	-9205
▁distinguish	-9206
▁enforcement	-9207
▁everlasting	-9208
▁fantastical	-9209
▁fornication	-9210
▁immediately	-9211
▁inheritance	-9212
▁mathematics	-9213
▁necessities	-9214
▁preparation	-9215
▁resemblance	-9216
▁yesternight	-9217
▁acquaintance	-9218
▁disinherited	-9219
▁embracements	-9220
▁instructions	-9221
▁intercession	-9222
▁lamentations	-9223
▁peradventure	-9224
▁preposterous	-9225
▁wretchedness	-9226
An	-9227
LL	-9228
How	-9229
Rem	-9230
Sic	-9231
VEL	-9232
Yea	-9233
chb	-9234
dex	-9235
eaf	-9236
emp	-9237
fig	-9238
hic	-9239
hod	-9240
how	-9241
ics	-9242
ids	-9243
igs	-9244
imy	-9245
lix	-9246
ogy	-9247
omy	-9248
onz	-9249
pit	-9250
rip	-9251
uel	-9252
uft	-9253
vex	-9254
zes	-9255
▁--	-9256
▁CH	-9257
▁Di	-9258
▁Es	-9259
AUGH	-9260
ITUS	-9261
OVEL	-9262
Stay	-9263
Than	-9264
Thus	-9265
anda	-9266
auph	-9267
avel	-9268
beat	-9269
bion	-9270
bout	-9271
boys	-9272
butt	-9273
comb	-9274
cote	-9275
crow	-9276
disp	-9277
dyed	-9278
edic	-9279
eing	-9280
erry	-9281
erth	-9282
fast	-9283
flow	-9284
fond	-9285
gars	-9286
gger	-9287
hank	-9288
heth	-9289
ibya	-9290
ifle	-9291
imer	-9292
isit	-9293
izes	-9294
lant	-9295
lars	-9296
lymp	-9297
merc	-9298
much	-9299
ii	-9300
EAS	-9301
add	-9302
eys	-9303
haw	-9304
ifs	-9305
tri	-9306
why	-9307
▁Bu	-9308
▁Sk	-9309
aned	-9310
atal	-9311
ists	-9312
itic	-9313
lies	-9314
nant	-9315
nard	-9316
nity	-9317
opsa	-9318
orks	-9319
orts	-9320
pocr	-9321
pper	-9322
quer	-9323
ques	-9324
ride	-9325
rine	-9326
rius	-9327
shot	-9328
tern	-9329
thou	-9330
tico	-9331
tino	-9332
viol	-9333
west	-9334
wind	-9335
▁ALL	-9336
▁Arg	-9337
▁Ask	-9338
▁Aut	-9339
▁Bar	-9340
▁Day	-9341
▁Dra	-9342
▁Dry	-9343
▁Fam	-9344
▁Gro	-9345
▁Imm	-9346
▁Ing	-9347
▁Inj	-9348
▁Joy	-9349
▁Lim	-9350
▁Mir	-9351
▁Nea	-9352
▁Sea	-9353
▁Thi	-9354
▁alt	-9355
▁cel	-9356
▁coc	-9357
▁cod	-9358
▁coy	-9359
▁fay	-9360
▁fel	-9361
▁fis	-9362
▁gas	-9363
▁gun	-9364
▁ker	-9365
▁lic	-9366
▁mam	-9367
▁orb	-9368
▁rar	-9369
▁rav	-9370
▁sce	-9371
▁sew	-9372
▁shy	-9373
▁sla	-9374
▁tot	-9375
EASUR	-9376
Faith	-9377
affod	-9378
alian	-9379
amill	-9380
andon	-9381
annib	-9382
arell	-9383
avius	-9384
brary	-9385
cipal	-9386
creat	-9387
cures	-9388
death	-9389
domin	-9390
doubt	-9391
flies	-9392
goose	-9393
hargy	-9394
heart	-9395
hrase	-9396
idels	-9397
ideth	-9398
idity	-9399
cre	-9400
ora	-9401
▁cu	-9402
ERKE	-9403
bary	-9404
dish	-9405
eath	-9406
exor	-9407
init	-9408
live	-9409
rons	-9410
stit	-9411
▁Ens	-9412
▁Led	-9413
▁Sum	-9414
▁Wot	-9415
▁bug	-9416
▁lit	-9417
hampt	-9418
heads	-9419
iency	-9420
igate	-9421
igree	-9422
illyv	-9423
inest	-9424
inish	-9425
inkle	-9426
inter	-9427
isson	-9428
isted	-9429
itary	-9430
mercy	-9431
metic	-9432
ology	-9433
onday	-9434
ooing	-9435
orant	-9436
orged	-9437
orpor	-9438
otche	-9439
oused	-9440
pared	-9441
ppers	-9442
quent	-9443
quish	-9444
rates	-9445
regia	-9446
roses	-9447
stain	-9448
swoln	-9449
uance	-9450
uming	-9451
uscad	-9452
ushed	-9453
utish	-9454
ville	-9455
wness	-9456
▁Abra	-9457
▁Alex	-9458
▁Bare	-9459
▁CHRI	-9460
▁Chan	-9461
▁Cuts	-9462
▁Dece	-9463
▁Deny	-9464
▁Deuc	-9465
▁Dogs	-9466
▁Done	-9467
▁Drop	-9468
▁Fine	-9469
▁Fors	-9470
▁Gonz	-9471
▁Heir	-9472
▁Hour	-9473
▁Howe	-9474
▁Inqu	-9475
▁Inst	-9476
▁Maid	-9477
▁Mort	-9478
▁Need	-9479
▁Nort	-9480
▁Note	-9481
▁Pass	-9482
▁Past	-9483
▁Safe	-9484
▁Sher	-9485
▁Sout	-9486
▁Tick	-9487
▁Wipe	-9488
▁Wish	-9489
▁Worc	-9490
▁ague	-9491
▁bars	-9492
▁beam	-9493
▁bede	-9494
▁bias	-9495
▁bled	-9496
▁bout	-9497
▁buds	-9498
▁carc	-9499
Lo	-9500
No	-9501
su	-9502
xy	-9503
HEY	-9504
hew	-9505
oro	-9506
rid	-9507
you	-9508
▁Fe	-9509
aths	-9510
athy	-9511
etry	-9512
igen	-9513
oise	-9514
omed	-9515
phew	-9516
stal	-9517
wood	-9518
▁Fan	-9519
▁Hoo	-9520
▁Man	-9521
▁Tor	-9522
▁Unf	-9523
▁aed	-9524
▁hal	-9525
▁inh	-9526
▁jay	-9527
▁maw	-9528
iless	-9529
▁CARD	-9530
▁Sith	-9531
▁acre	-9532
▁clog	-9533
▁clos	-9534
▁cloy	-9535
▁coil	-9536
▁conn	-9537
▁copy	-9538
▁dall	-9539
▁deem	-9540
▁demi	-9541
▁dews	-9542
▁digg	-9543
▁dump	-9544
▁eggs	-9545
▁enge	-9546
▁epit	-9547
▁ewes	-9548
▁foem	-9549
▁fork	-9550
▁fuel	-9551
▁fume	-9552
▁fust	-9553
▁gamb	-9554
▁glit	-9555
▁gore	-9556
▁grud	-9557
▁hack	-9558
▁harp	-9559
▁hewn	-9560
▁indu	-9561
▁itch	-9562
▁larg	-9563
▁lime	-9564
▁lure	-9565
▁magn	-9566
▁maim	-9567
▁malm	-9568
▁meek	-9569
▁navy	-9570
▁nost	-9571
▁noth	-9572
▁nurs	-9573
▁pies	-9574
▁pipe	-9575
▁pond	-9576
▁pout	-9577
▁ruff	-9578
▁rung	-9579
▁sadd	-9580
▁sout	-9581
▁swan	-9582
▁thaw	-9583
▁toes	-9584
▁tore	-9585
▁tuft	-9586
▁unex	-9587
▁unsw	-9588
▁warp	-9589
▁wive	-9590
Charge	-9591
EASURE	-9592
abouts	-9593
alance	-9594
anched	-9595
angled	-9596
anting	-9597
arting	-9598
ateful	-9599
nz	-9600
ux	-9601
▁:	-9602
igm	-9603
inc	-9604
oan	-9605
ody	-9606
pan	-9607
war	-9608
▁Sl	-9609
▁te	-9610
Alas	-9611
cked	-9612
gent	-9613
heir	-9614
imon	-9615
nock	-9616
nzie	-9617
rave	-9618
recy	-9619
test	-9620
yers	-9621
▁Ped	-9622
▁aus	-9623
▁pru	-9624
▁rat	-9625
Bless	-9626
ading	-9627
anied	-9628
asury	-9629
beard	-9630
begot	-9631
cting	-9632
hoods	-9633
maids	-9634
orner	-9635
otpan	-9636
▁Held	-9637
▁Kill	-9638
▁ally	-9639
▁bolt	-9640
▁disb	-9641
▁gest	-9642
▁hiss	-9643
▁sums	-9644
▁triv	-9645
▁twos	-9646
Thanks	-9647
active	-9648
atrice	-9649
attock	-9650
auphin	-9651
avoury	-9652
aynard	-9653
corner	-9654
dinand	-9655
empore	-9656
erbear	-9657
erness	-9658
erpast	-9659
erween	-9660
footed	-9661
gealed	-9662
gnable	-9663
hastly	-9664
hating	-9665
hearts	-9666
honour	-9667
icanor	-9668
iddler	-9669
inence	-9670
judged	-9671
ledged	-9672
mitted	-9673
olycus	-9674
ortive	-9675
ounsel	-9676
ourest	-9677
plight	-9678
queath	-9679
remacy	-9680
server	-9681
shaped	-9682
silver	-9683
simple	-9684
spoken	-9685
thread	-9686
thwack	-9687
thwart	-9688
ticoat	-9689
uities	-9690
ulling	-9691
valued	-9692
venged	-9693
vocate	-9694
volous	-9695
weighs	-9696
winged	-9697
▁Archb	-9698
▁BERKE	-9699
Ver	-9700
azz	-9701
fes	-9702
few	-9703
irp	-9704
iry	-9705
lay	-9706
rob	-9707
sec	-9708
▁Hu	-9709
▁Wa	-9710
harm	-9711
itud	-9712
late	-9713
ldst	-9714
oder	-9715
utor	-9716
▁Cra	-9717
▁Roy	-9718
▁aut	-9719
▁bem	-9720
▁ham	-9721
▁hay	-9722
▁ine	-9723
eries	-9724
isons	-9725
otent	-9726
retty	-9727
▁Hugh	-9728
▁Laid	-9729
▁Spur	-9730
▁Sugg	-9731
▁broo	-9732
▁cape	-9733
▁curb	-9734
▁dugs	-9735
▁gees	-9736
▁meas	-9737
▁reek	-9738
Verily	-9739
therea	-9740
▁Brief	-9741
▁Chide	-9742
▁Cotus	-9743
▁Count	-9744
▁Crown	-9745
▁Drawn	-9746
▁Earth	-9747
▁Force	-9748
▁Greek	-9749
▁Haply	-9750
▁Holla	-9751
▁House	-9752
▁Inter	-9753
▁Jacks	-9754
▁Judas	-9755
▁Kates	-9756
▁LOVEL	-9757
▁Laugh	-9758
▁Libya	-9759
▁Light	-9760
▁Mopsa	-9761
▁Olymp	-9762
▁Plays	-9763
▁Roger	-9764
▁Shake	-9765
▁Spare	-9766
▁Stabb	-9767
▁Stays	-9768
▁Stirr	-9769
▁TITUS	-9770
▁Taste	-9771
▁Threw	-9772
▁Troth	-9773
▁Tutor	-9774
▁VAUGH	-9775
▁Vince	-9776
▁Visit	-9777
▁Words	-9778
▁Wrath	-9779
▁Yorks	-9780
▁abode	-9781
▁admon	-9782
▁aptly	-9783
▁arith	-9784
▁arrog	-9785
▁baits	-9786
▁banns	-9787
▁bells	-9788
▁blank	-9789
▁brake	-9790
▁brats	-9791
▁brick	-9792
▁bunch	-9793
▁cable	-9794
▁cakes	-9795
▁canon	-9796
▁cater	-9797
▁cavil	-9798
▁cedar	-9799
aub	-9800
ece	-9801
ney	-9802
par	-9803
▁gy	-9804
Come	-9805
Rome	-9806
peer	-9807
pill	-9808
uman	-9809
▁Inc	-9810
▁Oft	-9811
▁Pen	-9812
▁Ple	-9813
▁Pra	-9814
▁Pur	-9815
▁ess	-9816
▁nim	-9817
▁rev	-9818
▁slu	-9819
Romeo	-9820
agion	-9821
amine	-9822
elier	-9823
ondam	-9824
would	-9825
▁Cour	-9826
▁Fast	-9827
▁Fore	-9828
▁Land	-9829
▁Wear	-9830
▁Wood	-9831
▁dive	-9832
▁eyed	-9833
▁pins	-9834
▁puny	-9835
▁seed	-9836
▁unpo	-9837
▁wean	-9838
ellist	-9839
sorrow	-9840
▁Delay	-9841
▁Venus	-9842
▁apple	-9843
▁avail	-9844
▁brood	-9845
▁clerk	-9846
▁clubs	-9847
▁cocke	-9848
▁corns	-9849
▁couch	-9850
▁covet	-9851
▁creep	-9852
▁curds	-9853
▁darts	-9854
▁daunt	-9855
▁deign	-9856
▁deity	-9857
▁demes	-9858
▁domin	-9859
▁drive	-9860
▁drove	-9861
▁dumps	-9862
▁elbow	-9863
▁extra	-9864
▁falch	-9865
▁fasts	-9866
▁fawns	-9867
▁fitly	-9868
▁fixed	-9869
▁fling	-9870
▁flung	-9871
▁funer	-9872
▁gapes	-9873
▁glean	-9874
▁gusts	-9875
▁gyves	-9876
▁habil	-9877
▁hates	-9878
▁hides	-9879
▁hoard	-9880
▁holes	-9881
▁horns	-9882
▁hound	-9883
▁hunts	-9884
▁index	-9885
▁ingen	-9886
▁insur	-9887
▁jades	-9888
▁kills	-9889
▁knack	-9890
▁knots	-9891
▁leash	-9892
▁lucky	-9893
▁masks	-9894
▁meets	-9895
▁mispl	-9896
▁ocean	-9897
▁ounce	-9898
▁owest	-9899
dro	-9900
pur	-9901
url	-9902
▁Us	-9903
Have	-9904
Thou	-9905
agon	-9906
▁Fur	-9907
▁Jew	-9908
▁Rec	-9909
▁giv	-9910
▁lag	-9911
▁riv	-9912
▁roe	-9913
atisf	-9914
eling	-9915
guing	-9916
urned	-9917
▁Gave	-9918
▁Iron	-9919
▁Prov	-9920
▁Rise	-9921
▁Wise	-9922
▁arts	-9923
▁lave	-9924
▁rice	-9925
▁riot	-9926
▁sinc	-9927
▁stam	-9928
▁twin	-9929
alties	-9930
oneous	-9931
urnish	-9932
▁Kings	-9933
▁Learn	-9934
▁Scorn	-9935
▁ample	-9936
▁churl	-9937
▁desol	-9938
▁doers	-9939
▁feign	-9940
▁flout	-9941
▁pence	-9942
▁plume	-9943
▁prank	-9944
▁prone	-9945
▁proro	-9946
▁rayed	-9947
▁razed	-9948
▁renew	-9949
▁rhyme	-9950
▁rival	-9951
▁roots	-9952
▁rusty	-9953
▁salve	-9954
▁scale	-9955
▁sheer	-9956
▁sheet	-9957
▁shrug	-9958
▁shuns	-9959
▁smock	-9960
▁spawn	-9961
▁spies	-9962
▁stake	-9963
▁steer	-9964
▁stirr	-9965
▁swarm	-9966
▁tails	-9967
▁tenth	-9968
▁tilth	-9969
▁tribe	-9970
▁twigs	-9971
▁unpar	-9972
▁unpit	-9973
▁unres	-9974
▁unsus	-9975
▁usest	-9976
▁usual	-9977
▁vaunt	-9978
▁vitae	-9979
▁waded	-9980
▁waist	-9981
▁wealt	-9982
▁weeks	-9983
▁wield	-9984
▁wiser	-9985
▁witty	-9986
▁wooer	-9987
▁wrapt	-9988
Courage	-9989
aculate	-9990
allible	-9991
annibal	-9992
arewell	-9993
attling	-9994
comfort	-9995
edicite	-9996
ensible	-9997
falling	-9998
fellows	-9999
ob	-10000
Sir	-10001
▁ci	-10002
Hold	-10003
cold	-10004
mple	-10005
tide	-10006
tong	-10007
▁Aim	-10008
amour	-10009
oughs	-10010
reder	-10011
reech	-10012
ruple	-10013
three	-10014
uckle	-10015
▁Begg	-10016
▁Dull	-10017
▁Free	-10018
▁List	-10019
▁Wond	-10020
▁bull	-10021
▁clip	-10022
▁cull	-10023
▁fade	-10024
▁fitt	-10025
▁gird	-10026
▁nuts	-10027
▁rapt	-10028
▁robe	-10029
▁stee	-10030
▁trad	-10031
▁unsk	-10032
ashing	-10033
astery	-10034
berate	-10035
closed	-10036
▁Draws	-10037
▁Forsw	-10038
▁Tears	-10039
▁afire	-10040
▁assay	-10041
▁cheat	-10042
▁clime	-10043
▁cloth	-10044
▁clout	-10045
▁dough	-10046
▁games	-10047
▁gripe	-10048
▁inher	-10049
▁perch	-10050
▁prede	-10051
▁skies	-10052
▁stony	-10053
hampton	-10054
ictment	-10055
iolanus	-10056
itution	-10057
landers	-10058
longeth	-10059
mblance	-10060
mercies	-10061
otchets	-10062
ounding	-10063
pillars	-10064
pointed	-10065
reation	-10066
rivener	-10067
running	-10068
settled	-10069
sheathe	-10070
staring	-10071
tongued	-10072
ucation	-10073
ucement	-10074
wearied	-10075
▁Accept	-10076
▁Adrian	-10077
▁Albion	-10078
▁Ascend	-10079
▁Barnet	-10080
▁Became	-10081
▁Bloody	-10082
▁Boldly	-10083
▁Breton	-10084
▁CHRIST	-10085
▁Change	-10086
▁Crowns	-10087
▁Desire	-10088
▁Divine	-10089
▁Doubly	-10090
▁Eleven	-10091
▁Exceed	-10092
▁Flower	-10093
▁Freder	-10094
▁Golden	-10095
▁Hacket	-10096
▁Ladies	-10097
▁Longer	-10098
▁Mamill	-10099
abs	-10100
aby	-10101
INAL	-10102
agab	-10103
aled	-10104
gery	-10105
hips	-10106
rang	-10107
rove	-10108
▁esp	-10109
▁oil	-10110
apert	-10111
heres	-10112
inent	-10113
liest	-10114
match	-10115
perly	-10116
range	-10117
sweet	-10118
uding	-10119
▁Echo	-10120
▁Rage	-10121
▁Rain	-10122
▁Self	-10123
▁Sure	-10124
▁Vile	-10125
▁adds	-10126
▁apes	-10127
▁asks	-10128
▁begs	-10129
▁diff	-10130
▁doff	-10131
▁hent	-10132
▁logs	-10133
▁purg	-10134
▁rite	-10135
▁shin	-10136
▁tush	-10137
▁untr	-10138
ection	-10139
geably	-10140
ieving	-10141
rimony	-10142
▁Bless	-10143
▁Keeps	-10144
▁Tread	-10145
▁artif	-10146
▁disli	-10147
▁heaps	-10148
▁liver	-10149
agabond	-10150
ainties	-10151
antages	-10152
content	-10153
rection	-10154
ressing	-10155
unction	-10156
▁Namely	-10157
▁Neapol	-10158
▁Pilate	-10159
▁Poison	-10160
▁Potpan	-10161
▁Prefix	-10162
▁Pretty	-10163
▁Priami	-10164
▁Reason	-10165
▁Rebell	-10166
▁Relent	-10167
▁Robert	-10168
▁Saddle	-10169
▁Scroop	-10170
▁Scurvy	-10171
▁Sicils	-10172
▁Sigeia	-10173
▁Simois	-10174
▁Sister	-10175
▁Softly	-10176
▁Strive	-10177
▁Summon	-10178
▁Taking	-10179
▁Temper	-10180
▁Unfold	-10181
▁Wrench	-10182
▁abomin	-10183
▁abound	-10184
▁admits	-10185
▁afresh	-10186
▁alarum	-10187
▁allied	-10188
▁amount	-10189
▁argued	-10190
▁argues	-10191
▁autumn	-10192
▁awaken	-10193
▁barber	-10194
▁behove	-10195
▁bended	-10196
▁betake	-10197
▁bisson	-10198
▁blanks	-10199
mew	-10200
True	-10201
cont	-10202
days	-10203
ints	-10204
mock	-10205
pray	-10206
suck	-10207
▁Spl	-10208
▁nut	-10209
▁sip	-10210
assed	-10211
aucas	-10212
cease	-10213
chest	-10214
cloth	-10215
dding	-10216
fered	-10217
herds	-10218
ifies	-10219
meant	-10220
onted	-10221
ossed	-10222
rants	-10223
shell	-10224
▁Cret	-10225
▁Incl	-10226
▁Kiss	-10227
▁Prop	-10228
▁Shed	-10229
▁ache	-10230
▁boil	-10231
▁gale	-10232
▁medd	-10233
▁peep	-10234
▁pile	-10235
▁prig	-10236
▁rift	-10237
▁rubs	-10238
▁vail	-10239
▁vall	-10240
▁wool	-10241
bridge	-10242
ertile	-10243
forter	-10244
ianced	-10245
▁Allow	-10246
▁Prick	-10247
▁chaos	-10248
▁cured	-10249
▁entit	-10250
▁faded	-10251
▁guide	-10252
▁guile	-10253
▁reins	-10254
▁smack	-10255
ouncing	-10256
venteen	-10257
▁Honour	-10258
▁accent	-10259
▁bloods	-10260
▁bolder	-10261
▁bottle	-10262
▁bounds	-10263
▁brands	-10264
▁breech	-10265
▁brooch	-10266
▁bubble	-10267
▁builds	-10268
▁carbon	-10269
▁carver	-10270
▁casque	-10271
▁causer	-10272
▁celebr	-10273
▁chairs	-10274
▁chants	-10275
▁chapel	-10276
▁cipher	-10277
▁closet	-10278
▁cloven	-10279
▁clutch	-10280
▁cockle	-10281
▁compet	-10282
▁copest	-10283
▁corpse	-10284
▁cracks	-10285
▁cradle	-10286
▁crafts	-10287
▁cramps	-10288
▁curfew	-10289
▁daffod	-10290
▁damask	-10291
▁danced	-10292
▁denier	-10293
▁detect	-10294
▁dieted	-10295
▁discom	-10296
▁disfig	-10297
▁dissol	-10298
▁dolour	-10299
yr	-10300
rav	-10301
When	-10302
alms	-10303
mend	-10304
pile	-10305
▁Dev	-10306
▁Emb	-10307
▁cox	-10308
▁dul	-10309
aketh	-10310
comed	-10311
inary	-10312
maker	-10313
▁bits	-10314
▁boat	-10315
▁coin	-10316
▁hild	-10317
▁hoop	-10318
▁jars	-10319
▁size	-10320
▁slug	-10321
ashion	-10322
bodied	-10323
orship	-10324
▁Doing	-10325
▁Grief	-10326
▁Short	-10327
▁Weigh	-10328
▁Worth	-10329
▁dates	-10330
▁earls	-10331
▁raged	-10332
▁rider	-10333
▁saves	-10334
▁skins	-10335
▁talks	-10336
▁thigh	-10337
▁track	-10338
atesman	-10339
keeping	-10340
▁Argier	-10341
▁Engage	-10342
▁Matter	-10343
▁beards	-10344
▁brawls	-10345
▁briers	-10346
▁career	-10347
▁confli	-10348
▁devout	-10349
▁dotard	-10350
▁doting	-10351
▁doubts	-10352
▁drudge	-10353
▁eagles	-10354
▁easter	-10355
▁engine	-10356
▁ensign	-10357
▁entail	-10358
▁exiled	-10359
▁extirp	-10360
▁factor	-10361
▁falter	-10362
▁faster	-10363
▁featly	-10364
▁fetter	-10365
▁finest	-10366
▁finish	-10367
▁fishes	-10368
▁fleece	-10369
▁foison	-10370
▁forego	-10371
▁forged	-10372
▁forges	-10373
▁formal	-10374
▁freeze	-10375
▁fulfil	-10376
▁furthe	-10377
▁gazing	-10378
▁gilded	-10379
▁gillyv	-10380
▁glance	-10381
▁gossip	-10382
▁grains	-10383
▁graver	-10384
▁grudge	-10385
▁guides	-10386
▁hammer	-10387
▁heated	-10388
▁heaved	-10389
▁helped	-10390
▁hidden	-10391
▁highly	-10392
▁hoarse	-10393
▁hoping	-10394
▁hypocr	-10395
▁images	-10396
▁impute	-10397
▁inches	-10398
▁indign	-10399
MEN	-10400
ddy	-10401
▁Sn	-10402
irts	-10403
mark	-10404
serv	-10405
▁Sed	-10406
▁ivy	-10407
▁mol	-10408
Whoop	-10409
hapen	-10410
ildly	-10411
onely	-10412
othed	-10413
sheet	-10414
▁Ethi	-10415
▁Pity	-10416
▁Sham	-10417
▁Thee	-10418
▁Wash	-10419
▁choo	-10420
▁dart	-10421
▁dirt	-10422
▁gasp	-10423
▁grin	-10424
▁pars	-10425
▁tape	-10426
▁void	-10427
monger	-10428
pected	-10429
racted	-10430
stones	-10431
▁Looks	-10432
▁belie	-10433
▁fours	-10434
▁geese	-10435
▁moons	-10436
▁muddy	-10437
▁range	-10438
▁smoke	-10439
▁stair	-10440
▁testy	-10441
pecting	-10442
reading	-10443
▁Adding	-10444
▁During	-10445
▁Monday	-10446
▁beaver	-10447
▁bolted	-10448
▁chests	-10449
▁client	-10450
▁inexor	-10451
▁inside	-10452
▁invite	-10453
▁ireful	-10454
▁kersey	-10455
▁kindle	-10456
▁lackey	-10457
▁ladder	-10458
▁lastly	-10459
▁lessen	-10460
▁liquid	-10461
▁liquor	-10462
▁litter	-10463
▁logger	-10464
▁losing	-10465
▁loveth	-10466
▁lowest	-10467
▁madmen	-10468
▁makest	-10469
▁manors	-10470
▁massac	-10471
▁mature	-10472
▁medlar	-10473
▁menace	-10474
▁mended	-10475
▁merits	-10476
▁method	-10477
▁mingle	-10478
▁misled	-10479
▁mocked	-10480
▁motive	-10481
▁muffle	-10482
▁multip	-10483
▁mutton	-10484
▁mutual	-10485
▁nation	-10486
▁nephew	-10487
▁nicely	-10488
▁nimbly	-10489
▁nobody	-10490
▁novice	-10491
▁openly	-10492
▁oppose	-10493
▁orange	-10494
▁orders	-10495
▁ostent	-10496
▁overta	-10497
▁parley	-10498
▁partis	-10499
ky	-10500
Cor	-10501
HER	-10502
cup	-10503
ipt	-10504
seed	-10505
vels	-10506
wall	-10507
▁ram	-10508
▁sci	-10509
▁tar	-10510
OPHER	-10511
black	-10512
ckets	-10513
mouth	-10514
music	-10515
oever	-10516
▁moth	-10517
▁rags	-10518
▁ribs	-10519
▁runn	-10520
emning	-10521
gments	-10522
ighing	-10523
morant	-10524
ottage	-10525
ourses	-10526
ringed	-10527
▁Haste	-10528
▁Wrong	-10529
▁bower	-10530
▁dally	-10531
▁dregs	-10532
▁fined	-10533
▁jaunt	-10534
▁limed	-10535
▁parks	-10536
▁poets	-10537
▁purbl	-10538
▁scarr	-10539
▁shuts	-10540
▁tithe	-10541
masters	-10542
▁Forced	-10543
▁Seeing	-10544
▁abides	-10545
▁adders	-10546
▁basely	-10547
▁bestir	-10548
▁carved	-10549
▁cities	-10550
▁counts	-10551
▁flying	-10552
▁grants	-10553
▁losses	-10554
▁paying	-10555
▁perfid	-10556
▁phrase	-10557
▁pillow	-10558
▁pirate	-10559
▁plight	-10560
▁plough	-10561
▁poetry	-10562
▁ponder	-10563
▁potent	-10564
▁prayed	-10565
▁precip	-10566
▁presag	-10567
▁prolix	-10568
▁promot	-10569
▁proves	-10570
▁puling	-10571
▁purest	-10572
▁purity	-10573
▁rankle	-10574
▁rashly	-10575
▁reduce	-10576
▁relent	-10577
▁repeat	-10578
▁retail	-10579
▁revoke	-10580
▁richer	-10581
▁richly	-10582
▁riddle	-10583
▁ripest	-10584
▁rivals	-10585
▁roared	-10586
▁rudely	-10587
▁sailor	-10588
▁saving	-10589
▁scathe	-10590
▁scurvy	-10591
▁sedges	-10592
▁selves	-10593
▁sequel	-10594
▁setter	-10595
▁shamef	-10596
▁shaped	-10597
▁sheath	-10598
▁shrill	-10599
oil	-10600
▁ps	-10601
beit	-10602
ipod	-10603
plus	-10604
▁Bro	-10605
▁New	-10606
▁owl	-10607
chess	-10608
etchy	-10609
plain	-10610
proud	-10611
rains	-10612
umbly	-10613
▁Quit	-10614
▁ampl	-10615
▁cats	-10616
▁eats	-10617
▁flap	-10618
▁lump	-10619
▁pump	-10620
▁type	-10621
▁vein	-10622
▁waft	-10623
aching	-10624
ements	-10625
ipodes	-10626
ouched	-10627
▁Capel	-10628
▁acted	-10629
▁clang	-10630
▁coral	-10631
▁coven	-10632
▁cures	-10633
▁drugs	-10634
▁extol	-10635
▁jests	-10636
▁mocks	-10637
▁seats	-10638
▁skull	-10639
▁tenor	-10640
▁undes	-10641
▁wombs	-10642
cessors	-10643
vouring	-10644
▁Friend	-10645
▁Mortal	-10646
▁Resign	-10647
▁Spread	-10648
▁blench	-10649
▁brooks	-10650
▁choked	-10651
▁denies	-10652
▁excels	-10653
▁furred	-10654
▁garish	-10655
▁garter	-10656
▁hereof	-10657
▁indust	-10658
▁judged	-10659
▁pieced	-10660
▁savour	-10661
▁sinews	-10662
▁sinful	-10663
▁sleeve	-10664
▁slower	-10665
▁smells	-10666
▁soever	-10667
▁sorted	-10668
▁sparks	-10669
▁speeds	-10670
▁sprang	-10671
▁sprung	-10672
▁square	-10673
▁squire	-10674
▁stains	-10675
▁stalls	-10676
▁stamps	-10677
▁sticks	-10678
▁stings	-10679
▁stored	-10680
▁submit	-10681
▁surety	-10682
▁swells	-10683
▁tables	-10684
▁tabour	-10685
▁tackle	-10686
▁taming	-10687
▁target	-10688
▁tempor	-10689
▁thrall	-10690
▁throws	-10691
▁thwack	-10692
▁tigers	-10693
▁tokens	-10694
▁transg	-10695
▁treads	-10696
▁tribes	-10697
▁truths	-10698
▁tutors	-10699
alus	-10700
lloa	-10701
▁pea	-10702
▁ply	-10703
▁sol	-10704
▁wip	-10705
arism	-10706
pired	-10707
▁Dead	-10708
▁Lucy	-10709
▁Requ	-10710
▁begn	-10711
▁bitt	-10712
▁owed	-10713
▁punk	-10714
▁sops	-10715
▁subs	-10716
emaker	-10717
isheth	-10718
twenty	-10719
urally	-10720
▁Abate	-10721
▁Bliss	-10722
▁angle	-10723
▁broil	-10724
▁envir	-10725
▁examp	-10726
▁hurry	-10727
▁jolly	-10728
▁lasts	-10729
▁mista	-10730
▁necks	-10731
▁penet	-10732
▁quaff	-10733
▁scarf	-10734
▁spray	-10735
▁tires	-10736
▁unwho	-10737
berries	-10738
ilities	-10739
▁Lament	-10740
▁Reward	-10741
▁babies	-10742
▁broach	-10743
▁cleave	-10744
▁doubly	-10745
▁encamp	-10746
▁farmer	-10747
▁galled	-10748
▁interr	-10749
▁mettle	-10750
▁pities	-10751
▁regent	-10752
▁unable	-10753
▁undisc	-10754
▁uneasy	-10755
▁unfelt	-10756
▁unfort	-10757
▁unhall	-10758
▁unhapp	-10759
▁unking	-10760
▁unknit	-10761
▁unposs	-10762
▁unsway	-10763
▁unwise	-10764
▁usurps	-10765
▁utters	-10766
▁venuto	-10767
▁vestal	-10768
▁victor	-10769
▁visits	-10770
▁vizard	-10771
▁waving	-10772
▁weaker	-10773
▁whores	-10774
▁willow	-10775
Citizens	-10776
Remember	-10777
apparell	-10778
creature	-10779
dominant	-10780
ershades	-10781
ertainly	-10782
ittingly	-10783
kerchief	-10784
olerable	-10785
peakable	-10786
ubbering	-10787
▁AEdiles	-10788
▁Abraham	-10789
▁Account	-10790
▁Barbary	-10791
▁Baynard	-10792
▁Cheerly	-10793
▁Compare	-10794
▁Counsel	-10795
▁Culling	-10796
▁Deliver	-10797
▁Deserve	-10798
▁Desires	-10799
▁Ado	-10800
▁Dig	-10801
▁pip	-10802
agued	-10803
ramed	-10804
round	-10805
▁Grim	-10806
▁chin	-10807
▁conv	-10808
▁dawn	-10809
▁hugg	-10810
▁rubb	-10811
roying	-10812
▁Below	-10813
▁Enjoy	-10814
▁Heart	-10815
▁Hover	-10816
▁Provo	-10817
▁Sorry	-10818
▁apish	-10819
▁baked	-10820
▁bloss	-10821
▁drain	-10822
▁eased	-10823
▁famed	-10824
▁feels	-10825
▁hurts	-10826
▁refer	-10827
▁seals	-10828
▁seeds	-10829
▁shipp	-10830
▁shoot	-10831
▁trimm	-10832
▁viper	-10833
ittance	-10834
▁Almost	-10835
▁Behind	-10836
▁admire	-10837
▁assign	-10838
▁awaked	-10839
▁bridle	-10840
▁easier	-10841
▁finely	-10842
▁groats	-10843
▁invest	-10844
▁lances	-10845
▁latter	-10846
▁listen	-10847
▁milder	-10848
▁opport	-10849
▁replen	-10850
▁rounds	-10851
▁shades	-10852
▁staves	-10853
▁sunset	-10854
▁travel	-10855
▁writes	-10856
moreland	-10857
orporate	-10858
▁Despite	-10859
▁Dismiss	-10860
▁Dispose	-10861
▁Emperor	-10862
▁Endured	-10863
▁Examine	-10864
▁Falsely	-10865
▁Fellows	-10866
▁Flavius	-10867
▁Florent	-10868
▁Forward	-10869
▁Further	-10870
▁Gonzalo	-10871
▁Herbert	-10872
▁Herself	-10873
▁Holding	-10874
▁Hungary	-10875
▁Inquire	-10876
▁Intends	-10877
▁Italian	-10878
▁Letters	-10879
▁Looking	-10880
▁MEASURE	-10881
▁Marquis	-10882
▁Miranda	-10883
▁Nicanor	-10884
▁Nightly	-10885
▁POMPHEY	-10886
▁Perform	-10887
▁Plainly	-10888
▁Present	-10889
▁Procure	-10890
▁Profess	-10891
▁Receive	-10892
▁Resolve	-10893
▁Sheriff	-10894
▁Sitting	-10895
▁Slander	-10896
▁Southam	-10897
▁Stephen	-10898
▁Success	-10899
hily	-10900
▁cog	-10901
denly	-10902
locks	-10903
▁Next	-10904
▁beck	-10905
▁camp	-10906
▁unbu	-10907
acheth	-10908
gentle	-10909
spring	-10910
utiful	-10911
▁Negle	-10912
▁Turns	-10913
▁barne	-10914
▁gazed	-10915
▁hairs	-10916
▁plots	-10917
▁ranks	-10918
▁rocky	-10919
▁scrup	-10920
▁simpl	-10921
▁smear	-10922
▁vials	-10923
▁wreak	-10924
missive	-10925
righted	-10926
velling	-10927
▁Notice	-10928
▁Twelve	-10929
▁acquit	-10930
▁arrive	-10931
▁baited	-10932
▁befell	-10933
▁fields	-10934
▁gavest	-10935
▁guards	-10936
▁haunts	-10937
▁malady	-10938
▁ridges	-10939
▁robbed	-10940
▁rooted	-10941
▁verily	-10942
▁Flatter	-10943
▁Suffolk	-10944
▁Suggest	-10945
▁Therein	-10946
▁Thereof	-10947
▁Thereon	-10948
▁Thieves	-10949
▁Tremble	-10950
▁Unhappy	-10951
▁VAUGHAN	-10952
▁Varrius	-10953
▁Weeping	-10954
▁Whereby	-10955
▁Whoever	-10956
▁abandon	-10957
▁abroach	-10958
▁accents	-10959
▁admiral	-10960
▁admired	-10961
▁adopted	-10962
▁adulter	-10963
▁aediles	-10964
▁affable	-10965
▁affects	-10966
▁alarums	-10967
▁allowed	-10968
▁ambling	-10969
▁anchors	-10970
▁answers	-10971
▁apology	-10972
▁appeach	-10973
▁approve	-10974
▁arguing	-10975
▁arraign	-10976
▁asunder	-10977
▁audible	-10978
▁augment	-10979
▁awaking	-10980
▁baleful	-10981
▁bestrew	-10982
▁bestrid	-10983
▁betters	-10984
▁blacker	-10985
▁blowing	-10986
▁blushes	-10987
▁borough	-10988
▁bottled	-10989
▁bravely	-10990
▁braving	-10991
▁breeder	-10992
▁brutish	-10993
▁buckler	-10994
▁cambric	-10995
▁cancell	-10996
▁carcass	-10997
▁carters	-10998
▁casting	-10999
fied	-11000
▁err	-11001
celsa	-11002
ucing	-11003
▁Been	-11004
▁irks	-11005
beards	-11006
▁sways	-11007
▁swept	-11008
deliver	-11009
riously	-11010
▁conjur	-11011
▁detain	-11012
▁scared	-11013
▁soothe	-11014
▁Killing	-11015
▁Knowing	-11016
▁bleared	-11017
▁channel	-11018
▁charter	-11019
▁cheques	-11020
▁chiefly	-11021
▁circled	-11022
▁citizen	-11023
▁combine	-11024
▁commune	-11025
▁concern	-11026
▁conduit	-11027
▁confine	-11028
▁congeal	-11029
▁contain	-11030
▁contend	-11031
▁contrar	-11032
▁cottage	-11033
▁couched	-11034
▁cowards	-11035
▁crabbed	-11036
▁credent	-11037
▁crimson	-11038
▁crooked	-11039
▁crosses	-11040
▁cruelty	-11041
▁crupper	-11042
▁crystal	-11043
▁currish	-11044
▁cursing	-11045
▁cypress	-11046
▁decreed	-11047
▁defaced	-11048
▁defects	-11049
▁denying	-11050
▁depends	-11051
▁descant	-11052
▁devised	-11053
▁devoted	-11054
▁discern	-11055
▁dispose	-11056
▁dispute	-11057
▁distaff	-11058
▁doctors	-11059
▁doubled	-11060
▁dreaded	-11061
▁drowned	-11062
▁dullest	-11063
▁durance	-11064
▁eastern	-11065
▁elected	-11066
▁endless	-11067
▁ensuing	-11068
▁envying	-11069
▁equally	-11070
▁escaped	-11071
▁evening	-11072
▁exactly	-11073
▁exceeds	-11074
▁excused	-11075
▁excuses	-11076
▁exhales	-11077
▁fancies	-11078
▁feigned	-11079
▁figured	-11080
▁filling	-11081
▁finding	-11082
▁fitness	-11083
▁foolery	-11084
▁forbids	-11085
▁forfend	-11086
▁frailty	-11087
▁fraught	-11088
▁funeral	-11089
▁furious	-11090
▁gallops	-11091
▁gallows	-11092
▁garment	-11093
▁gasping	-11094
▁ghastly	-11095
▁grafted	-11096
▁gratify	-11097
▁gravity	-11098
▁grossly	-11099
▁haggard	-11100
▁handled	-11101
▁hangmen	-11102
▁hapless	-11103
▁harmful	-11104
▁hastily	-11105
▁hearers	-11106
▁hearken	-11107
▁heralds	-11108
▁heretic	-11109
▁holiday	-11110
▁hostile	-11111
▁howling	-11112
▁humours	-11113
▁hunting	-11114
▁impiety	-11115
▁implore	-11116
▁imports	-11117
▁incaged	-11118
▁incline	-11119
▁induced	-11120
▁inhuman	-11121
▁issuing	-11122
▁kernels	-11123
▁killing	-11124
▁kindest	-11125
▁kitchen	-11126
▁knights	-11127
▁labours	-11128
▁largess	-11129
▁lawless	-11130
▁lawyers	-11131
▁leading	-11132
▁leather	-11133
▁lechery	-11134
▁lessons	-11135
▁letting	-11136
▁library	-11137
▁licence	-11138
▁lighted	-11139
▁lolling	-11140
▁louring	-11141
▁malmsey	-11142
▁mansion	-11143
▁marches	-11144
▁mattock	-11145
▁meanest	-11146
▁melting	-11147
▁merited	-11148
▁million	-11149
▁miracle	-11150
▁misdeed	-11151
▁mortals	-11152
▁moulded	-11153
▁mounted	-11154
▁mourner	-11155
▁muffled	-11156
▁nettles	-11157
▁noisome	-11158
▁notable	-11159
▁observe	-11160
▁oppress	-11161
▁orators	-11162
▁oratory	-11163
▁ordered	-11164
▁orisons	-11165
▁outside	-11166
▁packing	-11167
▁pageant	-11168
▁palmers	-11169
▁palsied	-11170
▁panting	-11171
▁paragon	-11172
▁parcels	-11173
▁passado	-11174
▁payment	-11175
▁pelting	-11176
▁penalty	-11177
▁pensive	-11178
▁perfume	-11179
▁pinched	-11180
▁plagues	-11181
▁planted	-11182
▁players	-11183
▁politic	-11184
▁postern	-11185
▁posture	-11186
▁potency	-11187
▁pratest	-11188
▁prattle	-11189
▁praying	-11190
▁precept	-11191
▁prenzie	-11192
▁priests	-11193
▁privily	-11194
▁prolong	-11195
▁prompts	-11196
▁propose	-11197
▁proudly	-11198
▁proverb	-11199
▁proveth	-11200
▁provoke	-11201
▁publish	-11202
▁quietly	-11203
▁quondam	-11204
▁raising	-11205
▁reflect	-11206
▁refresh	-11207
▁remnant	-11208
▁rescued	-11209
▁respite	-11210
▁resting	-11211
▁revived	-11212
▁ribbons	-11213
▁robbery	-11214
▁running	-11215
▁sainted	-11216
▁savours	-11217
▁scepter	-11218
▁scruple	-11219
▁seconds	-11220
▁secrecy	-11221
▁setting	-11222
▁shamest	-11223
▁sharper	-11224
▁shelves	-11225
▁shields	-11226
▁shining	-11227
▁showing	-11228
▁shrieks	-11229
▁sighing	-11230
▁singing	-11231
▁singled	-11232
▁slavish	-11233
▁sleeves	-11234
▁slumber	-11235
▁sparing	-11236
▁spoiled	-11237
▁spright	-11238
▁squared	-11239
▁stables	-11240
▁starved	-11241
▁stately	-11242
▁station	-11243
▁stealth	-11244
▁stinted	-11245
▁stirrup	-11246
▁stories	-11247
▁strains	-11248
▁streaks	-11249
▁streams	-11250
▁strifes	-11251
▁strikes	-11252
▁surplus	-11253
▁tailors	-11254
▁testify	-11255
▁thereon	-11256
▁thimble	-11257
▁thrives	-11258
▁throngs	-11259
▁topmast	-11260
▁touches	-11261
▁tragedy	-11262
▁trained	-11263
▁trample	-11264
▁trident	-11265
▁trivial	-11266
▁trodden	-11267
▁trusted	-11268
▁tumbled	-11269
▁twofold	-11270
▁unclean	-11271
▁uncrown	-11272
▁unlucky	-11273
▁unquiet	-11274
▁unstain	-11275
▁unthank	-11276
▁upholds	-11277
▁uttered	-11278
▁verdict	-11279
▁veriest	-11280
▁victors	-11281
▁violets	-11282
▁volumes	-11283
▁vouches	-11284
▁wagging	-11285
▁wagoner	-11286
▁wailing	-11287
▁walking	-11288
▁wantons	-11289
▁wedlock	-11290
▁whoever	-11291
▁widower	-11292
▁winning	-11293
▁wisdoms	-11294
▁witless	-11295
▁working	-11296
▁wreaths	-11297
▁wrinkle	-11298
ercharged	-11299
▁Anointed	-11300
▁BERKELEY	-11301
▁Bestride	-11302
▁Bootless	-11303
▁CARDINAL	-11304
▁Cytherea	-11305
▁Daughter	-11306
▁December	-11307
▁Deserved	-11308
▁Deserves	-11309
▁Despised	-11310
▁Enforced	-11311
▁Florence	-11312
▁Forswear	-11313
▁Hannibal	-11314
▁Iniquity	-11315
▁Intended	-11316
▁Julietta	-11317
▁Mortimer	-11318
▁Pitchers	-11319
▁Prospero	-11320
▁Provided	-11321
▁Redeemer	-11322
▁Resolved	-11323
▁Sicinius	-11324
▁Thinkest	-11325
▁Untimely	-11326
▁Unworthy	-11327
▁Welshman	-11328
▁Whatever	-11329
▁Wondrous	-11330
▁abortive	-11331
▁accusers	-11332
▁accustom	-11333
▁addition	-11334
▁admiring	-11335
▁agreeing	-11336
▁allowing	-11337
▁answered	-11338
▁anything	-11339
▁arrested	-11340
▁assemble	-11341
▁assisted	-11342
▁audience	-11343
▁basilisk	-11344
▁beheaded	-11345
▁bestride	-11346
▁blasphem	-11347
▁bracelet	-11348
▁braggart	-11349
▁bruising	-11350
▁buildeth	-11351
▁captives	-11352
▁carriage	-11353
▁censures	-11354
▁choosing	-11355
▁cloister	-11356
▁clusters	-11357
▁cockerel	-11358
▁codpiece	-11359
▁combined	-11360
▁complots	-11361
▁conjured	-11362
▁consents	-11363
▁conspire	-11364
▁contains	-11365
▁contempl	-11366
▁contrive	-11367
▁converts	-11368
▁covering	-11369
▁crossing	-11370
▁cuckolds	-11371
▁curtains	-11372
▁cushions	-11373
▁dateless	-11374
▁dealings	-11375
▁declined	-11376
▁declines	-11377
▁dedicate	-11378
▁defiance	-11379
▁delivers	-11380
▁demesnes	-11381
▁departed	-11382
▁deposing	-11383
▁descried	-11384
▁desiring	-11385
▁destined	-11386
▁directed	-11387
▁disdains	-11388
▁dissolve	-11389
▁distance	-11390
▁divorced	-11391
▁doctrine	-11392
▁doublets	-11393
▁duellist	-11394
▁dwellest	-11395
▁enjoying	-11396
▁enrolled	-11397
▁entreats	-11398
▁estimate	-11399
▁eternity	-11400
▁evidence	-11401
▁examples	-11402
▁expected	-11403
▁eyebrows	-11404
▁eyesight	-11405
▁falchion	-11406
▁famously	-11407
▁feverous	-11408
▁flattery	-11409
▁followed	-11410
▁follower	-11411
▁foremost	-11412
▁forewarn	-11413
▁forfeits	-11414
▁formally	-11415
▁formerly	-11416
▁forsaken	-11417
▁forswore	-11418
▁fountain	-11419
▁frequent	-11420
▁furlongs	-11421
▁furthest	-11422
▁garlands	-11423
▁gorgeous	-11424
▁graceful	-11425
▁grateful	-11426
▁groaning	-11427
▁headlong	-11428
▁hearkens	-11429
▁herdsmen	-11430
▁holidame	-11431
▁honestly	-11432
▁horseman	-11433
▁humorous	-11434
▁huntsmen	-11435
▁imagined	-11436
▁impossib	-11437
▁impudent	-11438
▁infidels	-11439
▁inforced	-11440
▁inquired	-11441
▁insolent	-11442
▁instinct	-11443
▁interior	-11444
▁justices	-11445
▁kingdoms	-11446
▁lamented	-11447
▁languish	-11448
▁laughing	-11449
▁lectures	-11450
▁lethargy	-11451
▁lightens	-11452
▁lovelier	-11453
▁luckless	-11454
▁malapert	-11455
▁mannerly	-11456
▁masquers	-11457
▁massacre	-11458
▁meantime	-11459
▁misdoubt	-11460
▁monarchy	-11461
▁moralize	-11462
▁moveable	-11463
▁multiply	-11464
▁multitud	-11465
▁mutually	-11466
▁nativity	-11467
▁nearness	-11468
▁nothings	-11469
▁opposers	-11470
▁ornament	-11471
▁outstret	-11472
▁parallel	-11473
▁passages	-11474
▁pedigree	-11475
▁peerless	-11476
▁perfumed	-11477
▁pheasant	-11478
▁pictures	-11479
▁plucking	-11480
▁prettily	-11481
▁pricking	-11482
▁proceeds	-11483
▁progress	-11484
▁promises	-11485
▁province	-11486
▁punished	-11487
▁purblind	-11488
▁purposed	-11489
▁pursuing	-11490
▁quarrels	-11491
▁quarters	-11492
▁rashness	-11493
▁readiest	-11494
▁recorded	-11495
▁rehearse	-11496
▁released	-11497
▁religion	-11498
▁renounce	-11499
▁reproach	-11500
▁restless	-11501
▁revenues	-11502
▁revolted	-11503
▁runagate	-11504
▁securely	-11505
▁sedition	-11506
▁servitor	-11507
▁sessions	-11508
▁shameful	-11509
▁shearers	-11510
▁slippery	-11511
▁solemnly	-11512
▁soothing	-11513
▁sounding	-11514
▁southern	-11515
▁spacious	-11516
▁sportful	-11517
▁spotless	-11518
▁staggers	-11519
▁standers	-11520
▁stinging	-11521
▁stomachs	-11522
▁straitly	-11523
▁striving	-11524
▁strucken	-11525
▁studying	-11526
▁supposes	-11527
▁surcease	-11528
▁surfeits	-11529
▁surprise	-11530
▁sweeting	-11531
▁syllable	-11532
▁sympathy	-11533
▁teaching	-11534
▁temporal	-11535
▁testimon	-11536
▁thriving	-11537
▁tortoise	-11538
▁tortures	-11539
▁touching	-11540
▁treasury	-11541
▁troubles	-11542
▁ungovern	-11543
▁unhallow	-11544
▁unlikely	-11545
▁unpeople	-11546
▁unpitied	-11547
▁untaught	-11548
▁unwieldy	-11549
▁unwonted	-11550
▁vanquish	-11551
▁variable	-11552
▁vehement	-11553
▁verified	-11554
▁watching	-11555
▁weighing	-11556
▁welcomed	-11557
▁westward	-11558
▁wheresoe	-11559
▁whipping	-11560
▁woodcock	-11561
▁wormwood	-11562
▁wrinkles	-11563
Coriolanus	-11564
changeably	-11565
▁Alexander	-11566
▁Amazonian	-11567
▁Autolycus	-11568
▁Certainly	-11569
▁Deucalion	-11570
▁Environed	-11571
▁Erroneous	-11572
▁FRANCISCA	-11573
▁Ferdinand	-11574
▁Frederick	-11575
▁Guildhall	-11576
▁Injurious	-11577
▁Leicester	-11578
▁Mamillius	-11579
▁Neighbour	-11580
▁Ourselves	-11581
▁Pronounce	-11582
▁Sometimes	-11583
▁Supposing	-11584
▁Tendering	-11585
▁Unsheathe	-11586
▁Vincetino	-11587
▁Worcester	-11588
▁Yorkshire	-11589
▁accounted	-11590
▁adversary	-11591
▁affecting	-11592
▁affianced	-11593
▁afflicted	-11594
▁amendment	-11595
▁answering	-11596
▁appearing	-11597
▁arbitrate	-11598
▁arrogance	-11599
▁attainder	-11600
▁attentive	-11601
▁austerity	-11602
▁barbarism	-11603
▁begetting	-11604
▁beholders	-11605
▁beseeming	-11606
▁bitterest	-11607
▁boatswain	-11608
▁boundless	-11609
▁bounteous	-11610
▁bountiful	-11611
▁cannibals	-11612
▁carefully	-11613
▁certainty	-11614
▁champions	-11615
▁clergymen	-11616
▁collected	-11617
▁comforter	-11618
▁conducted	-11619
▁confessed	-11620
▁confident	-11621
▁confounds	-11622
▁congealed	-11623
▁conquered	-11624
▁contagion	-11625
▁contrived	-11626
▁convented	-11627
▁cormorant	-11628
▁courtship	-11629
▁coverture	-11630
▁credulous	-11631
▁crotchets	-11632
▁cupbearer	-11633
▁customers	-11634
▁daffodils	-11635
▁deceiving	-11636
▁declining	-11637
▁delicious	-11638
▁departing	-11639
▁depending	-11640
▁deserving	-11641
▁different	-11642
▁dishonest	-11643
▁dissolute	-11644
▁dissolved	-11645
▁distilled	-11646
▁dominions	-11647
▁education	-11648
▁embassage	-11649
▁embassies	-11650
▁encompass	-11651
▁engenders	-11652
▁establish	-11653
▁executing	-11654
▁extempore	-11655
▁fingering	-11656
▁firmament	-11657
▁fourscore	-11658
▁frivolous	-11659
▁fulfilled	-11660
▁functions	-11661
▁furnished	-11662
▁generally	-11663
▁gillyvors	-11664
▁graceless	-11665
▁gratulate	-11666
▁greyhound	-11667
▁grumbling	-11668
▁husbandry	-11669
▁impartial	-11670
▁ingenious	-11671
▁insatiate	-11672
▁justified	-11673
▁learnedly	-11674
▁leisurely	-11675
▁lingering	-11676
▁merciless	-11677
▁mischiefs	-11678
▁monastery	-11679
▁mortality	-11680
▁mountains	-11681
▁murderers	-11682
▁neglected	-11683
▁negligent	-11684
▁numbering	-11685
▁obstacles	-11686
▁officious	-11687
▁overboard	-11688
▁parchment	-11689
▁pardoning	-11690
▁parentage	-11691
▁partisans	-11692
▁patrimony	-11693
▁patroness	-11694
▁perceives	-11695
▁perdition	-11696
▁performed	-11697
▁pertinent	-11698
▁petticoat	-11699
▁plainness	-11700
▁plenteous	-11701
▁ponderous	-11702
▁principal	-11703
▁probation	-11704
▁professes	-11705
▁provision	-11706
▁purchased	-11707
▁qualified	-11708
▁quietness	-11709
▁receiving	-11710
▁recomfort	-11711
▁redoubted	-11712
▁rejoicing	-11713
▁religious	-11714
▁reprehend	-11715
▁resembles	-11716
▁reversion	-11717
▁righteous	-11718
▁semblance	-11719
▁seventeen	-11720
▁signified	-11721
▁sincerity	-11722
▁southward	-11723
▁specially	-11724
▁standards	-11725
▁statesman	-11726
▁stockings	-11727
▁stoutness	-11728
▁strangers	-11729
▁strengths	-11730
▁stripling	-11731
▁stumbling	-11732
▁successes	-11733
▁suggested	-11734
▁supremacy	-11735
▁swallowed	-11736
▁syllables	-11737
▁thankings	-11738
▁tradesmen	-11739
▁transform	-11740
▁traveller	-11741
▁treasures	-11742
▁unadvised	-11743
▁unbruised	-11744
▁universal	-11745
▁unsettled	-11746
▁untainted	-11747
▁unthrifty	-11748
▁violation	-11749
▁vouchsafe	-11750
▁wealthily	-11751
▁wearisome	-11752
▁withholds	-11753
▁worthless	-11754
▁yesterday	-11755
comfortable	-11756
▁Affliction	-11757
▁Archbishop	-11758
▁Benedicite	-11759
▁Conceiving	-11760
▁Convenient	-11761
▁Courageous	-11762
▁Gramercies	-11763
▁Henceforth	-11764
▁Lascivious	-11765
▁Neapolitan	-11766
▁Neighbours	-11767
▁Prodigious	-11768
▁Proportion	-11769
▁Prosperity	-11770
▁abominable	-11771
▁abstinence	-11772
▁acceptance	-11773
▁admonition	-11774
▁ambassador	-11775
▁apprehends	-11776
▁arithmetic	-11777
▁artificial	-11778
▁attendance	-11779
▁attendants	-11780
▁auspicious	-11781
▁birthright	-11782
▁butcheries	-11783
▁carelessly	-11784
▁characters	-11785
▁chattering	-11786
▁cockatrice	-11787
▁compliment	-11788
▁compounded	-11789
▁conquerors	-11790
▁continency	-11791
▁contracted	-11792
▁contradict	-11793
▁convenient	-11794
▁conveyance	-11795
▁courageous	-11796
▁deliberate	-11797
▁delightful	-11798
▁despairing	-11799
▁destroying	-11800
▁discipline	-11801
▁discourses	-11802
▁dishonours	-11803
▁dissension	-11804
▁distraught	-11805
▁encounters	-11806
▁endeavours	-11807
▁everything	-11808
▁excellence	-11809
▁experience	-11810
▁favourites	-11811
▁fellowship	-11812
▁foundation	-11813
▁generation	-11814
▁gentleness	-11815
▁glistering	-11816
▁glittering	-11817
▁greediness	-11818
▁greyhounds	-11819
▁guiltiness	-11820
▁hitherward	-11821
▁honourably	-11822
▁importance	-11823
▁importuned	-11824
▁increaseth	-11825
▁indictment	-11826
▁indirectly	-11827
▁inexorable	-11828
▁infallible	-11829
▁infectious	-11830
▁influences	-11831
▁insensible	-11832
▁instructed	-11833
▁intelligen	-11834
▁malcontent	-11835
▁methoughts	-11836
▁millstones	-11837
▁miscarried	-11838
▁neglecting	-11839
▁negligence	-11840
▁obsequious	-11841
▁packthread	-11842
▁pennyworth	-11843
▁personally	-11844
▁playfellow	-11845
▁preferment	-11846
▁proclaimed	-11847
▁promotions	-11848
▁prophetess	-11849
▁protection	-11850
▁protectors	-11851
▁pursuivant	-11852
▁recreation	-11853
▁restrained	-11854
▁sacrificed	-11855
▁salutation	-11856
▁scandalous	-11857
▁schoolboys	-11858
▁succeeders	-11859
▁succeeding	-11860
▁successful	-11861
▁sulphurous	-11862
▁thoroughly	-11863
▁throughout	-11864
▁tumultuous	-11865
▁unconstant	-11866
▁understood	-11867
▁ungracious	-11868
▁ungrateful	-11869
▁unparallel	-11870
▁unprepared	-11871
▁unreverent	-11872
▁unstanched	-11873
▁wilderness	-11874
▁CHRISTOPHER	-11875
▁Northampton	-11876
▁accompanied	-11877
▁appointment	-11878
▁battlements	-11879
▁benefactors	-11880
▁commendable	-11881
▁complaining	-11882
▁concealment	-11883
▁continuance	-11884
▁dangerously	-11885
▁desperation	-11886
▁differences	-11887
▁disgracious	-11888
▁disobedient	-11889
▁dissentious	-11890
▁dissolution	-11891
▁distraction	-11892
▁earnestness	-11893
▁experienced	-11894
▁expostulate	-11895
▁extremities	-11896
▁forbearance	-11897
▁forwardness	-11898
▁gentlewomen	-11899
▁habiliments	-11900
▁impregnable	-11901
▁incorporate	-11902
▁indignation	-11903
▁information	-11904
▁ingratitude	-11905
▁insinuating	-11906
▁instigation	-11907
▁interrupted	-11908
▁magistrates	-11909
▁maidenheads	-11910
▁necessaries	-11911
▁ostentation	-11912
▁possessions	-11913
▁predominant	-11914
▁presumption	-11915
▁profanation	-11916
▁quarrelling	-11917
▁remembering	-11918
▁stewardship	-11919
▁strangeness	-11920
▁substantial	-11921
▁substitutes	-11922
▁sufficiency	-11923
▁superfluity	-11924
▁superfluous	-11925
▁temperately	-11926
▁therewithal	-11927
▁undertaking	-11928
▁unfortunate	-11929
▁unspeakable	-11930
▁unsuspected	-11931
▁unwholesome	-11932
▁unwillingly	-11933
▁willingness	-11934
▁Christophero	-11935
▁Conspirators	-11936
▁Henceforward	-11937
▁Westmoreland	-11938
▁caterpillars	-11939
▁confederates	-11940
▁conversation	-11941
▁countenances	-11942
▁disobedience	-11943
▁dispositions	-11944
▁handkerchief	-11945
▁misadventure	-11946
▁predecessors	-11947
▁prescription	-11948
▁preservation	-11949
▁strawberries	-11950
▁contradiction	-11951
▁counterpoised	-11952
▁encouragement	-11953
▁everlastingly	-11954
▁forgetfulness	-11955
▁precipitation	-11956
▁transgression	-11957
▁unwillingness	-11958
▁interpretation	-11959
▁unthankfulness	-11960
▁Gloucestershire	-11961
▁interchangeably	-11962
Alla	-11963
acob	-11964
barr	-11965
buzz	-11966
deaf	-11967
drag	-11968
eaux	-11969
echy	-11970
greg	-11971
knit	-11972
obst	-11973
oifs	-11974
olii	-11975
poli	-11976
tney	-11977
▁Buy	-11978
▁lux	-11979
LEMEN	-11980
absol	-11981
alnut	-11982
angel	-11983
atomy	-11984
azzle	-11985
built	-11986
crece	-11987
creen	-11988
dalls	-11989
drops	-11990
haste	-11991
heirs	-11992
imney	-11993
impse	-11994
incot	-11995
itrav	-11996
knock	-11997
mpery	-11998
rhyme	-11999
cox	-12000
whom	-12001
elaus	-12002
risen	-12003
separ	-12004
tonhe	-12005
warks	-12006
whist	-12007
yrcan	-12008
▁Airy	-12009
▁Esse	-12010
▁Gris	-12011
▁Peer	-12012
▁Sabb	-12013
▁Skul	-12014
▁Subd	-12015
▁Trad	-12016
▁Trit	-12017
▁Trot	-12018
▁Wait	-12019
▁bemo	-12020
▁cadd	-12021
▁cymb	-12022
▁daub	-12023
▁echo	-12024
▁inev	-12025
▁lids	-12026
▁oxen	-12027
▁oxli	-12028
▁phee	-12029
▁prud	-12030
▁sorc	-12031
▁spav	-12032
▁text	-12033
▁tipt	-12034
▁wadd	-12035
▁wrap	-12036
Sdeath	-12037
Sigeia	-12038
Sirrah	-12039
TLEMEN	-12040
abbled	-12041
access	-12042
azzled	-12043
breach	-12044
briety	-12045
coated	-12046
dinner	-12047
ditary	-12048
dolour	-12049
edalus	-12050
elican	-12051
elutus	-12052
employ	-12053
ermane	-12054
erworn	-12055
framed	-12056
garsop	-12057
geonly	-12058
ground	-12059
hified	-12060
ishers	-12061
ivolii	-12062
lackey	-12063
mildly	-12064
oplexy	-12065
ougher	-12066
ourbon	-12067
pefied	-12068
porter	-12069
queror	-12070
ravate	-12071
ravely	-12072
ridget	-12073
ripoli	-12074
robate	-12075
roused	-12076
scapes	-12077
secute	-12078
seeing	-12079
tossed	-12080
tricks	-12081
turned	-12082
uscles	-12083
waving	-12084
▁Adopt	-12085
▁Atlas	-12086
▁Bores	-12087
▁Bugle	-12088
▁Bunch	-12089
▁Clubs	-12090
▁Cotsw	-12091
▁Crass	-12092
▁Crete	-12093
▁Dicky	-12094
▁Dream	-12095
▁Droop	-12096
▁Embar	-12097
▁Essex	-12098
▁Fatal	-12099
▁Flora	-12100
▁Groan	-12101
▁Heirs	-12102
▁Irons	-12103
▁Jacob	-12104
▁Jewel	-12105
▁Lifts	-12106
▁Limit	-12107
▁Limps	-12108
▁Manif	-12109
▁Merry	-12110
▁Needs	-12111
▁Pedas	-12112
▁Penel	-12113
▁Pluto	-12114
▁Royal	-12115
▁Skipp	-12116
▁Slave	-12117
▁Spurr	-12118
▁Starr	-12119
▁Unrip	-12120
▁alias	-12121
▁anvil	-12122
▁auger	-12123
▁claps	-12124
▁cripp	-12125
▁cuore	-12126
▁dulce	-12127
▁ensky	-12128
▁essay	-12129
▁ewers	-12130
▁ferry	-12131
▁gleek	-12132
▁gored	-12133
▁hooks	-12134
▁inaus	-12135
▁jacks	-12136
▁mints	-12137
▁molto	-12138
▁mothy	-12139
▁navel	-12140
▁nutme	-12141
▁palsy	-12142
▁paved	-12143
▁pithy	-12144
▁pulse	-12145
▁ravin	-12146
▁reeky	-12147
▁rents	-12148
▁scabs	-12149
▁sewed	-12150
▁sizes	-12151
▁slipt	-12152
▁solum	-12153
▁stews	-12154
▁style	-12155
▁twinn	-12156
Sicilia	-12157
aedalus	-12158
alanced	-12159
amworth	-12160
arraign	-12161
ausible	-12162
believe	-12163
beloved	-12164
childed	-12165
darting	-12166
erately	-12167
ermatch	-12168
erpower	-12169
ershade	-12170
erweens	-12171
ewasted	-12172
fashion	-12173
flowing	-12174
haplain	-12175
happily	-12176
hoppers	-12177
hralled	-12178
imroses	-12179
incible	-12180
inhabit	-12181
initive	-12182
ipotent	-12183
irlwind	-12184
itigate	-12185
lderman	-12186
leading	-12187
mblings	-12188
oderate	-12189
omestic	-12190
onville	-12191
ordeaux	-12192
pierced	-12193
plagued	-12194
quality	-12195
ripture	-12196
savoury	-12197
secutor	-12198
servant	-12199
geny	-12200
hurt	-12201
iddl	-12202
mete	-12203
aniel	-12204
nymph	-12205
▁Agen	-12206
▁Cynt	-12207
▁Cypr	-12208
▁Defy	-12209
▁Ridd	-12210
▁hymn	-12211
▁team	-12212
castle	-12213
erlook	-12214
fathom	-12215
nymphs	-12216
ropper	-12217
rossed	-12218
seemly	-12219
ugurer	-12220
▁Assay	-12221
▁Insol	-12222
▁Judge	-12223
▁Sinon	-12224
▁agued	-12225
▁dedic	-12226
▁fiddl	-12227
▁gazes	-12228
▁hawth	-12229
▁hymns	-12230
▁pumps	-12231
▁slimy	-12232
▁taxes	-12233
▁vigil	-12234
bellied	-12235
dropper	-12236
ergrown	-12237
hurtful	-12238
quisher	-12239
quisite	-12240
service	-12241
shotten	-12242
stained	-12243
suckers	-12244
sucking	-12245
uscadel	-12246
verdict	-12247
versely	-12248
vocable	-12249
warrant	-12250
whither	-12251
yrcania	-12252
▁Adopts	-12253
▁Agenor	-12254
▁Agreed	-12255
▁Aiming	-12256
▁Albeit	-12257
▁Armies	-12258
▁Barely	-12259
▁Beggar	-12260
▁Bretag	-12261
▁Broken	-12262
▁Brutus	-12263
▁Caucas	-12264
▁Courts	-12265
▁Cretan	-12266
▁Cynthi	-12267
▁Cyprus	-12268
▁Digest	-12269
▁Diomed	-12270
▁Doting	-12271
▁Dreams	-12272
▁Ensues	-12273
▁Ethiop	-12274
▁Famous	-12275
▁Ferrer	-12276
▁Fillip	-12277
▁Gallia	-12278
▁Giving	-12279
▁Gladly	-12280
▁Hardly	-12281
▁Holloa	-12282
▁Hourly	-12283
▁Humbly	-12284
▁Hunger	-12285
▁Inclin	-12286
▁Junius	-12287
▁Lesser	-12288
▁Listen	-12289
▁Living	-12290
▁Lonely	-12291
▁Oppose	-12292
▁Pedasc	-12293
▁Pedlar	-12294
▁People	-12295
▁Praise	-12296
▁Preser	-12297
▁Profan	-12298
▁Purcha	-12299
Deny	-12300
They	-12301
alph	-12302
vato	-12303
Still	-12304
Strat	-12305
civil	-12306
oseph	-12307
▁Cato	-12308
▁daws	-12309
▁hews	-12310
▁jaws	-12311
crated	-12312
crates	-12313
ricado	-12314
▁Ralph	-12315
▁flaws	-12316
catcher	-12317
married	-12318
niments	-12319
▁Joseph	-12320
▁Refuse	-12321
▁Rideth	-12322
▁Rogero	-12323
▁Satisf	-12324
▁Saving	-12325
▁School	-12326
▁Scorns	-12327
▁Selves	-12328
▁Silver	-12329
▁Simple	-12330
▁Smalus	-12331
▁Snakes	-12332
▁Stifle	-12333
▁Suffer	-12334
▁Tetchy	-12335
▁Tyrian	-12336
▁Unbind	-12337
▁Unbuck	-12338
▁Unchar	-12339
▁Usurps	-12340
▁Varlet	-12341
▁Vilely	-12342
▁Vitrav	-12343
▁Wincot	-12344
▁Wisely	-12345
▁Wooing	-12346
▁allays	-12347
▁ampler	-12348
▁barbar	-12349
▁barded	-12350
▁bedaub	-12351
▁begnaw	-12352
▁bemoan	-12353
▁bondsl	-12354
▁bouted	-12355
▁cardin	-12356
▁catalo	-12357
▁cedars	-12358
▁celest	-12359
▁chafes	-12360
▁cloaks	-12361
▁convoy	-12362
▁coxcom	-12363
▁diffic	-12364
▁disbur	-12365
▁dulcet	-12366
▁dumbly	-12367
▁edicts	-12368
▁elvish	-12369
▁epitap	-12370
▁establ	-12371
▁fettle	-12372
▁fisher	-12373
▁flocks	-12374
▁foeman	-12375
▁gazers	-12376
▁gelded	-12377
▁givest	-12378
▁grassy	-12379
▁greasy	-12380
▁halves	-12381
▁havens	-12382
▁hooded	-12383
▁hooted	-12384
▁howsoe	-12385
▁kernel	-12386
▁lamely	-12387
▁lavish	-12388
▁lecher	-12389
▁levity	-12390
▁luxury	-12391
▁maketh	-12392
▁martyr	-12393
▁moonsh	-12394
▁nostra	-12395
▁nymphs	-12396
▁oxlips	-12397
▁parson	-12398
▁paucas	-12399
elect	-12400
tuned	-12401
▁Affr	-12402
orizer	-12403
▁Falls	-12404
▁Slain	-12405
▁Trail	-12406
▁bulks	-12407
▁cools	-12408
▁hawks	-12409
▁mules	-12410
▁powde	-12411
▁rigor	-12412
▁summa	-12413
▁tuned	-12414
diments	-12415
nointed	-12416
utually	-12417
▁Bolder	-12418
▁Depart	-12419
▁Divide	-12420
▁Relate	-12421
▁Relish	-12422
▁bowspr	-12423
▁deceiv	-12424
▁delect	-12425
▁descry	-12426
▁observ	-12427
▁pantal	-12428
▁pantry	-12429
▁peaces	-12430
▁pestil	-12431
▁prefix	-12432
▁prejud	-12433
▁prints	-12434
▁prizes	-12435
▁pulled	-12436
▁puller	-12437
▁pupils	-12438
▁pushed	-12439
▁quests	-12440
▁rarity	-12441
▁raying	-12442
▁recoil	-12443
▁reechy	-12444
▁revels	-12445
▁rheums	-12446
▁ribbon	-12447
▁ripens	-12448
▁ropery	-12449
▁rubies	-12450
▁scapes	-12451
▁sconce	-12452
▁seizes	-12453
▁smacks	-12454
▁spirts	-12455
▁stewed	-12456
▁stoics	-12457
▁strays	-12458
▁subsid	-12459
▁tetchy	-12460
▁tiptoe	-12461
▁uglier	-12462
▁undeaf	-12463
▁undesc	-12464
▁unharm	-12465
▁unload	-12466
▁unmann	-12467
▁unskil	-12468
▁untrus	-12469
▁urgent	-12470
▁vapour	-12471
▁vaunts	-12472
▁viands	-12473
▁weaved	-12474
▁weeded	-12475
▁whosoe	-12476
▁wiping	-12477
▁wizard	-12478
ENTLEMEN	-12479
Farewell	-12480
Sicinius	-12481
absolver	-12482
balanced	-12483
begotten	-12484
bewasted	-12485
boarding	-12486
cesoever	-12487
contract	-12488
ctorship	-12489
disposed	-12490
dragoned	-12491
dropping	-12492
ediction	-12493
efactors	-12494
erthrown	-12495
farewell	-12496
gracious	-12497
gressing	-12498
imonious	-12499
Cuc	-12500
coff	-12501
ebos	-12502
offs	-12503
prop	-12504
▁tug	-12505
brook	-12506
desby	-12507
edgea	-12508
logic	-12509
▁Jamy	-12510
▁crop	-12511
▁ewer	-12512
coffin	-12513
crazed	-12514
icicle	-12515
offing	-12516
rieves	-12517
▁Ancus	-12518
▁Error	-12519
▁Shuts	-12520
▁fifth	-12521
▁logic	-12522
handise	-12523
▁Argues	-12524
▁Marcus	-12525
▁abhors	-12526
▁frankl	-12527
▁icicle	-12528
▁inferr	-12529
▁parlor	-12530
▁passed	-12531
▁percus	-12532
▁pranks	-12533
▁ravens	-12534
▁roused	-12535
▁scoffs	-12536
Cucullus	-12537
edgeable	-12538
giveness	-12539
indstone	-12540
inescore	-12541
irlwinds	-12542
iscation	-12543
isemaker	-12544
ishonour	-12545
isshapen	-12546
itutions	-12547
junction	-12548
knocking	-12549
lordship	-12550
matching	-12551
ontinent	-12552
ordinary	-12553
pperspur	-12554
presseth	-12555
quements	-12556
secrated	-12557
seducing	-12558
staining	-12559
stantial	-12560
stitches	-12561
treading	-12562
urgeonly	-12563
violable	-12564
violator	-12565
vocation	-12566
whelming	-12567
▁Adopted	-12568
▁Affront	-12569
▁Bourbon	-12570
▁Bridget	-12571
▁Bruised	-12572
▁Crassus	-12573
▁Dabbled	-12574
▁Dauphin	-12575
▁Deposed	-12576
▁Diomede	-12577
▁Divided	-12578
▁Duchess	-12579
▁Embrace	-12580
▁Ensuing	-12581
▁Feather	-12582
▁Ferrers	-12583
▁Fertile	-12584
▁Fewness	-12585
▁Forsake	-12586
▁Forslow	-12587
▁Fridays	-12588
▁Governs	-12589
▁Grissel	-12590
▁Groping	-12591
▁Happier	-12592
▁Hoisted	-12593
▁Immoder	-12594
▁Infused	-12595
▁Ingrate	-12596
▁Kissing	-12597
▁Ladders	-12598
▁Lambert	-12599
branch	-12600
fishes	-12601
▁bruit	-12602
▁brunt	-12603
▁cooks	-12604
▁finer	-12605
▁invis	-12606
▁rends	-12607
▁scald	-12608
▁waved	-12609
▁waxed	-12610
gligent	-12611
▁Tickle	-12612
▁border	-12613
▁boughs	-12614
▁bruise	-12615
▁buzzed	-12616
▁cabins	-12617
▁demise	-12618
▁flatly	-12619
▁franch	-12620
▁gossam	-12621
▁inviol	-12622
▁legion	-12623
▁locked	-12624
▁lockra	-12625
▁matron	-12626
▁mickle	-12627
▁miscar	-12628
▁scaled	-12629
▁shrubs	-12630
▁shrugs	-12631
▁shrunk	-12632
▁tickle	-12633
▁unreal	-12634
▁wether	-12635
▁Despair	-12636
▁Disting	-12637
▁Lucrece	-12638
▁Melting	-12639
▁Mounted	-12640
▁Neglect	-12641
▁Obeying	-12642
▁Olympus	-12643
▁Partlet	-12644
▁Peering	-12645
▁Pierced	-12646
▁Pitiful	-12647
▁Praised	-12648
▁Provide	-12649
▁Provoke	-12650
▁Pursued	-12651
▁Recover	-12652
▁Refused	-12653
▁Requite	-12654
▁Rescued	-12655
▁Revolts	-12656
▁Royally	-12657
▁Sabbath	-12658
▁Satisfy	-12659
▁Seduced	-12660
▁Setebos	-12661
▁Shorten	-12662
▁Sojourn	-12663
▁Springs	-12664
▁Subdues	-12665
▁Subject	-12666
▁Suffice	-12667
▁Talkers	-12668
▁Tiberio	-12669
▁Tickled	-12670
▁Touches	-12671
▁Traitor	-12672
▁Tyrants	-12673
▁Unsepar	-12674
▁Untutor	-12675
▁Unvener	-12676
▁Velutus	-12677
▁Wailing	-12678
▁Wanting	-12679
▁Wishing	-12680
▁Worship	-12681
▁Wotting	-12682
▁Yielded	-12683
▁abjects	-12684
▁accompl	-12685
▁accompt	-12686
▁aground	-12687
▁altered	-12688
▁amiable	-12689
▁amounts	-12690
▁anatomy	-12691
▁arbitre	-12692
▁athwart	-12693
▁augurer	-12694
▁austere	-12695
▁balance	-12696
▁basilis	-12697
▁bawling	-12698
▁beareth	-12699
beys	-12700
ycur	-12701
bardy	-12702
bscri	-12703
choes	-12704
cribe	-12705
gotha	-12706
itoes	-12707
phere	-12708
ycurg	-12709
▁Duns	-12710
▁Misc	-12711
▁Quar	-12712
▁Runs	-12713
▁ista	-12714
▁tuns	-12715
abriel	-12716
arthen	-12717
isaged	-12718
orgive	-12719
stoned	-12720
titoes	-12721
▁Added	-12722
▁Misgu	-12723
▁Quint	-12724
▁Swarm	-12725
▁Unarm	-12726
▁abbey	-12727
▁bolts	-12728
▁caged	-12729
▁foxes	-12730
▁gnats	-12731
▁lulls	-12732
Forgive	-12733
cricket	-12734
iercing	-12735
olgotha	-12736
ombardy	-12737
ushions	-12738
visaged	-12739
▁Envied	-12740
▁Forgot	-12741
▁Grapes	-12742
▁Lycurg	-12743
▁Switch	-12744
▁crazed	-12745
▁dowery	-12746
▁echoes	-12747
▁hewing	-12748
▁prized	-12749
▁smutch	-12750
▁sphere	-12751
▁stupid	-12752
▁switch	-12753
▁undoes	-12754
asonably	-12755
bscribed	-12756
pardonne	-12757
▁Address	-12758
▁Gabriel	-12759
▁Honesty	-12760
▁Misused	-12761
▁Quarrel	-12762
▁Quintus	-12763
▁Suspect	-12764
▁approof	-12765
▁arrests	-12766
▁becomed	-12767
▁beseems	-12768
▁boarded	-12769
▁boiling	-12770
▁bolster	-12771
▁brushed	-12772
▁caddiss	-12773
▁caverns	-12774
▁charnel	-12775
▁chiders	-12776
▁chiding	-12777
▁chimney	-12778
▁chopped	-12779
▁choughs	-12780
▁chronic	-12781
▁clients	-12782
▁congreg	-12783
▁connive	-12784
▁convert	-12785
▁convict	-12786
▁copious	-12787
▁couples	-12788
▁coxcomb	-12789
▁cradled	-12790
▁cricket	-12791
▁dallied	-12792
▁darling	-12793
▁dashing	-12794
▁dauphin	-12795
▁dawning	-12796
▁decease	-12797
▁detects	-12798
▁discomf	-12799
▁Elys	-12800
▁bagp	-12801
▁inky	-12802
dainty	-12803
▁Breck	-12804
▁Elysi	-12805
▁Finds	-12806
▁Priam	-12807
▁Privy	-12808
▁drank	-12809
▁fixes	-12810
▁hinds	-12811
▁lurks	-12812
▁milch	-12813
icatest	-12814
▁Attach	-12815
▁Fairly	-12816
▁Falcon	-12817
▁Greeks	-12818
▁Impair	-12819
▁Impute	-12820
▁Priest	-12821
▁Ransom	-12822
▁bathed	-12823
▁button	-12824
▁grooms	-12825
▁knacks	-12826
▁nicety	-12827
▁serpig	-12828
▁trifle	-12829
▁unmade	-12830
▁unmask	-12831
▁unmeet	-12832
▁vented	-12833
▁ventur	-12834
▁warder	-12835
cheering	-12836
ertainty	-12837
sheathed	-12838
▁Beggars	-12839
▁Dispark	-12840
▁Elysium	-12841
▁Scratch	-12842
▁almsman	-12843
▁bagpipe	-12844
▁billets	-12845
▁billows	-12846
▁buttock	-12847
▁catched	-12848
▁collars	-12849
▁collect	-12850
▁crammed	-12851
▁display	-12852
▁disprop	-12853
▁dolours	-12854
▁dragons	-12855
▁driveth	-12856
▁duchess	-12857
▁dulness	-12858
▁earthen	-12859
▁enamour	-12860
▁engrave	-12861
▁entitle	-12862
▁environ	-12863
▁epitaph	-12864
▁epitome	-12865
▁espouse	-12866
▁essence	-12867
▁eyeball	-12868
▁fantasy	-12869
▁fathoms	-12870
▁fisting	-12871
▁fitteth	-12872
▁fixture	-12873
▁flaying	-12874
▁flecked	-12875
▁footboy	-12876
▁freezes	-12877
▁fringed	-12878
▁fulfill	-12879
▁galleys	-12880
▁germane	-12881
▁gesture	-12882
▁glimpse	-12883
▁grudges	-12884
▁guiding	-12885
▁halbert	-12886
▁haunted	-12887
▁hawking	-12888
▁hoarded	-12889
▁hottest	-12890
▁howbeit	-12891
▁humbles	-12892
▁inkling	-12893
▁inquiry	-12894
▁insurre	-12895
▁irksome	-12896
▁jarring	-12897
▁jumpeth	-12898
▁knavish	-12899
bwe	-12900
jax	-12901
buts	-12902
moon	-12903
▁Owe	-12904
annon	-12905
apper	-12906
braid	-12907
bwebs	-12908
dares	-12909
iwork	-12910
shaft	-12911
uliar	-12912
▁Ajax	-12913
▁Mann	-12914
▁Nips	-12915
▁fann	-12916
▁flax	-12917
▁hips	-12918
▁snea	-12919
▁tips	-12920
adders	-12921
appear	-12922
cannon	-12923
heathe	-12924
ilbert	-12925
reaker	-12926
▁Clapp	-12927
▁Doubt	-12928
▁Filth	-12929
▁maker	-12930
▁slips	-12931
▁snail	-12932
▁taker	-12933
breaker	-12934
derived	-12935
eculiar	-12936
ivering	-12937
▁Soundp	-12938
▁cobble	-12939
▁occupy	-12940
▁psalms	-12941
▁stares	-12942
▁superf	-12943
▁treats	-12944
spitable	-12945
tonheath	-12946
▁Gilbert	-12947
▁Norbery	-12948
▁Officed	-12949
▁Upbraid	-12950
▁applied	-12951
▁cobbled	-12952
▁cobwebs	-12953
▁coronet	-12954
▁decayed	-12955
▁hilding	-12956
▁lanceth	-12957
▁lantern	-12958
▁leagues	-12959
▁leasing	-12960
▁lockram	-12961
▁margent	-12962
▁martial	-12963
▁matches	-12964
▁matrons	-12965
▁measles	-12966
▁meddler	-12967
▁medlars	-12968
▁merrier	-12969
▁mettest	-12970
▁mixture	-12971
▁motions	-12972
▁muscles	-12973
▁napping	-12974
▁naughty	-12975
▁nettled	-12976
▁newness	-12977
▁nodding	-12978
▁novices	-12979
▁nursery	-12980
▁objects	-12981
▁obscene	-12982
▁omitted	-12983
▁outcast	-12984
▁parsley	-12985
▁peaches	-12986
▁pedlars	-12987
▁peepeth	-12988
▁peereth	-12989
▁peering	-12990
▁penetra	-12991
▁perdona	-12992
▁perdura	-12993
▁picking	-12994
▁pierced	-12995
▁pillars	-12996
▁pillory	-12997
▁plagued	-12998
▁planets	-12999
▁Ign	-13000
abris	-13001
gical	-13002
gnost	-13003
▁bonf	-13004
bitten	-13005
coming	-13006
flayed	-13007
olical	-13008
seller	-13009
▁Clean	-13010
▁Clear	-13011
▁Kneel	-13012
▁Scrat	-13013
▁Tinct	-13014
▁moods	-13015
▁napes	-13016
▁splay	-13017
▁splin	-13018
▁warns	-13019
bearing	-13020
bolical	-13021
estical	-13022
iterran	-13023
meaning	-13024
mongers	-13025
plotted	-13026
uddenly	-13027
usewife	-13028
▁Crying	-13029
▁Furies	-13030
▁Ignomy	-13031
▁Nearer	-13032
▁Whiter	-13033
▁bucket	-13034
▁costly	-13035
▁debile	-13036
▁decked	-13037
▁enfold	-13038
▁knotty	-13039
▁magnif	-13040
▁messes	-13041
▁splits	-13042
▁velure	-13043
▁volupt	-13044
▁widens	-13045
▁yarely	-13046
allabris	-13047
iterrane	-13048
onstrain	-13049
▁Curster	-13050
▁Himself	-13051
▁blotted	-13052
▁buckled	-13053
▁curtail	-13054
▁extinct	-13055
▁fawning	-13056
▁pirates	-13057
▁plentif	-13058
▁pockets	-13059
▁porring	-13060
▁precurs	-13061
▁preferr	-13062
▁progeny	-13063
▁prudent	-13064
▁psalter	-13065
▁pugging	-13066
▁quinces	-13067
▁racking	-13068
▁rainbow	-13069
▁renders	-13070
▁reverse	-13071
▁reverso	-13072
▁richest	-13073
▁riddles	-13074
▁robbing	-13075
▁rougher	-13076
▁rubbish	-13077
▁rudesby	-13078
▁ruffian	-13079
▁rumours	-13080
▁rupture	-13081
▁saddles	-13082
▁savoury	-13083
▁scraped	-13084
▁screech	-13085
▁seduced	-13086
▁serpigo	-13087
▁sheathe	-13088
▁shrived	-13089
▁shrouds	-13090
▁simples	-13091
▁simplic	-13092
▁skilful	-13093
▁slights	-13094
▁sluiced	-13095
▁smilest	-13096
▁soothed	-13097
▁sourest	-13098
▁spaniel	-13099
▁Slys	-13100
▁miry	-13101
▁oaks	-13102
charge	-13103
gative	-13104
▁hilts	-13105
▁portc	-13106
▁potch	-13107
▁salut	-13108
▁snowy	-13109
▁unele	-13110
▁wrung	-13111
fathers	-13112
iculate	-13113
igested	-13114
ivative	-13115
ouchsaf	-13116
▁Charge	-13117
▁Kindly	-13118
▁Minerv	-13119
▁Minion	-13120
▁aching	-13121
▁beguil	-13122
▁cherry	-13123
▁cherub	-13124
▁helmet	-13125
▁horsed	-13126
▁inquis	-13127
▁naming	-13128
▁rarely	-13129
▁rustle	-13130
▁salter	-13131
▁splend	-13132
ervative	-13133
▁Confirm	-13134
▁Minerva	-13135
▁Seeming	-13136
▁appeals	-13137
▁aptness	-13138
▁crafted	-13139
▁portent	-13140
▁pricked	-13141
▁redeems	-13142
▁resists	-13143
▁roaming	-13144
▁spawned	-13145
▁spectac	-13146
▁spleens	-13147
▁spokest	-13148
▁stagger	-13149
▁starkly	-13150
▁steaded	-13151
▁steeled	-13152
▁studded	-13153
▁subdues	-13154
▁suggest	-13155
▁summons	-13156
▁sunders	-13157
▁superst	-13158
▁surmise	-13159
▁sustain	-13160
▁swooned	-13161
▁sworest	-13162
▁taverns	-13163
▁teaches	-13164
▁terrors	-13165
▁thicket	-13166
▁thrifts	-13167
▁tinkers	-13168
▁topsail	-13169
▁totally	-13170
▁touched	-13171
▁trimmed	-13172
▁trovato	-13173
▁tugging	-13174
▁turtles	-13175
▁twinkle	-13176
▁twisted	-13177
▁unbegot	-13178
▁unblown	-13179
▁unbuild	-13180
▁undoubt	-13181
▁unfolds	-13182
▁unhorse	-13183
▁unloads	-13184
▁unmusic	-13185
▁unscarr	-13186
▁unscour	-13187
▁unstaid	-13188
▁unsworn	-13189
▁unwares	-13190
▁usuries	-13191
▁valleys	-13192
▁varlets	-13193
▁vassals	-13194
▁vesture	-13195
▁vouched	-13196
▁vulgars	-13197
▁waddled	-13198
▁wakened	-13199
ibel	-13200
zzle	-13201
▁Hob	-13202
▁syc	-13203
▁syn	-13204
▁zod	-13205
cuing	-13206
dowry	-13207
ibans	-13208
ipped	-13209
ipple	-13210
raded	-13211
unuch	-13212
▁Foes	-13213
▁doxy	-13214
▁muzz	-13215
Though	-13216
aribel	-13217
eaters	-13218
riages	-13219
▁Accom	-13220
▁Unlaw	-13221
▁Water	-13222
▁cases	-13223
▁pages	-13224
▁sycam	-13225
▁synod	-13226
▁troll	-13227
▁waxes	-13228
▁zodia	-13229
ederary	-13230
ontroll	-13231
prising	-13232
rolling	-13233
▁Accord	-13234
▁Accuse	-13235
▁Broach	-13236
▁Canker	-13237
▁Depose	-13238
▁Mildly	-13239
▁Proser	-13240
▁Smiles	-13241
▁advert	-13242
▁broker	-13243
▁coffer	-13244
▁enroll	-13245
▁eunuch	-13246
▁exclam	-13247
▁goaded	-13248
▁havior	-13249
▁hipped	-13250
▁lonely	-13251
▁nipple	-13252
▁weeder	-13253
▁zodiac	-13254
▁Accords	-13255
▁Exceeds	-13256
▁Proserp	-13257
▁dresser	-13258
▁drizzle	-13259
▁muzzled	-13260
▁revolts	-13261
▁satiety	-13262
▁seasons	-13263
▁stamped	-13264
▁wanders	-13265
▁warrior	-13266
▁waverer	-13267
▁wearers	-13268
▁winking	-13269
▁woollen	-13270
▁yellows	-13271
▁zealous	-13272
▁zodiacs	-13273
Stratford	-13274
achieving	-13275
appearing	-13276
conceived	-13277
deafening	-13278
deserving	-13279
entivolii	-13280
hardening	-13281
haritable	-13282
interpret	-13283
meritable	-13284
onouncing	-13285
onsidered	-13286
onstrance	-13287
ossessing	-13288
pothecary	-13289
raybeards	-13290
revocable	-13291
rindstone	-13292
whistling	-13293
▁Advantag	-13294
▁Advocate	-13295
▁Affright	-13296
▁Allaying	-13297
▁Allowing	-13298
▁Approach	-13299
brey	-13300
luce	-13301
skin	-13302
welt	-13303
poral	-13304
▁Berg	-13305
▁Berm	-13306
▁ensn	-13307
graced	-13308
recked	-13309
▁Brach	-13310
▁Brags	-13311
▁Dwelt	-13312
▁Exped	-13313
▁apric	-13314
▁chats	-13315
▁chatt	-13316
▁dribb	-13317
▁drier	-13318
▁globe	-13319
▁kerns	-13320
▁spurr	-13321
▁squir	-13322
liances	-13323
▁Aubrey	-13324
▁Bergam	-13325
▁Braved	-13326
▁Ghosts	-13327
▁Scales	-13328
▁Supper	-13329
▁blades	-13330
▁bodkin	-13331
▁drives	-13332
▁ingots	-13333
▁sprite	-13334
▁squash	-13335
▁squier	-13336
▁Bergamo	-13337
▁Bermoot	-13338
▁Berwick	-13339
▁Players	-13340
▁Scandal	-13341
▁Wrecked	-13342
▁burying	-13343
▁digging	-13344
▁figures	-13345
▁furnace	-13346
▁islands	-13347
▁murrain	-13348
▁offered	-13349
▁refrain	-13350
▁riotous	-13351
▁smooths	-13352
▁sucking	-13353
▁Assemble	-13354
▁Bequeath	-13355
▁Bonville	-13356
▁Bordeaux	-13357
▁Breaking	-13358
▁Bretagne	-13359
▁Business	-13360
▁Calibans	-13361
▁Caucasus	-13362
▁Claribel	-13363
▁Condemns	-13364
▁Confound	-13365
▁Construe	-13366
▁Contempt	-13367
▁Cotswold	-13368
▁Countess	-13369
▁Courtney	-13370
▁Darraign	-13371
▁Defiance	-13372
▁Deposing	-13373
▁Divinely	-13374
▁Dreaming	-13375
▁Dunsmore	-13376
▁Familiar	-13377
▁Flanders	-13378
▁Forewarn	-13379
▁Golgotha	-13380
▁Gramercy	-13381
▁Howlings	-13382
▁Hyrcania	-13383
▁Imprison	-13384
▁Infusing	-13385
▁Insolent	-13386
▁Instinct	-13387
▁Lombardy	-13388
▁Manifest	-13389
▁Mariners	-13390
▁Measured	-13391
▁Measures	-13392
▁Menelaus	-13393
▁Misguide	-13394
▁Olympian	-13395
▁Opposing	-13396
▁Piercing	-13397
▁Procures	-13398
▁Prodigal	-13399
atica	-13400
hests	-13401
whate	-13402
whelp	-13403
▁Appl	-13404
gorged	-13405
riatic	-13406
▁Leads	-13407
▁Minos	-13408
▁Moved	-13409
▁Remit	-13410
▁grubs	-13411
▁maims	-13412
▁oddly	-13413
▁skyey	-13414
▁slays	-13415
▁tapst	-13416
▁ungen	-13417
▁vexed	-13418
actions	-13419
bsolute	-13420
courage	-13421
emnants	-13422
idences	-13423
▁Commun	-13424
▁Remain	-13425
▁Remove	-13426
▁Retain	-13427
▁Retire	-13428
▁Takest	-13429
▁concer	-13430
▁concub	-13431
▁concup	-13432
▁quarts	-13433
▁tapers	-13434
▁tapest	-13435
▁tested	-13436
▁unmoan	-13437
▁vaulty	-13438
lication	-13439
unctions	-13440
▁Applaud	-13441
▁Beloved	-13442
▁Favours	-13443
▁Spakest	-13444
▁Whisper	-13445
▁behalfs	-13446
▁behests	-13447
▁concord	-13448
▁daggers	-13449
▁disguis	-13450
▁hazards	-13451
▁immured	-13452
▁lodgers	-13453
▁mainten	-13454
▁meteors	-13455
▁newborn	-13456
▁repeals	-13457
▁sinking	-13458
▁spakest	-13459
▁strewed	-13460
▁thrifty	-13461
▁ungenit	-13462
▁withdra	-13463
▁Absolute	-13464
▁Adriatic	-13465
▁Apparent	-13466
▁Properly	-13467
▁Refusing	-13468
▁Remnants	-13469
▁Repented	-13470
▁Reprieve	-13471
▁Requires	-13472
▁Revenged	-13473
▁Riddling	-13474
▁Scorning	-13475
▁Seducing	-13476
▁Sinfully	-13477
▁Sixscore	-13478
▁Skulking	-13479
▁Sleeping	-13480
▁Soldiers	-13481
▁Somewhat	-13482
▁Subjects	-13483
▁Suddenly	-13484
▁Sugarsop	-13485
▁Supplied	-13486
▁Swarming	-13487
▁Teaching	-13488
▁Thorough	-13489
▁Tickling	-13490
▁Tincture	-13491
▁Torments	-13492
▁Trembled	-13493
▁Uncharit	-13494
▁Unpeople	-13495
▁Unseemly	-13496
▁Unwieldy	-13497
▁Vagabond	-13498
▁Valentin	-13499
woe	-13500
ysm	-13501
?--'	-13502
Scape	-13503
large	-13504
larum	-13505
lical	-13506
▁Naps	-13507
▁feeb	-13508
▁flea	-13509
▁paly	-13510
Maries	-13511
idency	-13512
ipping	-13513
isping	-13514
ormity	-13515
racian	-13516
reased	-13517
▁abysm	-13518
▁bases	-13519
▁basin	-13520
▁basis	-13521
▁debts	-13522
▁louts	-13523
blesome	-13524
fitable	-13525
ropping	-13526
▁Prefer	-13527
▁Report	-13528
▁Rights	-13529
▁basest	-13530
▁budget	-13531
▁feebly	-13532
▁flouts	-13533
▁frolic	-13534
▁hunted	-13535
▁misses	-13536
▁plumes	-13537
▁portly	-13538
▁swerve	-13539
▁unsafe	-13540
▁Angelic	-13541
▁Grecian	-13542
▁Nourish	-13543
▁budding	-13544
▁bussing	-13545
▁carping	-13546
▁chasing	-13547
▁enlarge	-13548
▁fleeter	-13549
▁heaping	-13550
▁limping	-13551
▁lisping	-13552
▁wolvish	-13553
▁woodman	-13554
▁wrecked	-13555
devouring	-13556
▁Angelica	-13557
▁Dropping	-13558
▁Thracian	-13559
▁Valentio	-13560
▁Villains	-13561
▁Vitravio	-13562
▁abhorred	-13563
▁absolved	-13564
▁abstains	-13565
▁abstract	-13566
▁adjudged	-13567
▁afflicts	-13568
▁altitude	-13569
▁amazedly	-13570
▁ambuscad	-13571
▁ancestor	-13572
▁apoplexy	-13573
▁attempts	-13574
▁avouches	-13575
▁becomest	-13576
▁becoming	-13577
▁beguiles	-13578
▁bemoiled	-13579
▁bereaved	-13580
▁bescreen	-13581
▁bestowed	-13582
▁bladders	-13583
▁bondmaid	-13584
▁bonfires	-13585
▁bonneted	-13586
▁bowsprit	-13587
▁brandish	-13588
▁breaches	-13589
▁breeches	-13590
▁buzzards	-13591
▁calmness	-13592
▁canopies	-13593
▁catching	-13594
▁celerity	-13595
▁chapless	-13596
▁cheapest	-13597
▁cherubim	-13598
▁chopping	-13599
▁Pu	-13600
dead	-13601
hung	-13602
tack	-13603
unci	-13604
unge	-13605
▁jun	-13606
clasp	-13607
endix	-13608
esies	-13609
llown	-13610
manly	-13611
oteus	-13612
ptent	-13613
quean	-13614
quick	-13615
seven	-13616
stick	-13617
unged	-13618
uties	-13619
▁Char	-13620
▁Coin	-13621
▁Foot	-13622
▁NICH	-13623
▁News	-13624
▁Publ	-13625
▁Soon	-13626
▁Spir	-13627
▁Tire	-13628
▁diam	-13629
▁dote	-13630
▁garb	-13631
▁junk	-13632
▁marj	-13633
▁spun	-13634
▁tard	-13635
estick	-13636
hungry	-13637
igness	-13638
isance	-13639
orters	-13640
pensed	-13641
purcha	-13642
sticks	-13643
▁Cease	-13644
▁bawds	-13645
▁beest	-13646
▁clapp	-13647
▁consp	-13648
▁diale	-13649
▁flote	-13650
▁heapt	-13651
▁honor	-13652
▁joins	-13653
▁quote	-13654
▁spire	-13655
▁tough	-13656
▁truce	-13657
▁truck	-13658
▁twist	-13659
▁usure	-13660
altiers	-13661
cluding	-13662
eisance	-13663
quicken	-13664
▁NICHOL	-13665
▁Public	-13666
▁blamed	-13667
▁denote	-13668
▁duties	-13669
▁egally	-13670
▁flamed	-13671
▁marjor	-13672
▁plunge	-13673
▁stayed	-13674
llowness	-13675
▁Charges	-13676
▁Intents	-13677
▁Plunged	-13678
▁Proteus	-13679
▁Spirits	-13680
▁Unclasp	-13681
▁abusing	-13682
▁denunci	-13683
▁dialect	-13684
▁diamond	-13685
▁easiest	-13686
▁fiddler	-13687
▁hooting	-13688
▁junkets	-13689
▁plebeii	-13690
▁septent	-13691
▁tardied	-13692
▁truckle	-13693
▁unswept	-13694
▁usurers	-13695
purchased	-13696
▁NICHOLAS	-13697
▁Saltiers	-13698
▁appendix	-13699
spe	-13700
▁Ju	-13701
Hell	-13702
down	-13703
eppe	-13704
erce	-13705
oice	-13706
orum	-13707
▁Bum	-13708
▁Edm	-13709
▁cue	-13710
▁hue	-13711
▁mio	-13712
▁ris	-13713
etter	-13714
icely	-13715
llity	-13716
ority	-13717
ostle	-13718
sward	-13719
▁Born	-13720
▁July	-13721
▁Prep	-13722
▁gnat	-13723
▁gogs	-13724
▁mose	-13725
▁pref	-13726
▁sage	-13727
▁trop	-13728
better	-13729
icence	-13730
indful	-13731
reshly	-13732
terity	-13733
▁Fated	-13734
▁Maint	-13735
▁Voice	-13736
▁abbot	-13737
▁agile	-13738
▁award	-13739
▁delic	-13740
▁embro	-13741
▁madst	-13742
▁outra	-13743
▁peppe	-13744
▁prope	-13745
▁prost	-13746
▁risen	-13747
▁saith	-13748
▁tripp	-13749
▁unwas	-13750
xterity	-13751
▁Cicely	-13752
▁Edmund	-13753
▁Saying	-13754
▁amerce	-13755
▁fasten	-13756
▁meanly	-13757
▁trophy	-13758
aspiring	-13759
speeding	-13760
uthority	-13761
▁Freshly	-13762
▁apostle	-13763
▁decorum	-13764
▁divides	-13765
▁harness	-13766
▁jollity	-13767
▁lapsing	-13768
▁offends	-13769
▁prefers	-13770
▁statute	-13771
▁Counting	-13772
▁Keepdown	-13773
▁breather	-13774
▁caroused	-13775
▁charging	-13776
▁clangour	-13777
▁cleaving	-13778
▁clogging	-13779
▁colliers	-13780
▁coloured	-13781
▁combless	-13782
▁concupis	-13783
▁conflict	-13784
▁consists	-13785
▁controll	-13786
▁corporal	-13787
▁corrects	-13788
▁covenant	-13789
▁covetous	-13790
▁coxcombs	-13791
▁cozeners	-13792
▁crickets	-13793
▁dallying	-13794
▁darkened	-13795
▁deafness	-13796
▁degraded	-13797
▁desirers	-13798
▁desolate	-13799
--'	-13800
div	-13801
oci	-13802
zel	-13803
Look	-13804
deep	-13805
gawd	-13806
isel	-13807
name	-13808
nger	-13809
oves	-13810
uish	-13811
▁hug	-13812
▁jet	-13813
ciant	-13814
eaves	-13815
elous	-13816
eties	-13817
found	-13818
purse	-13819
▁Hook	-13820
▁Sole	-13821
▁Subt	-13822
▁Took	-13823
▁abre	-13824
▁hale	-13825
▁jour	-13826
▁nook	-13827
▁quen	-13828
▁tick	-13829
Simois	-13830
gawded	-13831
ociate	-13832
otcher	-13833
petual	-13834
reator	-13835
▁Anger	-13836
▁Dares	-13837
▁fairy	-13838
▁havoc	-13839
▁justs	-13840
▁lozel	-13841
▁prose	-13842
▁rumou	-13843
omeness	-13844
quering	-13845
utelous	-13846
▁Subtly	-13847
▁chisel	-13848
▁hearty	-13849
▁priore	-13850
bedience	-13851
divining	-13852
jectural	-13853
someness	-13854
▁Creator	-13855
▁Hooking	-13856
▁Torment	-13857
▁Whereat	-13858
▁abreast	-13859
▁adheres	-13860
▁botcher	-13861
▁cleanly	-13862
▁faciant	-13863
▁hearten	-13864
▁prosely	-13865
▁removes	-13866
▁strives	-13867
▁taunted	-13868
▁whatsoe	-13869
▁whereby	-13870
negligent	-13871
▁Purchase	-13872
▁arriving	-13873
▁conserve	-13874
▁detected	-13875
▁diamonds	-13876
▁diligent	-13877
▁disbench	-13878
▁disliken	-13879
▁dislikes	-13880
▁disobeys	-13881
▁disquiet	-13882
▁dissembl	-13883
▁distaffs	-13884
▁distrain	-13885
▁divideth	-13886
▁divinest	-13887
▁doomsday	-13888
▁dumbness	-13889
▁eighteen	-13890
▁eloquent	-13891
▁empoison	-13892
▁enclosed	-13893
▁enduring	-13894
▁entirely	-13895
▁epitaphs	-13896
▁evermore	-13897
▁exacting	-13898
▁expiring	-13899
ppa	-13900
dure	-13901
hipp	-13902
mate	-13903
orst	-13904
rapp	-13905
renz	-13906
▁Cho	-13907
▁Yon	-13908
▁gig	-13909
▁hog	-13910
▁swo	-13911
▁unr	-13912
build	-13913
chequ	-13914
ecost	-13915
eeded	-13916
hippe	-13917
odest	-13918
renzy	-13919
rippa	-13920
▁Bond	-13921
▁Fate	-13922
▁Hall	-13923
▁edif	-13924
▁enra	-13925
▁gigl	-13926
▁lopp	-13927
▁lull	-13928
▁mate	-13929
▁opin	-13930
▁rebu	-13931
▁slop	-13932
▁unqu	-13933
▁usur	-13934
▁wren	-13935
alling	-13936
amazed	-13937
estate	-13938
needed	-13939
ressel	-13940
ummate	-13941
versed	-13942
▁Barth	-13943
▁Craft	-13944
▁Grant	-13945
▁Seest	-13946
▁Stain	-13947
▁Start	-13948
▁Tends	-13949
▁Whipp	-13950
▁Worst	-13951
▁Wrapp	-13952
▁allig	-13953
▁arrow	-13954
▁cours	-13955
▁hares	-13956
▁porri	-13957
▁refus	-13958
▁unbur	-13959
▁unroo	-13960
▁wrens	-13961
chequed	-13962
▁Choler	-13963
▁arbitr	-13964
▁badest	-13965
▁frenzy	-13966
▁holier	-13967
▁leases	-13968
▁linens	-13969
▁manure	-13970
▁marked	-13971
▁surges	-13972
▁swoons	-13973
anthippe	-13974
building	-13975
▁Agrippa	-13976
▁Barthol	-13977
▁Bondage	-13978
▁Depress	-13979
▁Sailing	-13980
▁Tressel	-13981
▁differs	-13982
▁drybeat	-13983
▁enraged	-13984
▁giglots	-13985
▁imagery	-13986
▁lullaby	-13987
▁nations	-13988
▁placket	-13989
▁rebukes	-13990
▁refusal	-13991
▁surgeon	-13992
▁unburnt	-13993
▁unroost	-13994
▁usurper	-13995
▁verdure	-13996
warranted	-13997
▁coursers	-13998
▁edifices	-13999
aol	-14000
auf	-14001
▁ju	-14002
Wind	-14003
bbit	-14004
dost	-14005
leaf	-14006
ndar	-14007
ondu	-14008
orus	-14009
rann	-14010
▁Hec	-14011
▁Hew	-14012
▁Hol	-14013
▁Tro	-14014
▁que	-14015
ARDEN	-14016
aufry	-14017
condu	-14018
inder	-14019
plant	-14020
▁Fled	-14021
▁Heat	-14022
▁Lawn	-14023
▁Seem	-14024
▁bags	-14025
▁cutt	-14026
▁gout	-14027
▁hats	-14028
▁hest	-14029
▁jugs	-14030
▁tool	-14031
allant	-14032
raymen	-14033
▁Hecub	-14034
▁Preys	-14035
▁Rouse	-14036
▁Troil	-14037
▁Whoop	-14038
▁foren	-14039
▁hests	-14040
▁patch	-14041
▁queas	-14042
▁unear	-14043
ARDENER	-14044
alendar	-14045
elieved	-14046
ernible	-14047
gallant	-14048
imaufry	-14049
iterate	-14050
itively	-14051
leather	-14052
pective	-14053
▁Chorus	-14054
▁Hecuba	-14055
▁Repeal	-14056
▁Tyrann	-14057
▁alarms	-14058
▁engaol	-14059
▁rabbit	-14060
▁sicker	-14061
▁tinder	-14062
alicious	-14063
sitively	-14064
upturned	-14065
▁Gallows	-14066
▁Holborn	-14067
▁Troilus	-14068
▁Valiant	-14069
▁dallies	-14070
▁defiled	-14071
▁draymen	-14072
▁pouring	-14073
▁stoutly	-14074
▁unearth	-14075
▁Displant	-14076
▁GARDENER	-14077
▁bereaves	-14078
▁calendar	-14079
▁factions	-14080
▁falconer	-14081
▁fatigate	-14082
▁feathers	-14083
▁federary	-14084
▁feebling	-14085
▁ferryman	-14086
▁figuring	-14087
▁finished	-14088
▁flatness	-14089
▁fleeting	-14090
▁flowered	-14091
▁forcible	-14092
▁forecast	-14093
▁forefend	-14094
▁forenoon	-14095
▁forgiven	-14096
▁freedoms	-14097
▁freelier	-14098
▁gainsays	-14099
emy	-14100
ici	-14101
uma	-14102
atry	-14103
dong	-14104
eban	-14105
emir	-14106
emon	-14107
even	-14108
foes	-14109
icut	-14110
kein	-14111
mout	-14112
oric	-14113
oult	-14114
▁Cic	-14115
▁Hic	-14116
▁gem	-14117
▁hic	-14118
▁mic	-14119
▁myr	-14120
ebank	-14121
enemy	-14122
icipl	-14123
toric	-14124
▁Dive	-14125
▁Numa	-14126
▁Ties	-14127
▁gems	-14128
▁goat	-14129
▁lout	-14130
▁proc	-14131
▁robs	-14132
▁spic	-14133
emiram	-14134
icutic	-14135
lipsed	-14136
odemon	-14137
olatry	-14138
onging	-14139
▁boxes	-14140
▁goble	-14141
▁lames	-14142
▁micro	-14143
▁poult	-14144
▁skein	-14145
▁surge	-14146
▁wails	-14147
artness	-14148
clipsed	-14149
dispers	-14150
itulate	-14151
mouthed	-14152
perform	-14153
▁Lately	-14154
▁Uneven	-14155
▁billet	-14156
▁dicipl	-14157
▁lining	-14158
▁microc	-14159
▁myrtle	-14160
▁perils	-14161
▁pheeze	-14162
▁safest	-14163
▁trance	-14164
▁unkiss	-14165
acodemon	-14166
emiramis	-14167
iricutic	-14168
▁Strives	-14169
▁courted	-14170
▁goblets	-14171
▁nostril	-14172
▁showest	-14173
▁spicery	-14174
▁trebles	-14175
▁whereat	-14176
▁Cicester	-14177
▁Cushions	-14178
▁Speakest	-14179
▁billeted	-14180
▁eclipsed	-14181
▁fortress	-14182
▁gamesome	-14183
▁glisters	-14184
▁gnarling	-14185
▁goodlier	-14186
▁gossamer	-14187
▁grinning	-14188
▁grudging	-14189
▁happened	-14190
▁harlotry	-14191
▁hatching	-14192
▁heighten	-14193
▁herdsman	-14194
▁heretics	-14195
▁hoarding	-14196
▁honorato	-14197
▁hostages	-14198
▁hovering	-14199
URS	-14200
▁La	-14201
Fine	-14202
URSE	-14203
bler	-14204
bone	-14205
brow	-14206
grow	-14207
mish	-14208
ntly	-14209
odor	-14210
ruck	-14211
umbl	-14212
zure	-14213
▁aub	-14214
▁bor	-14215
▁gos	-14216
▁row	-14217
amemn	-14218
▁Bend	-14219
▁Crow	-14220
▁Inch	-14221
▁Wine	-14222
▁amid	-14223
▁atom	-14224
▁flex	-14225
▁mann	-14226
▁mans	-14227
▁unan	-14228
lemish	-14229
▁Crowd	-14230
▁NURSE	-14231
▁comed	-14232
▁heath	-14233
▁sects	-14234
amemnon	-14235
growing	-14236
horsing	-14237
racting	-14238
umblest	-14239
▁Awakes	-14240
▁Fouler	-14241
▁Recoil	-14242
▁Struck	-14243
▁auburn	-14244
▁boiled	-14245
▁boring	-14246
▁comedy	-14247
▁lanced	-14248
▁oftent	-14249
▁orient	-14250
▁portal	-14251
▁razure	-14252
▁settle	-14253
odations	-14254
▁Blemish	-14255
▁atomies	-14256
▁bawcock	-14257
▁escapes	-14258
▁feature	-14259
▁gosling	-14260
▁humbler	-14261
▁strings	-14262
▁unmanly	-14263
modations	-14264
sorrowing	-14265
▁Chaplain	-14266
▁flexible	-14267
▁humanely	-14268
▁husewife	-14269
▁hypocris	-14270
▁idleness	-14271
▁immodest	-14272
▁imposter	-14273
▁impotent	-14274
▁industry	-14275
▁inherits	-14276
▁inspired	-14277
▁invested	-14278
▁jaunting	-14279
▁journeys	-14280
▁kitchens	-14281
▁lavender	-14282
▁magician	-14283
▁manifold	-14284
▁marcheth	-14285
▁marjoram	-14286
▁masquing	-14287
▁meddling	-14288
▁meekness	-14289
▁meetings	-14290
▁messages	-14291
▁milkmaid	-14292
▁milliner	-14293
▁mingling	-14294
▁miracles	-14295
▁mirthful	-14296
▁miscarry	-14297
▁misdeeds	-14298
▁mitigate	-14299
cit	-14300
dic	-14301
gon	-14302
psy	-14303
vul	-14304
▁Dr	-14305
▁PH	-14306
asta	-14307
elsa	-14308
kine	-14309
loss	-14310
olas	-14311
ulse	-14312
when	-14313
▁ber	-14314
▁kil	-14315
▁upb	-14316
▁upl	-14317
cerns	-14318
estor	-14319
onimy	-14320
stall	-14321
start	-14322
▁Port	-14323
▁Wast	-14324
▁goal	-14325
▁kiln	-14326
▁mall	-14327
▁mant	-14328
▁spru	-14329
cholas	-14330
ightst	-14331
lossom	-14332
rowess	-14333
unjust	-14334
vulner	-14335
▁Basta	-14336
▁Betid	-14337
▁Drink	-14338
▁Fight	-14339
▁PHILI	-14340
▁Stony	-14341
▁agent	-14342
▁celsa	-14343
▁facit	-14344
▁gipsy	-14345
▁kinds	-14346
▁laced	-14347
▁quant	-14348
▁smote	-14349
▁tames	-14350
▁unbra	-14351
▁upbra	-14352
aphysic	-14353
icholas	-14354
mightst	-14355
▁Fights	-14356
▁Gallop	-14357
▁Nestor	-14358
▁PHILIP	-14359
▁Raised	-14360
▁Supply	-14361
▁Wedges	-14362
▁bating	-14363
▁helper	-14364
▁instit	-14365
▁predic	-14366
▁refell	-14367
▁spruce	-14368
▁uplift	-14369
▁waggon	-14370
▁warped	-14371
aphysics	-14372
iguities	-14373
sickness	-14374
▁Betroth	-14375
▁Blossom	-14376
▁Partake	-14377
▁berries	-14378
▁joyless	-14379
▁mallows	-14380
▁mantled	-14381
▁miscall	-14382
▁prowess	-14383
▁quitted	-14384
▁repulse	-14385
▁smatter	-14386
▁snapper	-14387
▁upstart	-14388
▁vapours	-14389
▁Drinking	-14390
▁Gracious	-14391
▁Jeronimy	-14392
▁Nicholas	-14393
▁Penelope	-14394
▁cardinal	-14395
▁chancell	-14396
▁muscadel	-14397
▁mutiners	-14398
▁necklace	-14399
ERV	-14400
▁va	-14401
That	-14402
from	-14403
hole	-14404
holy	-14405
vets	-14406
year	-14407
▁FOR	-14408
▁Wol	-14409
▁peg	-14410
▁pho	-14411
▁til	-14412
llens	-14413
mance	-14414
olumn	-14415
▁Bina	-14416
▁Lent	-14417
▁Prom	-14418
▁SERV	-14419
▁Wind	-14420
▁beth	-14421
▁dice	-14422
almost	-14423
hinged	-14424
llowed	-14425
ptuous	-14426
▁Alive	-14427
▁Windy	-14428
▁adage	-14429
▁brisk	-14430
▁phoen	-14431
▁plats	-14432
▁unbar	-14433
▁waged	-14434
olumnia	-14435
othered	-14436
rovided	-14437
▁Binaca	-14438
▁German	-14439
▁Pierce	-14440
▁Wolves	-14441
▁attire	-14442
▁bearts	-14443
▁covets	-14444
▁pushes	-14445
▁shares	-14446
▁spoons	-14447
▁tilter	-14448
▁unholy	-14449
▁vaward	-14450
formance	-14451
provided	-14452
▁Commune	-14453
▁Germans	-14454
▁SERVING	-14455
▁cozened	-14456
▁invited	-14457
▁phoenix	-14458
▁prelate	-14459
▁sullens	-14460
▁Volumnia	-14461
▁bulwarks	-14462
▁coldness	-14463
▁hallowed	-14464
▁nuptials	-14465
▁nutshell	-14466
▁observed	-14467
▁observer	-14468
▁official	-14469
▁opportun	-14470
▁ordained	-14471
▁outdares	-14472
▁outgrown	-14473
▁outrages	-14474
▁outstrip	-14475
▁overflow	-14476
▁overgone	-14477
▁overmuch	-14478
▁overpeer	-14479
▁overtake	-14480
▁paramour	-14481
▁perilous	-14482
▁picklock	-14483
▁pittance	-14484
▁plaining	-14485
▁planched	-14486
▁pleaders	-14487
▁portance	-14488
▁poultice	-14489
▁powdered	-14490
▁precepts	-14491
▁prefixed	-14492
▁presages	-14493
▁prioress	-14494
▁privileg	-14495
▁procured	-14496
▁procures	-14497
▁profaned	-14498
▁prognost	-14499
':	-14500
Mar	-14501
fru	-14502
oni	-14503
▁Io	-14504
akef	-14505
nell	-14506
vies	-14507
▁Got	-14508
▁Som	-14509
▁suf	-14510
aways	-14511
blins	-14512
eaded	-14513
eller	-14514
illoa	-14515
merry	-14516
shipp	-14517
▁Asso	-14518
▁Fame	-14519
▁Head	-14520
▁Tear	-14521
▁Weak	-14522
▁curd	-14523
▁cust	-14524
▁fist	-14525
▁herb	-14526
▁loam	-14527
▁loan	-14528
▁poni	-14529
▁punt	-14530
ertake	-14531
fruits	-14532
ighted	-14533
iscate	-14534
oubled	-14535
ousing	-14536
rising	-14537
▁Flint	-14538
▁Joint	-14539
▁Sooth	-14540
▁Wakef	-14541
▁debat	-14542
▁filed	-14543
▁mater	-14544
▁prest	-14545
▁props	-14546
▁punto	-14547
▁rainy	-14548
▁tying	-14549
lflocks	-14550
pernell	-14551
vouched	-14552
▁Associ	-14553
▁Beauty	-14554
▁Dazzle	-14555
▁Hilloa	-14556
▁Labour	-14557
▁Somerv	-14558
▁belock	-14559
▁blazon	-14560
▁bodged	-14561
▁conies	-14562
▁levies	-14563
▁moated	-14564
▁recure	-14565
▁termed	-14566
Margaret	-14567
▁Dispute	-14568
▁Tidings	-14569
▁appeall	-14570
▁curdied	-14571
▁custard	-14572
▁goblins	-14573
▁herring	-14574
▁kneaded	-14575
▁thereat	-14576
▁undress	-14577
▁wildest	-14578
impernell	-14579
▁alighted	-14580
▁beautify	-14581
▁crueller	-14582
▁downward	-14583
▁elflocks	-14584
▁flatters	-14585
▁material	-14586
▁poniards	-14587
▁pressing	-14588
▁projects	-14589
▁prompter	-14590
▁properer	-14591
▁proselyt	-14592
▁proverbs	-14593
▁provokes	-14594
▁punishes	-14595
▁quaintly	-14596
▁quantity	-14597
▁quenched	-14598
▁rarities	-14599
ez	-14600
ht	-14601
dam	-14602
lod	-14603
amst	-14604
damn	-14605
epht	-14606
path	-14607
ream	-14608
▁Age	-14609
▁Das	-14610
▁Eve	-14611
▁Hot	-14612
▁Jes	-14613
▁dow	-14614
▁kam	-14615
▁sem	-14616
awdry	-14617
eased	-14618
ezans	-14619
heims	-14620
known	-14621
lague	-14622
ribut	-14623
rized	-14624
shown	-14625
urora	-14626
usest	-14627
vaunt	-14628
▁Besp	-14629
▁Dine	-14630
▁Spit	-14631
▁anti	-14632
▁bane	-14633
▁cand	-14634
▁muck	-14635
▁saff	-14636
▁seld	-14637
▁stif	-14638
▁toge	-14639
Plague	-14640
amston	-14641
ephtha	-14642
iltier	-14643
lodged	-14644
pposed	-14645
prized	-14646
▁CAIUS	-14647
▁Jesus	-14648
▁dowdy	-14649
▁haver	-14650
▁semic	-14651
ephthah	-14652
▁Aurora	-14653
▁Avaunt	-14654
▁Dashes	-14655
▁Rheims	-14656
▁Richly	-14657
▁actors	-14658
▁comely	-14659
▁godded	-14660
▁graven	-14661
▁lenten	-14662
▁swound	-14663
▁taller	-14664
▁tawdry	-14665
erthrows	-14666
ributors	-14667
supposed	-14668
▁Bespake	-14669
▁Ramston	-14670
▁Unknown	-14671
▁antique	-14672
▁candles	-14673
▁circumm	-14674
▁costard	-14675
▁crossed	-14676
▁fertile	-14677
▁heareth	-14678
▁mermaid	-14679
▁saffron	-14680
▁semicir	-14681
▁slewest	-14682
▁stifled	-14683
▁undream	-14684
▁unstoop	-14685
▁Guiltier	-14686
▁Jephthah	-14687
▁Tamworth	-14688
▁chastely	-14689
▁diseased	-14690
▁misusest	-14691
▁rattling	-14692
▁ravenous	-14693
▁reacheth	-14694
▁recourse	-14695
▁recovery	-14696
▁regarded	-14697
▁relieved	-14698
▁relished	-14699
yg	-14700
uls	-14701
ygm	-14702
agre	-14703
fear	-14704
part	-14705
quar	-14706
▁MOR	-14707
▁lib	-14708
▁org	-14709
▁tua	-14710
estim	-14711
hoped	-14712
iture	-14713
ndone	-14714
roved	-14715
sever	-14716
▁City	-14717
▁Duck	-14718
▁Pygm	-14719
▁Stra	-14720
▁beds	-14721
▁doll	-14722
▁mail	-14723
▁rudd	-14724
▁tuae	-14725
▁yest	-14726
annuls	-14727
▁MORTI	-14728
▁Sneak	-14729
▁bents	-14730
▁cough	-14731
▁defac	-14732
▁exult	-14733
▁freer	-14734
▁husks	-14735
▁rails	-14736
▁sakes	-14737
▁sheke	-14738
▁shent	-14739
▁shone	-14740
▁snarl	-14741
agation	-14742
erected	-14743
feather	-14744
▁MORTIM	-14745
▁Pleads	-14746
▁Quoint	-14747
▁Undone	-14748
▁Woodst	-14749
▁dollar	-14750
▁expose	-14751
▁libels	-14752
▁lunacy	-14753
▁meagre	-14754
▁organs	-14755
▁railer	-14756
▁sourly	-14757
llanders	-14758
quarters	-14759
▁Inestim	-14760
▁Retorts	-14761
▁defacer	-14762
▁shekels	-14763
▁unhoped	-14764
▁whitest	-14765
initively	-14766
▁MORTIMER	-14767
▁chattels	-14768
▁coughing	-14769
▁dissever	-14770
▁hawthorn	-14771
▁planteth	-14772
▁portcull	-14773
▁prudence	-14774
▁replying	-14775
▁rescuing	-14776
▁resemble	-14777
▁respites	-14778
▁reversed	-14779
▁rhetoric	-14780
▁riddling	-14781
▁rigorous	-14782
▁ripening	-14783
▁ruffians	-14784
▁sackbuts	-14785
▁saluteth	-14786
▁scalding	-14787
▁scatters	-14788
▁sceptres	-14789
▁sciatica	-14790
▁scraping	-14791
▁scruples	-14792
▁seedness	-14793
▁sequence	-14794
▁severals	-14795
▁severely	-14796
▁severest	-14797
▁shooting	-14798
▁shortens	-14799
bun	-14800
gel	-14801
god	-14802
tim	-14803
Will	-14804
arve	-14805
cken	-14806
flaw	-14807
godd	-14808
ifer	-14809
orch	-14810
▁tas	-14811
▁tir	-14812
astes	-14813
bound	-14814
erers	-14815
istly	-14816
iused	-14817
ostly	-14818
udgel	-14819
urril	-14820
▁Balk	-14821
[...]
