{"0": "<pad>", "1": "<unk>", "2": "<s>", "3": "</s>", "4": "[PAD]", "5": "[UNK]", "6": "[CLS]", "7": "[SEP]", "8": "\u2581t", "9": "he", "10": "\u2581a", "11": "ou", "12": "\u2581s", "13": "\u2581m", "14": "\u2581w", "15": "in", "16": "re", "17": "ha", "18": "\u2581the", "19": "nd", "20": "\u2581b", "21": "is", "22": "or", "23": "\u2581f", "24": "\u2581I", "25": "er", "26": "ll", "27": "it", "28": "on", "29": "\u2581d", "30": "\u2581c", "31": "\u2581n", "32": "\u2581l", "33": "\u2581y", "34": "es", "35": "en", "36": "\u2581th", "37": "ar", "38": "\u2581h", "39": "\u2581o", "40": "\u2581to", "41": "\u2581you", "42": "\u2581p", "43": "\u2581T", "44": "hat", "45": "\u2581A", "46": "\u2581he", "47": "st", "48": "ve", "49": "ot", "50": "\u2581and", "51": "ow", "52": "ing", "53": "\u2581of", "54": "an", "55": "om", "56": "\u2581g", "57": "at", "58": "\u2581be", "59": "\u2581W", "60": "se", "61": "\u2581my", "62": "\u2581in", "63": "\u2581ha", "64": "ce", "65": "le", "66": "ay", "67": "ld", "68": "ir", "69": "et", "70": "ed", "71": "ut", "72": "\u2581B", "73": "\u2581me", "74": "im", "75": "\u2581S", "76": "ith", "77": "\u2581not", "78": "\u2581H", "79": "ch", "80": "\u2581that", "81": "\u2581is", "82": "\u2581M", "83": "gh", "84": "\u2581And", "85": "\u2581for", "86": "\u2581u", "87": "ke", "88": "\u2581C", "89": "\u2581we", "90": "our", "91": "oo", "92": "ill", "93": "\u2581e", "94": "\u2581with", "95": "her", "96": "\u2581it", "97": "ent", "98": "\u2581your", "99": "ad", "100": "ri", "101": "\u2581O", "102": "\u2581thou", "103": "\u2581st", "104": "\u2581k", "105": "\u2581L", "106": "ome", "107": "\u2581his", "108": "\u2581F", "109": "\u2581G", "110": "ght", "111": "EN", "112": "ord", "113": "\u2581re", "114": "id", "115": "ra", "116": "\u2581The", "117": "\u2581have", "118": "\u2581him", "119": "IN", "120": "ly", "121": "\u2581li", "122": "as", "123": "\u2581P", "124": "\u2581this", "125": "ur", "126": "IO", "127": "al", "128": "\u2581so", "129": "\u2581as", "130": "\u2581de", "131": "\u2581on", "132": "\u2581R", "133": "ore", "134": "ro", "135": "\u2581N", "136": "hi", "137": "ould", "138": "ood", "139": "AR", "140": "ck", "141": "ain", "142": "ver", "143": "\u2581Y", "144": "est", "145": "\u2581sha", "146": "\u2581thy", "147": "ess", "148": "\u2581will", "149": "\u2581do", "150": "ea", "151": "\u2581no", "152": "am", "153": "\u2581E", "154": "\u2581but", "155": "\u2581D", "156": "us", "157": "\u2581se", "158": "US", "159": "if", "160": "\u2581'", "161": "ge", "162": "\u2581all", "163": "and", "164": "\u2581Th", "165": "\u2581su", "166": "ake", "167": "\u2581To", "168": "\u2581her", "169": "ru", "170": "ion", "171": "\u2581an", "172": "\u2581K", "173": "\u2581lo", "174": "ard", "175": "ter", "176": "han", "177": "\u2581sp", "178": "ell", "179": "ear", "180": "\u2581thee", "181": "\u2581fa", "182": "\u2581shall", "183": "\u2581our", "184": "\u2581by", "185": "th", "186": "UC", "187": "\u2581are", "188": "il", "189": "ING", "190": "\u2581ne", "191": "\u2581kn", "192": "rom", "193": "ho", "194": "\u2581v", "195": "\u2581That", "196": "ER", "197": "OR", "198": "ast", "199": "ct", "200": "ous", "201": "\u2581what", "202": "\u2581sh", "203": "ight", "204": "ul", "205": "ET", "206": "ant", "207": "\u2581up", "208": "sel", "209": "\u2581good", "210": "qu", "211": "\u2581But", "212": "art", "213": "row", "214": "ath", "215": "ine", "216": "\u2581com", "217": "\u2581mu", "218": "\u2581lord", "219": "hich", "220": "nt", "221": "\u2581pr", "222": "\u2581man", "223": "\u2581at", "224": "\u2581V", "225": "one", "226": "\u2581whe", "227": "\u2581con", "228": "\u2581What", "229": "\u2581am", "230": "end", "231": "ic", "232": "ES", "233": "ble", "234": "ry", "235": "ong", "236": "\u2581from", "237": "ie", "238": "\u2581she", "239": "\u2581bl", "240": "ive", "241": "ven", "242": "\u2581go", "243": "\u2581For", "244": "\u2581more", "245": "\u2581them", "246": "em", "247": "\u2581was", "248": "IC", "249": "out", "250": "au", "251": "\u2581sir", "252": "other", "253": "are", "254": "oth", "255": "ol", "256": "\u2581if", "257": "\u2581He", "258": "\u2581now", "259": "\u2581hat", "260": "\u2581there", "261": "\u2581would", "262": "AN", "263": "ost", "264": "\u2581know", "265": "\u2581can", "266": "LO", "267": "ind", "268": "ers", "269": "IUS", "270": "ep", "271": "self", "272": "ARD", "273": "\u2581say", "274": "\u2581KING", "275": "ather", "276": "ond", "277": "ate", "278": "res", "279": "fe", "280": "\u2581sw", "281": "\u2581here", "282": "\u2581love", "283": "\u2581their", "284": "\u2581My", "285": "\u2581or", "286": "\u2581than", "287": "\u2581br", "288": "pp", "289": "--", "290": "\u2581us", "291": "\u2581king", "292": "\u2581they", "293": "\u2581then", "294": "all", "295": "\u2581ar", "296": "od", "297": "\u2581let", "298": "\u2581un", "299": "ig", "300": "\u2581wor", "301": "ure", "302": "ink", "303": "\u2581may", "304": "hy", "305": "ame", "306": "\u2581come", "307": "fore", "308": "ort", "309": "\u2581As", "310": "\u2581qu", "311": "ook", "312": "\u2581well", "313": "el", "314": "ish", "315": "LI", "316": "\u2581Whe", "317": "\u2581j", "318": "KE", "319": "ves", "320": "\u2581one", "321": "\u2581hath", "322": "irst", "323": "\u2581make", "324": "\u2581You", "325": "\u2581gra", "326": "reat", "327": "ak", "328": "ng", "329": "\u2581must", "330": "gain", "331": "ound", "332": "\u2581were", "333": "\u2581ho", "334": "\u2581see", "335": "\u2581should", "336": "\u2581like", "337": "ci", "338": "\u2581pro", "339": "ue", "340": "eak", "341": "TIO", "342": "\u2581sa", "343": "ity", "344": "\u2581pl", "345": "\u2581mad", "346": "\u2581father", "347": "\u2581had", "348": "um", "349": "\u2581did", "350": "\u2581upon", "351": "OM", "352": "ime", "353": "pe", "354": "\u2581too", "355": "ice", "356": "ON", "357": "\u2581J", "358": "\u2581dis", "359": "ence", "360": "\u2581death", "361": "ward", "362": "\u2581which", "363": "\u2581en", "364": "\u2581If", "365": "ose", "366": "own", "367": "\u2581speak", "368": "\u2581po", "369": "\u2581when", "370": "ful", "371": "\u2581out", "372": "\u2581fri", "373": "\u2581how", "374": "entle", "375": "io", "376": "pt", "377": "un", "378": "ICH", "379": "\u2581again", "380": "\u2581RICH", "381": "\u2581tru", "382": "OL", "383": "de", "384": "UKE", "385": "\u2581DUKE", "386": "man", "387": "\u2581heart", "388": "\u2581yet", "389": "ick", "390": "\u2581hand", "391": "very", "392": "\u2581With", "393": "\u2581RICHARD", "394": "\u2581who", "395": "ENTIO", "396": "\u2581Thou", "397": "ign", "398": "\u2581We", "399": "\u2581some", "400": "ance", "401": "\u2581Which", "402": "\u2581hon", "403": "\u2581mar", "404": "nce", "405": "\u2581r", "406": "ies", "407": "\u2581In", "408": "\u2581son", "409": "ire", "410": "\u2581off", "411": "\u2581mine", "412": "ist", "413": "INC", "414": "\u2581al", "415": "ince", "416": "har", "417": "orn", "418": "ack", "419": "\u2581Why", "420": "wn", "421": "\u2581Of", "422": "\u2581God", "423": "EL", "424": "\u2581hea", "425": "\u2581such", "426": "\u2581time", "427": "oy", "428": "\u2581First", "429": "\u2581hear", "430": "\u2581So", "431": "ness", "432": "\u2581brother", "433": "ec", "434": "\u2581these", "435": "\u2581Cl", "436": "\u2581blood", "437": "\u2581ab", "438": "\u2581ex", "439": "ither", "440": "\u2581give", "441": "UE", "442": "\u2581fo", "443": "\u2581Is", "444": "\u2581No", "445": "\u2581day", "446": "\u2581ear", "447": "\u2581ro", "448": "\u2581look", "449": "\u2581think", "450": "\u2581II", "451": "\u2581How", "452": "\u2581life", "453": "\u2581tell", "454": "EST", "455": "ise", "456": "\u2581ey", "457": "AB", "458": "eet", "459": "\u2581where", "460": "UCH", "461": "\u2581take", "462": "\u2581word", "463": "oul", "464": "\u2581friend", "465": "\u2581Q", "466": "ther", "467": "\u2581This", "468": "ag", "469": "age", "470": "LOUC", "471": "\u2581des", "472": "ESTER", "473": "\u2581GLOUC", "474": "\u2581GLOUCESTER", "475": "ef", "476": "een", "477": "erv", "478": "\u2581Come", "479": "ady", "480": "ust", "481": "rown", "482": "\u2581gentle", "483": "ings", "484": "\u2581Lord", "485": "\u2581U", "486": "\u2581ri", "487": "urse", "488": "ave", "489": "RY", "490": "ase", "491": "\u2581Rome", "492": "tis", "493": "UEEN", "494": "\u2581art", "495": "\u2581lea", "496": "\u2581VINC", "497": "\u2581QUEEN", "498": "\u2581VINCENTIO", "499": "way", "500": "\u2581OF", "501": "\u2581war", "502": "\u2581most", "503": "\u2581honour", "504": "\u2581fl", "505": "\u2581Mar", "506": "\u2581much", "507": "UM", "508": "LAN", "509": "\u2581sl", "510": "\u2581Where", "511": "AM", "512": "urn", "513": "\u2581made", "514": "\u2581tw", "515": "ment", "516": "\u2581fear", "517": "\u2581hast", "518": "\u2581Now", "519": "\u2581Who", "520": "\u2581bet", "521": "ENRY", "522": "aught", "523": "\u2581HENRY", "524": "\u2581cou", "525": "\u2581great", "526": "\u2581Be", "527": "ber", "528": "not", "529": "\u2581bre", "530": "ved", "531": "\u2581never", "532": "\u2581new", "533": "\u2581fair", "534": "cc", "535": "ee", "536": "ss", "537": "\u2581af", "538": "ower", "539": "ap", "540": "igh", "541": "\u2581AN", "542": "\u2581men", "543": "itt", "544": "aster", "545": "orrow", "546": "\u2581Your", "547": "uke", "548": "\u2581It", "549": "iz", "550": "ough", "551": "ORK", "552": "\u2581YORK", "553": "\u2581any", "554": "\u2581call", "555": "\u2581part", "556": "\u2581Or", "557": "\u2581ra", "558": "ation", "559": "INIUS", "560": "ST", "561": "ide", "562": "ree", "563": "\u2581ad", "564": "\u2581comm", "565": "\u2581cannot", "566": "\u2581pre", "567": "\u2581true", "568": "\u2581stand", "569": "\u2581heaven", "570": "\u2581PET", "571": "\u2581name", "572": "AU", "573": "\u2581been", "574": "\u2581pray", "575": "old", "576": "\u2581cl", "577": "hing", "578": "\u2581sweet", "579": "DW", "580": "\u2581EDW", "581": "\u2581per", "582": "\u2581ple", "583": "\u2581EDWARD", "584": "ple", "585": "\u2581GR", "586": ",--", "587": "\u2581doth", "588": "\u2581noble", "589": "\u2581wr", "590": "ears", "591": "\u2581own", "592": "\u2581LUC", "593": "ouse", "594": "\u2581done", "595": "\u2581There", "596": "ull", "597": "\u2581tr", "598": "\u2581way", "599": "ife", "600": "\u2581head", "601": "\u2581other", "602": "RO", "603": "aw", "604": "\u2581mean", "605": "\u2581pres", "606": "UT", "607": "\u2581Ed", "608": "\u2581bear", "609": "red", "610": "\u2581sc", "611": "\u2581nor", "612": "AP", "613": "EO", "614": "\u2581Ay", "615": "OMEO", "616": "\u2581When", "617": "\u2581soul", "618": "\u2581very", "619": "\u2581ROMEO", "620": "\u2581Edward", "621": "ass", "622": "\u2581An", "623": "ENEN", "624": "aint", "625": "ving", "626": "\u2581both", "627": "\u2581MENEN", "628": "\u2581night", "629": "\u2581world", "630": "\u2581before", "631": "\u2581MENENIUS", "632": "ace", "633": "ger", "634": "\u2581By", "635": "ause", "636": "\u2581queen", "637": "li", "638": "\u2581Let", "639": "TH", "640": "\u2581mo", "641": "\u2581chi", "642": "aughter", "643": "RUCH", "644": "\u2581Here", "645": "\u2581Then", "646": "RUCHIO", "647": "\u2581PETRUCHIO", "648": "able", "649": "\u2581cont", "650": "\u2581dead", "651": "\u2581down", "652": "TES", "653": "\u2581app", "654": "ite", "655": "\u2581wh", "656": "\u2581ke", "657": "\u2581rem", "658": "\u2581being", "659": "per", "660": "\u2581myself", "661": "ab", "662": "les", "663": "\u2581MAR", "664": "\u2581Than", "665": "\u2581arm", "666": "\u2581beg", "667": "ilt", "668": "ORIO", "669": "LANUS", "670": "\u2581thus", "671": "\u2581CORIO", "672": "\u2581leave", "673": "\u2581CORIOLANUS", "674": "\u2581Sec", "675": "\u2581grace", "676": "\u2581Second", "677": "\u2581unt", "678": "ction", "679": "ress", "680": "\u2581Nor", "681": "\u2581eyes", "682": "\u2581LE", "683": "\u2581im", "684": "\u2581mother", "685": "led", "686": "\u2581ma", "687": "less", "688": "\u2581old", "689": "ran", "690": "land", "691": "INA", "692": "\u2581rep", "693": "itiz", "694": "\u2581ever", "695": "itizen", "696": "lo", "697": "ps", "698": "sw", "699": "\u2581She", "700": "\u2581int", "701": "\u2581live", "702": "\u2581long", "703": "\u2581wife", "704": "\u2581child", "705": "\u2581wom", "706": "\u2581poor", "707": "\u2581friends", "708": "\u2581III", "709": "\u2581away", "710": "\u2581cons", "711": "\u2581Go", "712": "\u2581might", "713": "eace", "714": "ford", "715": "nder", "716": "\u2581Sir", "717": "\u2581die", "718": "\u2581stay", "719": "\u2581comes", "720": "ks", "721": "oud", "722": "atch", "723": "wick", "724": "\u2581War", "725": "\u2581many", "726": "\u2581ru", "727": "\u2581rest", "728": "\u2581house", "729": "\u2581pe", "730": "\u2581crown", "731": "\u2581Warwick", "732": "ff", "733": "ows", "734": "\u2581le", "735": "\u2581cour", "736": "Tis", "737": "come", "738": "ison", "739": "\u2581His", "740": "\u2581ent", "741": "\u2581har", "742": "\u2581thought", "743": "LA", "744": "SAB", "745": "ELLA", "746": "\u2581lie", "747": "\u2581ISAB", "748": "\u2581ISABELLA", "749": "erc", "750": "ian", "751": "iss", "752": "uck", "753": "RAN", "754": "\u2581set", "755": "\u2581daughter", "756": "che", "757": "\u2581Well", "758": "\u2581Romeo", "759": "\u2581nothing", "760": "ULI", "761": "ors", "762": "ONTES", "763": "ULIET", "764": "atter", "765": "\u2581tong", "766": "\u2581JULIET", "767": "\u2581better", "768": "\u2581LEONTES", "769": "\u2581St", "770": "\u2581VI", "771": "\u2581Nay", "772": "ittle", "773": "\u2581gone", "774": "\u2581prince", "775": "rant", "776": "AD", "777": "ADY", "778": "int", "779": "ought", "780": "\u2581LADY", "781": "AL", "782": "CE", "783": "me", "784": "ENCE", "785": "well", "786": "\u2581tri", "787": "ied", "788": "\u2581Pro", "789": "\u2581keep", "790": "\u2581news", "791": "os", "792": "\u2581res", "793": "\u2581sle", "794": "\u2581wit", "795": "\u2581best", "796": "\u2581against", "797": "ces", "798": "for", "799": "hall", "800": "ious", "801": "\u2581Serv", "802": "\u2581those", "803": "ier", "804": "ool", "805": "hard", "806": "\u2581SIC", "807": "\u2581acc", "808": "\u2581gri", "809": "\u2581comp", "810": "\u2581hence", "811": "\u2581little", "812": "\u2581Citizen", "813": "\u2581SICINIUS", "814": "\u2581Not", "815": "\u2581hour", "816": "\u2581lords", "817": "\u2581thing", "818": "une", "819": "akes", "820": "\u2581put", "821": "ardon", "822": "\u2581face", "823": "lse", "824": "ret", "825": "sed", "826": "ult", "827": "\u2581On", "828": "llow", "829": "\u2581end", "830": "\u2581kind", "831": "EY", "832": "ft", "833": "\u2581two", "834": "\u2581still", "835": "\u2581young", "836": "ont", "837": "ork", "838": "ield", "839": "\u2581pri", "840": "\u2581himself", "841": "ud", "842": "alk", "843": "\u2581Thy", "844": "\u2581pur", "845": "\u2581LUCIO", "846": "\u2581power", "847": "ale", "848": "ert", "849": "ins", "850": "\u2581IV", "851": "\u2581Ric", "852": "\u2581cha", "853": "\u2581Richard", "854": "\u2581CL", "855": "\u2581sub", "856": "\u2581count", "857": "\u2581therefore", "858": "TI", "859": "cl", "860": "ew", "861": "\u2581gu", "862": "ried", "863": "cious", "864": "iness", "865": "\u2581dear", "866": "\u2581else", "867": "\u2581unto", "868": "\u2581first", "869": "\u2581peace", "870": "\u2581BR", "871": "\u2581sm", "872": "ason", "873": "hile", "874": "\u2581Have", "875": "\u2581Will", "876": "\u2581duke", "877": "\u2581till", "878": "\u2581could", "879": "ail", "880": "ect", "881": "ile", "882": "uty", "883": "\u2581co", "884": "\u2581hus", "885": "\u2581tra", "886": "\u2581back", "887": "\u2581words", "888": "\u2581though", "889": "ETH", "890": "\u2581ELI", "891": "\u2581bid", "892": "\u2581dre", "893": "\u2581tre", "894": "ABETH", "895": "\u2581York", "896": "\u2581fell", "897": "\u2581find", "898": "\u2581need", "899": "\u2581earth", "900": "\u2581tongue", "901": "ius", "902": "yal", "903": "band", "904": "ople", "905": "\u2581lady", "906": "\u2581thine", "907": "ty", "908": "IAN", "909": "men", "910": "eech", "911": "orse", "912": "\u2581bra", "913": "\u2581hel", "914": "\u2581home", "915": "\u2581hope", "916": "\u2581seem", "917": "\u2581forth", "918": "ark", "919": "eth", "920": "ray", "921": "enry", "922": "\u2581Yet", "923": "\u2581high", "924": "\u2581Henry", "925": "\u2581husband", "926": "vere", "927": "\u2581Good", "928": "\u2581right", "929": "get", "930": "\u2581chan", "931": "tw", "932": "ARW", "933": "ICK", "934": "uth", "935": "\u2581ban", "936": "\u2581WARW", "937": "\u2581mind", "938": "\u2581people", "939": "\u2581WARWICK", "940": "ds", "941": "ix", "942": "AST", "943": "ach", "944": "hip", "945": "rer", "946": "\u2581Do", "947": "\u2581All", "948": "\u2581che", "949": "ister", "950": "\u2581char", "951": "\u2581conf", "952": "\u2581show", "953": "\u2581Shall", "954": "ged", "955": "\u2581bri", "956": "\u2581hands", "957": "HAM", "958": "fort", "959": "\u2581imp", "960": "\u2581joy", "961": "\u2581why", "962": "\u2581Nurse", "963": "\u2581cause", "964": "\u2581master", "965": "UL", "966": "\u2581gl", "967": "APUL", "968": "\u2581law", "969": "\u2581They", "970": "\u2581mist", "971": "\u2581none", "972": "\u2581once", "973": "\u2581said", "974": "\u2581serv", "975": "APULET", "976": "\u2581CAPULET", "977": "\u2581fort", "978": "\u2581every", "979": "GE", "980": "IL", "981": "MIO", "982": "ren", "983": "\u2581bod", "984": "ousin", "985": "\u2581bring", "986": "RI", "987": "bt", "988": "\u2581dou", "989": "UCK", "990": "eed", "991": "UTUS", "992": "ates", "993": "\u2581BUCK", "994": "\u2581pass", "995": "INGHAM", "996": "\u2581BRUTUS", "997": "\u2581please", "998": "\u2581BUCKINGHAM", "999": "lt", "1000": "BRO", "1001": "ESS", "1002": "iet", "1003": "ird", "1004": "\u2581BOL", "1005": "BROKE", "1006": "RANIO", "1007": "\u2581From", "1008": "\u2581light", "1009": "\u2581BOLING", "1010": "\u2581TRANIO", "1011": "\u2581BOLINGBROKE", "1012": "eel", "1013": "\u2581wo", "1014": "swer", "1015": "vost", "1016": "\u2581bes", "1017": "\u2581nat", "1018": "\u2581thr", "1019": "\u2581royal", "1020": "\u2581tears", "1021": "\u2581whose", "1022": "\u2581present", "1023": "mb", "1024": "ary", "1025": "cle", "1026": "its", "1027": "\u2581Our", "1028": "\u2581boy", "1029": "\u2581came", "1030": "\u2581just", "1031": "\u2581since", "1032": "lf", "1033": "vy", "1034": "ock", "1035": "ory", "1036": "roke", "1037": "\u2581dev", "1038": "\u2581full", "1039": "\u2581after", "1040": "\u2581heard", "1041": "\u2581under", "1042": "\u2581wrong", "1043": "\u2581pardon", "1044": "NE", "1045": "GAR", "1046": "pose", "1047": "GARET", "1048": "\u2581happ", "1049": "\u2581land", "1050": "\u2581place", "1051": "\u2581MARGARET", "1052": "ATH", "1053": "ens", "1054": "AMIL", "1055": "\u2581ere", "1056": "\u2581mis", "1057": "\u2581King", "1058": "\u2581last", "1059": "\u2581state", "1060": "sand", "1061": "\u2581care", "1062": "\u2581hold", "1063": "\u2581kill", "1064": "\u2581meet", "1065": "\u2581sorrow", "1066": "ORD", "1067": "GELO", "1068": "cent", "1069": "esty", "1070": "\u2581GRE", "1071": "\u2581eye", "1072": "ition", "1073": "\u2581help", "1074": "\u2581whom", "1075": "\u2581ANGELO", "1076": "\u2581thousand", "1077": "\u2581Eng", "1078": "\u2581fal", "1079": "ARINA", "1080": "\u2581less", "1081": "arence", "1082": "\u2581answer", "1083": "\u2581follow", "1084": "SC", "1085": "irt", "1086": "\u2581Sh", "1087": "\u2581ch", "1088": "cius", "1089": "\u2581bus", "1090": "\u2581far", "1091": "\u2581pat", "1092": "\u2581sun", "1093": "ceive", "1094": "\u2581KATH", "1095": "\u2581enem", "1096": "\u2581fool", "1097": "\u2581weep", "1098": "selves", "1099": "\u2581about", "1100": "\u2581shame", "1101": "\u2581hither", "1102": "\u2581Clarence", "1103": "\u2581KATHARINA", "1104": "iol", "1105": "urde", "1106": "\u2581fall", "1107": "\u2581maid", "1108": "\u2581Marcius", "1109": "\u2581gentleman", "1110": "day", "1111": "\u2581ob", "1112": "asure", "1113": "\u2581into", "1114": "\u2581Un", "1115": "\u2581Up", "1116": "ALUS", "1117": "\u2581ESC", "1118": "\u2581coun", "1119": "\u2581hate", "1120": "\u2581court", "1121": "\u2581grief", "1122": "\u2581makes", "1123": "\u2581cousin", "1124": "\u2581ESCALUS", "1125": "\u2581gracious", "1126": "air", "1127": "\u2581Al", "1128": "imes", "1129": "ject", "1130": "\u2581stri", "1131": "\u2581woman", "1132": "iv", "1133": "ove", "1134": "\u2581Hath", "1135": "\u2581stre", "1136": "\u2581turn", "1137": "\u2581worth", "1138": "\u2581comfort", "1139": "alt", "1140": "ild", "1141": "ons", "1142": "deed", "1143": "ices", "1144": "ling", "1145": "\u2581bed", "1146": "\u2581hum", "1147": "\u2581DUCH", "1148": "\u2581Duke", "1149": "\u2581dost", "1150": "\u2581talk", "1151": "\u2581wilt", "1152": "\u2581sleep", "1153": "urderer", "1154": "\u2581DUCHESS", "1155": "ERC", "1156": "itor", "1157": "ount", "1158": "pher", "1159": "\u2581bel", "1160": "\u2581Ange", "1161": "\u2581body", "1162": "\u2581over", "1163": "\u2581i", "1164": "ute", "1165": "\u2581bu", "1166": "\u2581Her", "1167": "\u2581att", "1168": "\u2581dra", "1169": "\u2581inst", "1170": "morrow", "1171": "\u2581fault", "1172": "\u2581sound", "1173": "\u2581thank", "1174": "\u2581Angelo", "1175": "IA", "1176": "ised", "1177": "\u2581adv", "1178": "ience", "1179": "\u2581play", "1180": "AMILLO", "1181": "\u2581false", "1182": "\u2581prove", "1183": "\u2581indeed", "1184": "\u2581CAMILLO", "1185": "\u2581another", "1186": "ily", "1187": "\u2581vo", "1188": "ieve", "1189": "omet", "1190": "\u2581has", "1191": "\u2581ret", "1192": "\u2581ser", "1193": "\u2581use", "1194": "\u2581wel", "1195": "\u2581Even", "1196": "\u2581deed", "1197": "\u2581Would", "1198": "\u2581sword", "1199": "\u2581fellow", "1200": "\u2581Provost", "1201": "ENS", "1202": "ORT", "1203": "ade", "1204": "ans", "1205": "\u2581bo", "1206": "\u2581HORT", "1207": "\u2581even", "1208": "\u2581pers", "1209": "\u2581vill", "1210": "\u2581fight", "1211": "\u2581matter", "1212": "\u2581HORTENS", "1213": "\u2581fortune", "1214": "RIAR", "1215": "hold", "1216": "\u2581Upon", "1217": "\u2581sent", "1218": "\u2581FRIAR", "1219": "\u2581grave", "1220": "\u2581prison", "1221": "\u2581sovere", "1222": "\u2581country", "1223": "\u2581HORTENSIO", "1224": ",'", "1225": "STA", "1226": "eal", "1227": "ury", "1228": "APTI", "1229": "\u2581Are", "1230": "\u2581cur", "1231": "\u2581dan", "1232": "\u2581merc", "1233": "\u2581send", "1234": "\u2581virt", "1235": "\u2581BAPTI", "1236": "\u2581doubt", "1237": "\u2581years", "1238": "\u2581banish", "1239": "\u2581rather", "1240": "\u2581BAPTISTA", "1241": "YC", "1242": "mp", "1243": "\u2581Ty", "1244": "\u2581gr", "1245": "OLYC", "1246": "fect", "1247": "ouch", "1248": "pect", "1249": "\u2581AUT", "1250": "\u2581COM", "1251": "\u2581ass", "1252": "\u2581hang", "1253": "\u2581want", "1254": "\u2581wish", "1255": "OLYCUS", "1256": "\u2581reven", "1257": "\u2581truth", "1258": "\u2581COMINIUS", "1259": "\u2581business", "1260": "\u2581AUTOLYCUS", "1261": ".'", "1262": "dd", "1263": "\u2581At", "1264": "\u2581CLAR", "1265": "\u2581More", "1266": "\u2581disc", "1267": "\u2581lies", "1268": "\u2581only", "1269": "\u2581Third", "1270": "\u2581shalt", "1271": "\u2581reason", "1272": "\u2581CLARENCE", "1273": "ms", "1274": "ere", "1275": "ior", "1276": "pen", "1277": "ENES", "1278": "\u2581cra", "1279": "\u2581sea", "1280": "pherd", "1281": "rance", "1282": "\u2581arms", "1283": "\u2581stra", "1284": "\u2581dream", "1285": "\u2581breath", "1286": "\u2581command", "1287": "ENV", "1288": "der", "1289": "\u2581gi", "1290": "OLIO", "1291": "ener", "1292": "\u2581NOR", "1293": "\u2581lay", "1294": "\u2581sec", "1295": "\u2581BENV", "1296": "\u2581prom", "1297": "\u2581Clown", "1298": "\u2581stran", "1299": "\u2581Gentle", "1300": "\u2581BENVOLIO", "1301": "SP", "1302": "ERO", "1303": "ROSP", "1304": "UMIO", "1305": "\u2581sen", "1306": "\u2581Take", "1307": "\u2581holy", "1308": "\u2581pity", "1309": "\u2581wind", "1310": "\u2581PROSP", "1311": "\u2581proud", "1312": "\u2581remem", "1313": "\u2581somet", "1314": "\u2581GRUMIO", "1315": "\u2581enough", "1316": "\u2581content", "1317": "\u2581PROSPERO", "1318": "ia", "1319": "hed", "1320": "ken", "1321": "\u2581Su", "1322": "ERCU", "1323": "ator", "1324": "\u2581Did", "1325": "\u2581bea", "1326": "\u2581Kate", "1327": "\u2581dare", "1328": "\u2581fare", "1329": "\u2581sold", "1330": "\u2581spir", "1331": "\u2581MERCU", "1332": "\u2581lives", "1333": "\u2581swear", "1334": "\u2581three", "1335": "\u2581MERCUTIO", "1336": "\u2581Murderer", "1337": "IS", "1338": "ike", "1339": "eter", "1340": "\u2581dep", "1341": "\u2581get", "1342": "\u2581Were", "1343": "\u2581gods", "1344": "\u2581tend", "1345": "\u2581nature", "1346": "\u2581within", "1347": "\u2581Servant", "1348": "\u2581villain", "1349": "\u2581welcome", "1350": "\u2581LUCENTIO", "1351": "OMP", "1352": "ars", "1353": "ham", "1354": "LAND", "1355": "\u2581gre", "1356": "\u2581saw", "1357": "ester", "1358": "\u2581POMP", "1359": "\u2581foul", "1360": "\u2581free", "1361": "\u2581kiss", "1362": "\u2581happy", "1363": "\u2581madam", "1364": "\u2581sister", "1365": "\u2581things", "1366": "\u2581mistress", "1367": "\u2581sovereign", "1368": "AUL", "1369": "any", "1370": "apt", "1371": "att", "1372": "hal", "1373": "unt", "1374": "ient", "1375": "vers", "1376": "\u2581Was", "1377": "\u2581Give", "1378": "\u2581PAUL", "1379": "\u2581city", "1380": "\u2581break", "1381": "\u2581means", "1382": "\u2581yield", "1383": "\u2581PAULINA", "1384": "\u2581beseech", "1385": "\u2581subject", "1386": "eft", "1387": "ery", "1388": "\u2581aw", "1389": "ague", "1390": "\u2581Say", "1391": "\u2581den", "1392": "\u2581mer", "1393": "onder", "1394": "\u2581Look", "1395": "\u2581born", "1396": "\u2581oath", "1397": "gainst", "1398": "gether", "1399": "\u2581horse", "1400": "\u2581yours", "1401": "\u2581GREMIO", "1402": "\u2581POMPEY", "1403": "NIA", "1404": "OLI", "1405": "anc", "1406": "OLUM", "1407": "balt", "1408": "ches", "1409": "usic", "1410": "\u2581Com", "1411": "\u2581dru", "1412": "\u2581tem", "1413": "\u2581POLI", "1414": "\u2581fire", "1415": "\u2581supp", "1416": "\u2581VOLUM", "1417": "\u2581faith", "1418": "\u2581looks", "1419": "\u2581while", "1420": "\u2581wound", "1421": "\u2581bloody", "1422": "\u2581England", "1423": "\u2581VOLUMNIA", "1424": "\u2581yourself", "1425": "ey", "1426": "ues", "1427": "INGS", "1428": "\u2581car", "1429": "\u2581maj", "1430": "\u2581spo", "1431": "\u2581win", "1432": "enger", "1433": "\u2581Fare", "1434": "\u2581HAST", "1435": "\u2581cond", "1436": "\u2581requ", "1437": "centio", "1438": "ingman", "1439": "\u2581common", "1440": "\u2581traitor", "1441": "\u2581HASTINGS", "1442": "\u2581Servingman", "1443": "by", "1444": "AUR", "1445": "rong", "1446": "\u2581Can", "1447": "\u2581May", "1448": "\u2581def", "1449": "\u2581lam", "1450": "\u2581mon", "1451": "broke", "1452": "\u2581Hast", "1453": "\u2581LAUR", "1454": "\u2581mark", "1455": "ertain", "1456": "\u2581uncle", "1457": "essenger", "1458": "\u2581LAURENCE", "1459": "\u2581children", "1460": "BY", "1461": "BER", "1462": "\u2581Ah", "1463": "form", "1464": "\u2581Jul", "1465": "\u2581met", "1466": "\u2581val", "1467": "\u2581beat", "1468": "\u2581late", "1469": "\u2581left", "1470": "\u2581soon", "1471": "\u2581sight", "1472": "\u2581Tybalt", "1473": "\u2581danger", "1474": "\u2581tender", "1475": "\u2581majesty", "1476": "\u2581Therefore", "1477": "FF", "1478": "ten", "1479": "use", "1480": "\u2581Sp", "1481": "LIFF", "1482": "THUM", "1483": "like", "1484": "\u2581sin", "1485": "\u2581woe", "1486": "\u2581days", "1487": "\u2581foot", "1488": "\u2581save", "1489": "\u2581seen", "1490": "\u2581told", "1491": "BERLAND", "1492": "\u2581NORTHUM", "1493": "\u2581warrant", "1494": "\u2581NORTHUMBERLAND", "1495": "ID", "1496": "TA", "1497": "rem", "1498": "\u2581Lu", "1499": "\u2581Pl", "1500": "ides", "1501": "idow", "1502": "\u2581sad", "1503": "\u2581does", "1504": "\u2581gener", "1505": "\u2581mercy", "1506": "\u2581report", "1507": "\u2581return", "1508": "\u2581farewell", "1509": "up", "1510": "dom", "1511": "hes", "1512": "rel", "1513": "earn", "1514": "ring", "1515": "ters", "1516": "unes", "1517": "\u2581sit", "1518": "\u2581ANNE", "1519": "\u2581deep", "1520": "\u2581gold", "1521": "\u2581sure", "1522": "\u2581heavy", "1523": "\u2581marry", "1524": "\u2581Though", "1525": "\u2581purpose", "1526": "\u2581through", "1527": "\u2581without", "1528": "\u2581together", "1529": "bl", "1530": "ca", "1531": "ERD", "1532": "aim", "1533": "ict", "1534": "\u2581PR", "1535": "INCE", "1536": "cher", "1537": "enty", "1538": "\u2581Had", "1539": "\u2581cho", "1540": "\u2581ill", "1541": "\u2581rec", "1542": "ments", "1543": "\u2581Clif", "1544": "\u2581Mont", "1545": "\u2581cold", "1546": "\u2581ears", "1547": "\u2581grow", "1548": "\u2581lost", "1549": "ignior", "1550": "\u2581deser", "1551": "\u2581nurse", "1552": "\u2581Juliet", "1553": "\u2581PRINCE", "1554": "\u2581person", "1555": "\u2581strange", "1556": "\u2581Clifford", "1557": "az", "1558": "mer", "1559": "ush", "1560": "\u2581MI", "1561": "\u2581Ri", "1562": "ains", "1563": "ceed", "1564": "ours", "1565": "ross", "1566": "vent", "1567": "\u2581Bol", "1568": "\u2581Cam", "1569": "\u2581Cor", "1570": "\u2581ask", "1571": "\u2581wat", "1572": "\u2581Tell", "1573": "\u2581disp", "1574": "\u2581suff", "1575": "\u2581liege", "1576": "\u2581pluck", "1577": "\u2581times", "1578": "\u2581Boling", "1579": "\u2581spirit", "1580": "\u2581believe", "1581": "\u2581thyself", "1582": "\u2581Bolingbroke", "1583": "ets", "1584": "ift", "1585": "\u2581Ha", "1586": "\u2581Wh", "1587": "\u2581jo", "1588": "ever", "1589": "\u2581One", "1590": "\u2581age", "1591": "\u2581air", "1592": "\u2581sil", "1593": "\u2581Away", "1594": "\u2581Some", "1595": "\u2581heir", "1596": "\u2581loss", "1597": "\u2581says", "1598": "\u2581Whose", "1599": "\u2581learn", "1600": "\u2581point", "1601": "\u2581Should", "1602": "\u2581Signior", "1603": "aid", "1604": "ced", "1605": "ial", "1606": "ner", "1607": "\u2581cry", "1608": "\u2581fly", "1609": "\u2581past", "1610": "\u2581devil", "1611": "\u2581friar", "1612": "\u2581haste", "1613": "\u2581trust", "1614": "\u2581Coriol", "1615": "\u2581desire", "1616": "\u2581ground", "1617": "\u2581instru", "1618": "\u2581entreat", "1619": "\u2581justice", "1620": "\u2581Farewell", "1621": "gu", "1622": "sh", "1623": "aud", "1624": "ges", "1625": "ina", "1626": "ixt", "1627": "ined", "1628": "outh", "1629": "\u2581Sen", "1630": "\u2581mur", "1631": "\u2581ord", "1632": "\u2581vis", "1633": "aking", "1634": "night", "1635": "\u2581Like", "1636": "\u2581Pray", "1637": "\u2581betw", "1638": "\u2581bold", "1639": "\u2581fast", "1640": "\u2581near", "1641": "\u2581found", "1642": "\u2581slain", "1643": "\u2581France", "1644": "\u2581toward", "1645": "\u2581service", "1646": "\u2581remember", "1647": "\u2581straight", "1648": "LE", "1649": "UF", "1650": "LOR", "1651": "\u2581Gl", "1652": "LORI", "1653": "UFID", "1654": "oman", "1655": "ution", "1656": "\u2581hard", "1657": "\u2581wear", "1658": "\u2581AUFID", "1659": "\u2581FLORI", "1660": "\u2581These", "1661": "\u2581alone", "1662": "\u2581curse", "1663": "\u2581quick", "1664": "\u2581beauty", "1665": "\u2581strong", "1666": "\u2581worthy", "1667": "\u2581married", "1668": "\u2581AUFIDIUS", "1669": "\u2581Messenger", "1670": "xt", "1671": "ION", "1672": "TON", "1673": "let", "1674": "\u2581hu", "1675": "adam", "1676": "ithe", "1677": "ning", "1678": "ured", "1679": "\u2581See", "1680": "\u2581bec", "1681": "\u2581run", "1682": "\u2581woo", "1683": "audio", "1684": "\u2581exec", "1685": "\u2581open", "1686": "\u2581poss", "1687": "\u2581enemy", "1688": "\u2581grant", "1689": "\u2581ready", "1690": "\u2581touch", "1691": "\u2581Claudio", "1692": "\u2581brought", "1693": "\u2581general", "1694": "\u2581revenge", "1695": "!'", "1696": "bs", "1697": "gs", "1698": "ERS", "1699": "aunt", "1700": "cept", "1701": "ible", "1702": "inks", "1703": "\u2581fur", "1704": "\u2581inc", "1705": "\u2581inf", "1706": "\u2581iss", "1707": "umber", "1708": "\u2581deli", "1709": "\u2581duty", "1710": "\u2581lose", "1711": "\u2581prof", "1712": "\u2581quar", "1713": "\u2581canst", "1714": "\u2581hours", "1715": "\u2581knows", "1716": "\u2581youth", "1717": "\u2581charge", "1718": "\u2581itself", "1719": "\u2581Senator", "1720": "\u2581confess", "1721": "\u2581thoughts", "1722": "\u2581Gentleman", "1723": "AS", "1724": "EB", "1725": "pl", "1726": "ua", "1727": "vo", "1728": "ouc", "1729": "CIUS", "1730": "ched", "1731": "illo", "1732": "ship", "1733": "\u2581Bec", "1734": "\u2581SEB", "1735": "\u2581del", "1736": "\u2581par", "1737": "ithee", "1738": "riage", "1739": "\u2581desp", "1740": "\u2581dist", "1741": "\u2581feel", "1742": "\u2581morn", "1743": "\u2581read", "1744": "ASTIAN", "1745": "\u2581Glouc", "1746": "\u2581Madam", "1747": "\u2581speed", "1748": "\u2581Master", "1749": "\u2581stands", "1750": "\u2581streng", "1751": "\u2581twenty", "1752": "\u2581Against", "1753": "\u2581MARCIUS", "1754": "\u2581Montague", "1755": "\u2581Shepherd", "1756": "\u2581SEBASTIAN", "1757": "OW", "1758": "op", "1759": "eep", "1760": "olk", "1761": "oop", "1762": "ump", "1763": "\u2581Pr", "1764": "cess", "1765": "\u2581div", "1766": "\u2581jud", "1767": "\u2581fore", "1768": "\u2581half", "1769": "\u2581hell", "1770": "\u2581mock", "1771": "\u2581post", "1772": "ingham", "1773": "\u2581field", "1774": "\u2581resol", "1775": "fection", "1776": "\u2581behold", "1777": "\u2581Camillo", "1778": "\u2581counsel", "1779": "\u2581fearful", "1780": "no", "1781": "DEL", "1782": "ads", "1783": "alm", "1784": "ols", "1785": "\u2581Bo", "1786": "\u2581ye", "1787": "osom", "1788": "\u2581cut", "1789": "\u2581dam", "1790": "\u2581min", "1791": "\u2581ter", "1792": "DELLO", "1793": "ortal", "1794": "\u2581BION", "1795": "\u2581Buck", "1796": "\u2581Till", "1797": "\u2581batt", "1798": "\u2581each", "1799": "\u2581trib", "1800": "\u2581work", "1801": "\u2581wret", "1802": "\u2581bosom", "1803": "\u2581bound", "1804": "\u2581known", "1805": "\u2581short", "1806": "\u2581hearts", "1807": "\u2581honest", "1808": "\u2581Hastings", "1809": "\u2581marriage", "1810": "\u2581BIONDELLO", "1811": "\u2581Buckingham", "1812": "\u2581Gloucester", "1813": "of", "1814": "sc", "1815": "rah", "1816": "the", "1817": "\u2581ve", "1818": "ench", "1819": "folk", "1820": "iers", "1821": "ones", "1822": "pare", "1823": "\u2581Cap", "1824": "\u2581ten", "1825": "\u2581tit", "1826": "\u2581whi", "1827": "\u2581Thus", "1828": "\u2581Vols", "1829": "\u2581dish", "1830": "\u2581draw", "1831": "\u2581harm", "1832": "\u2581seek", "1833": "\u2581suit", "1834": "\u2581tale", "1835": "\u2581guilt", "1836": "\u2581serve", "1837": "\u2581widow", "1838": "\u2581women", "1839": "\u2581attend", "1840": "\u2581murder", "1841": "\u2581strike", "1842": "\u2581voices", "1843": "\u2581wonder", "1844": "\u2581Norfolk", "1845": "\u2581company", "1846": "\u2581highness", "1847": "\u2581something", "1848": "OP", "1849": "Tw", "1850": "\u2581CA", "1851": "\u2581ag", "1852": "ERLE", "1853": "hood", "1854": "most", "1855": "\u2581AUM", "1856": "\u2581bur", "1857": "\u2581cor", "1858": "\u2581sat", "1859": "TONIO", "1860": "ander", "1861": "ished", "1862": "\u2581knew", "1863": "\u2581pret", "1864": "\u2581side", "1865": "\u2581sing", "1866": "\u2581didst", "1867": "\u2581watch", "1868": "\u2581change", "1869": "\u2581loving", "1870": "\u2581ANTONIO", "1871": "\u2581AUMERLE", "1872": "\u2581heavens", "1873": "\u2581Lucentio", "1874": "\u2581strength", "1875": "\u2581gentlemen", "1876": "ALO", "1877": "ents", "1878": "\u2581GON", "1879": "\u2581Pet", "1880": "\u2581Wel", "1881": "\u2581act", "1882": "\u2581aff", "1883": "\u2581bit", "1884": "\u2581Bian", "1885": "\u2581Lanc", "1886": "\u2581Tran", "1887": "\u2581sake", "1888": "\u2581stir", "1889": "\u2581wast", "1890": "\u2581Marry", "1891": "\u2581brave", "1892": "\u2581cloud", "1893": "\u2581enter", "1894": "ethinks", "1895": "\u2581enemies", "1896": "\u2581pleasure", "1897": "\u2581Lancaster", "1898": "bly", "1899": "fid", "1900": "ils", "1901": "rew", "1902": "\u2581Sw", "1903": "\u2581dr", "1904": "\u2581ty", "1905": "\u2581wa", "1906": "ives", "1907": "oose", "1908": "\u2581HER", "1909": "\u2581Pom", "1910": "\u2581Unt", "1911": "\u2581ext", "1912": "\u2581gar", "1913": "\u2581pie", "1914": "\u2581pra", "1915": "\u2581Lady", "1916": "\u2581Most", "1917": "\u2581begg", "1918": "\u2581chee", "1919": "\u2581next", "1920": "\u2581pale", "1921": "\u2581sign", "1922": "ceived", "1923": "\u2581breat", "1924": "\u2581close", "1925": "\u2581gates", "1926": "\u2581music", "1927": "\u2581souls", "1928": "\u2581title", "1929": "\u2581Bianca", "1930": "\u2581coming", "1931": "\u2581course", "1932": "\u2581suffer", "1933": "\u2581thanks", "1934": "\u2581withal", "1935": "\u2581deliver", "1936": "be", "1937": "AUD", "1938": "ats", "1939": "els", "1940": "\u2581Au", "1941": "\u2581Ch", "1942": "\u2581sk", "1943": "etch", "1944": "vour", "1945": "\u2581abs", "1946": "\u2581fit", "1947": "AUDIO", "1948": "MIONE", "1949": "claim", "1950": "oward", "1951": "\u2581Rich", "1952": "\u2581forg", "1953": "\u2581grie", "1954": "\u2581jest", "1955": "\u2581lips", "1956": "\u2581rich", "1957": "\u2581sick", "1958": "\u2581weak", "1959": "\u2581CLIFF", "1960": "\u2581Petru", "1961": "\u2581order", "1962": "\u2581plain", "1963": "\u2581become", "1964": "\u2581either", "1965": "\u2581CLAUDIO", "1966": "\u2581CLIFFORD", "1967": "\u2581HERMIONE", "1968": "\u2581patience", "1969": "\u2581themselves", "1970": "DA", "1971": "isf", "1972": "kes", "1973": "lly", "1974": "oof", "1975": "ses", "1976": "urp", "1977": "\u2581EL", "1978": "\u2581JO", "1979": "\u2581ac", "1980": "arry", "1981": "chio", "1982": "east", "1983": "irth", "1984": "race", "1985": "rest", "1986": "ries", "1987": "twas", "1988": "\u2581Bes", "1989": "\u2581reg", "1990": "\u2581ven", "1991": "\u2581wis", "1992": "RANDA", "1993": "ready", "1994": "twere", "1995": "\u2581Call", "1996": "\u2581LORD", "1997": "\u2581Make", "1998": "\u2581cast", "1999": "\u2581forb", "2000": "\u2581prop", "2001": "\u2581same", "2002": "\u2581took", "2003": "\u2581wall", "2004": "fidius", "2005": "\u2581Being", "2006": "\u2581Since", "2007": "\u2581along", "2008": "\u2581cheer", "2009": "\u2581merry", "2010": "\u2581sworn", "2011": "\u2581worse", "2012": "\u2581Tranio", "2013": "\u2581breast", "2014": "\u2581consul", "2015": "\u2581forget", "2016": "\u2581poison", "2017": "\u2581virtue", "2018": "\u2581MIRANDA", "2019": "\u2581further", "2020": "\u2581Aufidius", "2021": "\u2581Petruchio", "2022": "HN", "2023": "cy", "2024": "SON", "2025": "lst", "2026": "\u2581Re", "2027": "\u2581cr", "2028": "\u2581du", "2029": "\u2581ta", "2030": "ally", "2031": "ions", "2032": "rows", "2033": "rust", "2034": "vern", "2035": "\u2581bad", "2036": "\u2581emb", "2037": "\u2581enc", "2038": "\u2581red", "2039": "\u2581wed", "2040": "\u2581Alas", "2041": "\u2581JOHN", "2042": "\u2581book", "2043": "\u2581dire", "2044": "\u2581four", "2045": "\u2581gave", "2046": "\u2581move", "2047": "\u2581self", "2048": "\u2581soft", "2049": "\u2581wise", "2050": "\u2581begin", "2051": "\u2581given", "2052": "\u2581issue", "2053": "\u2581liber", "2054": "\u2581loves", "2055": "\u2581mouth", "2056": "\u2581battle", "2057": "\u2581office", "2058": "\u2581already", "2059": "\u2581consent", "2060": "\u2581morning", "2061": "\u2581request", "2062": "\u2581Hereford", "2063": "\u2581dangerous", "2064": "nk", "2065": "pes", "2066": "\u2581Ar", "2067": "anus", "2068": "dden", "2069": "each", "2070": "fter", "2071": "icer", "2072": "mber", "2073": "mond", "2074": "orge", "2075": "uous", "2076": "used", "2077": "\u2581Yes", "2078": "\u2581exp", "2079": "\u2581foe", "2080": "\u2581gro", "2081": "\u2581lad", "2082": "\u2581pay", "2083": "\u2581burn", "2084": "\u2581goes", "2085": "\u2581sons", "2086": "\u2581succ", "2087": "\u2581trou", "2088": "\u2581Speak", "2089": "\u2581Tower", "2090": "\u2581black", "2091": "\u2581feast", "2092": "\u2581frown", "2093": "\u2581Before", "2094": "\u2581satisf", "2095": "\u2581wounds", "2096": "\u2581between", "2097": "\u2581neither", "2098": "\u2581quarrel", "2099": "\u2581Richmond", "2100": "\u2581soldiers", "2101": "NT", "2102": "awd", "2103": "hem", "2104": "irm", "2105": "ots", "2106": "\u2581Ab", "2107": "aret", "2108": "aris", "2109": "chan", "2110": "empt", "2111": "ging", "2112": "ires", "2113": "rist", "2114": "ting", "2115": "ures", "2116": "\u2581bar", "2117": "\u2581dro", "2118": "\u2581est", "2119": "\u2581hot", "2120": "\u2581mal", "2121": "\u2581und", "2122": "TESBY", "2123": "garet", "2124": "owers", "2125": "\u2581Must", "2126": "\u2581Such", "2127": "\u2581case", "2128": "\u2581dark", "2129": "\u2581priv", "2130": "\u2581sigh", "2131": "\u2581thri", "2132": "\u2581vict", "2133": "\u2581bless", "2134": "\u2581bride", "2135": "\u2581brief", "2136": "\u2581often", "2137": "\u2581water", "2138": "\u2581Unless", "2139": "\u2581having", "2140": "\u2581speech", "2141": "\u2581thence", "2142": "\u2581Because", "2143": "\u2581CATESBY", "2144": "\u2581Welcome", "2145": "\u2581servant", "2146": "\u2581presence", "2147": "po", "2148": "ILI", "2149": "emn", "2150": "ona", "2151": "\u2581ev", "2152": "alth", "2153": "ends", "2154": "\u2581ble", "2155": "\u2581bow", "2156": "\u2581got", "2157": "\u2581pen", "2158": "\u2581sum", "2159": "cient", "2160": "ondon", "2161": "\u2581Bapt", "2162": "\u2581Both", "2163": "\u2581GREY", "2164": "\u2581Keep", "2165": "\u2581Whom", "2166": "\u2581deny", "2167": "\u2581town", "2168": "\u2581wars", "2169": "\u2581Saint", "2170": "\u2581Their", "2171": "\u2581compl", "2172": "\u2581dread", "2173": "\u2581inter", "2174": "\u2581kings", "2175": "\u2581loved", "2176": "\u2581seems", "2177": "\u2581spoke", "2178": "\u2581visit", "2179": "\u2581voice", "2180": "\u2581London", "2181": "\u2581mighty", "2182": "\u2581mortal", "2183": "\u2581throne", "2184": "\u2581Baptist", "2185": "\u2581flatter", "2186": "\u2581respect", "2187": "\u2581Margaret", "2188": "\u2581Coriolanus", "2189": "CA", "2190": "IV", "2191": "ip", "2192": "so", "2193": "bed", "2194": "ern", "2195": "oun", "2196": "\u2581De", "2197": "\u2581Ge", "2198": "ILIA", "2199": "iant", "2200": "ided", "2201": "ired", "2202": "ourn", "2203": "ught", "2204": "\u2581Ere", "2205": "\u2581RIV", "2206": "\u2581bab", "2207": "\u2581bro", "2208": "\u2581buy", "2209": "\u2581cap", "2210": "\u2581col", "2211": "\u2581fra", "2212": "\u2581hur", "2213": "\u2581vow", "2214": "IANCA", "2215": "\u2581Isab", "2216": "\u2581Lest", "2217": "\u2581prot", "2218": "\u2581safe", "2219": "ainted", "2220": "\u2581Paris", "2221": "\u2581deeds", "2222": "\u2581knock", "2223": "\u2581BIANCA", "2224": "\u2581George", "2225": "\u2581RIVERS", "2226": "\u2581action", "2227": "\u2581appear", "2228": "\u2581bitter", "2229": "\u2581dishon", "2230": "\u2581sudden", "2231": "\u2581ancient", "2232": "\u2581chamber", "2233": "\u2581prayers", "2234": "\u2581promise", "2235": "\u2581worship", "2236": "\u2581Baptista", "2237": "\u2581princely", "2238": "ls", "2239": "BOW", "2240": "cks", "2241": "esh", "2242": "now", "2243": "ura", "2244": "\u2581pu", "2245": "AUNT", "2246": "ated", "2247": "lish", "2248": "nown", "2249": "oney", "2250": "resh", "2251": "urch", "2252": "\u2581ang", "2253": "\u2581ign", "2254": "\u2581lim", "2255": "\u2581opp", "2256": "\u2581reb", "2257": "\u2581sac", "2258": "essed", "2259": "otion", "2260": "right", "2261": "stand", "2262": "\u2581bawd", "2263": "\u2581lead", "2264": "\u2581rage", "2265": "\u2581viol", "2266": "antage", "2267": "\u2581ELBOW", "2268": "\u2581GAUNT", "2269": "\u2581Roman", "2270": "\u2581Stand", "2271": "\u2581appro", "2272": "\u2581creat", "2273": "\u2581cross", "2274": "\u2581fetch", "2275": "\u2581flesh", "2276": "\u2581heads", "2277": "\u2581scorn", "2278": "\u2581coward", "2279": "\u2581lament", "2280": "\u2581triump", "2281": "\u2581kingdom", "2282": "\u2581patient", "2283": "\u2581prepare", "2284": "\u2581success", "2285": "\u2581valiant", "2286": "\u2581witness", "2287": "\u2581presently", "2288": "UR", "2289": "to", "2290": "GUE", "2291": "iff", "2292": "ler", "2293": "urs", "2294": "\u2581Bl", "2295": "\u2581Jo", "2296": "\u2581Ox", "2297": "\u2581TY", "2298": "\u2581ow", "2299": "ONTA", "2300": "aken", "2301": "mand", "2302": "sper", "2303": "\u2581cle", "2304": "\u2581eat", "2305": "\u2581ins", "2306": "\u2581lab", "2307": "\u2581unw", "2308": "antag", "2309": "ensio", "2310": "ities", "2311": "itted", "2312": "\u2581Hort", "2313": "\u2581Merc", "2314": "\u2581gall", "2315": "\u2581kins", "2316": "\u2581lack", "2317": "\u2581moon", "2318": "\u2581prin", "2319": "\u2581scar", "2320": "\u2581wash", "2321": "\u2581MONTA", "2322": "\u2581Think", "2323": "\u2581drink", "2324": "\u2581least", "2325": "\u2581offer", "2326": "\u2581slave", "2327": "\u2581throw", "2328": "\u2581Christ", "2329": "\u2581Oxford", "2330": "\u2581defend", "2331": "\u2581faults", "2332": "\u2581secret", "2333": "\u2581forward", "2334": "\u2581prithee", "2335": "\u2581MONTAGUE", "2336": "\u2581tribunes", "2337": "\u2581Hortensio", "2338": "ac", "2339": "als", "2340": "bit", "2341": "ees", "2342": "ley", "2343": "pey", "2344": "ued", "2345": "\u2581id", "2346": "aked", "2347": "feit", "2348": "host", "2349": "ines", "2350": "king", "2351": "ully", "2352": "vest", "2353": "ying", "2354": "\u2581Con", "2355": "\u2581Gre", "2356": "\u2581Kat", "2357": "\u2581Whi", "2358": "\u2581ben", "2359": "\u2581fie", "2360": "\u2581mid", "2361": "\u2581nay", "2362": "\u2581occ", "2363": "\u2581sur", "2364": "\u2581Doth", "2365": "\u2581Hark", "2366": "\u2581damn", "2367": "\u2581dest", "2368": "\u2581hide", "2369": "\u2581writ", "2370": "asters", "2371": "harina", "2372": "\u2581Bohem", "2373": "\u2581North", "2374": "\u2581beast", "2375": "\u2581small", "2376": "\u2581Pompey", "2377": "\u2581almost", "2378": "\u2581chance", "2379": "\u2581depart", "2380": "\u2581pretty", "2381": "\u2581possess", "2382": "\u2581thither", "2383": "umberland", "2384": "\u2581subjects", "2385": "\u2581Katharina", "2386": "\u2581execution", "2387": "\u2581slaughter", "2388": "\u2581Northumberland", "2389": "AT", "2390": "RG", "2391": "ITA", "2392": "arl", "2393": "aul", "2394": "rum", "2395": "umb", "2396": "\u2581Ad", "2397": "\u2581Am", "2398": "\u2581Br", "2399": "\u2581Ca", "2400": "\u2581Ex", "2401": "\u2581ut", "2402": "hind", "2403": "oint", "2404": "then", "2405": "ural", "2406": "\u2581eas", "2407": "inger", "2408": "ingly", "2409": "ledge", "2410": "\u2581Hold", "2411": "\u2581PERD", "2412": "\u2581Paul", "2413": "\u2581VIRG", "2414": "\u2581base", "2415": "\u2581fill", "2416": "\u2581fond", "2417": "\u2581form", "2418": "\u2581glad", "2419": "\u2581inno", "2420": "\u2581pain", "2421": "\u2581stru", "2422": "\u2581tear", "2423": "\u2581wert", "2424": "cience", "2425": "perate", "2426": "\u2581Peace", "2427": "\u2581Sweet", "2428": "\u2581birth", "2429": "\u2581hadst", "2430": "\u2581trump", "2431": "\u2581usurp", "2432": "\u2581awhile", "2433": "\u2581favour", "2434": "\u2581goodly", "2435": "\u2581living", "2436": "\u2581whence", "2437": "\u2581Bohemia", "2438": "\u2581PERDITA", "2439": "\u2581certain", "2440": "\u2581hearing", "2441": "\u2581offence", "2442": "\u2581perform", "2443": "\u2581proceed", "2444": "\u2581quickly", "2445": "\u2581VIRGILIA", "2446": "\u2581virtuous", "2447": "LY", "2448": "ze", "2449": "dge", "2450": "eds", "2451": "eem", "2452": "raw", "2453": "ror", "2454": "\u2581ay", "2455": "\u2581ca", "2456": "\u2581ur", "2457": "IANA", "2458": "ding", "2459": "iest", "2460": "omes", "2461": "orth", "2462": "over", "2463": "\u2581Off", "2464": "\u2581SLY", "2465": "\u2581Yea", "2466": "\u2581adm", "2467": "\u2581inj", "2468": "\u2581pit", "2469": "\u2581shi", "2470": "\u2581tor", "2471": "edant", "2472": "force", "2473": "isure", "2474": "ustom", "2475": "\u2581Stay", "2476": "\u2581fier", "2477": "\u2581knee", "2478": "\u2581mild", "2479": "\u2581shad", "2480": "\u2581slew", "2481": "\u2581walk", "2482": "\u2581wild", "2483": "astard", "2484": "\u2581angry", "2485": "\u2581blows", "2486": "\u2581forsw", "2487": "\u2581kneel", "2488": "\u2581match", "2489": "\u2581pleas", "2490": "\u2581quiet", "2491": "\u2581worst", "2492": "\u2581Isabel", "2493": "\u2581church", "2494": "\u2581guilty", "2495": "\u2581lawful", "2496": "\u2581MARIANA", "2497": "\u2581greater", "2498": "\u2581leisure", "2499": "\u2581soldier", "2500": "\u2581treason", "2501": "\u2581weeping", "2502": "\u2581deserved", "2503": "\u2581affection", "2504": "gg", "2505": "arn", "2506": "awn", "2507": "gue", "2508": "joy", "2509": "ked", "2510": "med", "2511": "ony", "2512": "ual", "2513": "vol", "2514": "zen", "2515": "\u2581ST", "2516": "\u2581Tw", "2517": "\u2581ap", "2518": "\u2581em", "2519": "ARIS", "2520": "adua", "2521": "ames", "2522": "ighb", "2523": "read", "2524": "rupt", "2525": "\u2581Bel", "2526": "\u2581Men", "2527": "\u2581Out", "2528": "\u2581fam", "2529": "\u2581hap", "2530": "\u2581med", "2531": "\u2581mod", "2532": "\u2581nob", "2533": "\u2581sho", "2534": "\u2581unc", "2535": "\u2581unk", "2536": "\u2581won", "2537": "ended", "2538": "eness", "2539": "fully", "2540": "remio", "2541": "rumio", "2542": "\u2581Mist", "2543": "\u2581blow", "2544": "\u2581doom", "2545": "\u2581fled", "2546": "\u2581list", "2547": "\u2581neck", "2548": "\u2581sole", "2549": "\u2581year", "2550": "\u2581PARIS", "2551": "\u2581Padua", "2552": "\u2581Watch", "2553": "\u2581While", "2554": "\u2581ignor", "2555": "\u2581march", "2556": "\u2581needs", "2557": "\u2581reign", "2558": "\u2581sense", "2559": "\u2581shows", "2560": "antagen", "2561": "itizens", "2562": "osition", "2563": "\u2581Gremio", "2564": "\u2581Grumio", "2565": "\u2581behind", "2566": "\u2581clouds", "2567": "\u2581contin", "2568": "\u2581encoun", "2569": "\u2581forbid", "2570": "\u2581govern", "2571": "\u2581ladies", "2572": "\u2581letter", "2573": "\u2581second", "2574": "\u2581speaks", "2575": "\u2581English", "2576": "\u2581because", "2577": "\u2581breathe", "2578": "\u2581condemn", "2579": "\u2581letters", "2580": "\u2581liberty", "2581": "\u2581measure", "2582": "\u2581trouble", "2583": "\u2581wouldst", "2584": "\u2581prisoner", "2585": "\u2581sentence", "2586": "\u2581shepherd", "2587": "\u2581Plantagen", "2588": "\u2581dishonour", "2589": "\u2581ourselves", "2590": "\u2581banishment", "2591": ":'", "2592": "dle", "2593": "ize", "2594": "oor", "2595": "oss", "2596": "rue", "2597": "vel", "2598": "acle", "2599": "aves", "2600": "ider", "2601": "iles", "2602": "rous", "2603": "ster", "2604": "\u2581Ant", "2605": "\u2581Hea", "2606": "\u2581Int", "2607": "\u2581Too", "2608": "\u2581big", "2609": "\u2581cru", "2610": "\u2581dog", "2611": "\u2581dry", "2612": "\u2581lan", "2613": "\u2581mut", "2614": "\u2581oft", "2615": "\u2581pet", "2616": "\u2581ref", "2617": "aring", "2618": "ators", "2619": "ndred", "2620": "\u2581Fear", "2621": "\u2581five", "2622": "\u2581held", "2623": "\u2581join", "2624": "\u2581laid", "2625": "\u2581note", "2626": "\u2581obey", "2627": "\u2581seat", "2628": "\u2581sort", "2629": "\u2581stor", "2630": "\u2581temp", "2631": "\u2581vain", "2632": "\u2581womb", "2633": "\u2581Gaunt", "2634": "\u2581PETER", "2635": "\u2581above", "2636": "\u2581aside", "2637": "\u2581bones", "2638": "\u2581drunk", "2639": "\u2581fresh", "2640": "\u2581grand", "2641": "\u2581lived", "2642": "\u2581noise", "2643": "\u2581piece", "2644": "\u2581rough", "2645": "\u2581steal", "2646": "\u2581Sirrah", "2647": "\u2581appare", "2648": "\u2581choose", "2649": "\u2581golden", "2650": "\u2581longer", "2651": "\u2581morrow", "2652": "\u2581remain", "2653": "\u2581hundred", "2654": "\u2581prosper", "2655": "\u2581victory", "2656": "\u2581dispatch", "2657": "\u2581proclaim", "2658": "\u2581conscience", "2659": "\u2581Plantagenet", "2660": "bb", "2661": "hn", "2662": "ny", "2663": "ts", "2664": "!--", "2665": "ART", "2666": "WIS", "2667": "ban", "2668": "ety", "2669": "ieu", "2670": "ott", "2671": "rim", "2672": "set", "2673": "ume", "2674": "vey", "2675": "\u2581En", "2676": "\u2581Fa", "2677": "\u2581Me", "2678": "\u2581Sc", "2679": "\u2581ef", "2680": "RIEL", "2681": "ceit", "2682": "erle", "2683": "iled", "2684": "ular", "2685": "ulet", "2686": "\u2581DOR", "2687": "\u2581Per", "2688": "\u2581exc", "2689": "\u2581ind", "2690": "\u2581lau", "2691": "\u2581len", "2692": "\u2581low", "2693": "\u2581saf", "2694": "\u2581sch", "2695": "\u2581sto", "2696": "\u2581sus", "2697": "asion", "2698": "inius", "2699": "lease", "2700": "ounds", "2701": "posed", "2702": "uthor", "2703": "\u2581Earl", "2704": "\u2581Hear", "2705": "\u2581LART", "2706": "\u2581Unto", "2707": "\u2581bend", "2708": "\u2581fine", "2709": "\u2581lust", "2710": "\u2581obed", "2711": "\u2581purs", "2712": "\u2581shed", "2713": "\u2581tent", "2714": "\u2581warm", "2715": "\u2581woes", "2716": "atesby", "2717": "icious", "2718": "\u2581ARIEL", "2719": "\u2581Could", "2720": "\u2581LEWIS", "2721": "\u2581bears", "2722": "\u2581broke", "2723": "\u2581conqu", "2724": "\u2581doing", "2725": "\u2581drown", "2726": "\u2581glory", "2727": "\u2581knees", "2728": "\u2581lands", "2729": "\u2581pride", "2730": "\u2581saint", "2731": "\u2581stain", "2732": "\u2581steel", "2733": "\u2581stood", "2734": "\u2581swift", "2735": "\u2581venge", "2736": "\u2581double", "2737": "\u2581effect", "2738": "\u2581forgot", "2739": "\u2581labour", "2740": "\u2581revere", "2741": "\u2581threat", "2742": "\u2581wisdom", "2743": "\u2581Capulet", "2744": "\u2581Catesby", "2745": "\u2581LARTIUS", "2746": "\u2581blessed", "2747": "\u2581counter", "2748": "\u2581despair", "2749": "\u2581kinsman", "2750": "\u2581slander", "2751": "\u2581towards", "2752": "\u2581Watchman", "2753": "\u2581citizens", "2754": "\u2581precious", "2755": "\u2581desperate", "2756": "\u2581encounter", "2757": "\u2581entertain", "2758": "\u2581knowledge", "2759": "\u2581yourselves", "2760": ";'", "2761": "AMP", "2762": "TIS", "2763": "ang", "2764": "irl", "2765": "owb", "2766": "ude", "2767": "uff", "2768": "\u2581fe", "2769": "cted", "2770": "ease", "2771": "iful", "2772": "rent", "2773": "vail", "2774": "\u2581Aum", "2775": "\u2581CUR", "2776": "\u2581Dis", "2777": "\u2581Fri", "2778": "\u2581Ver", "2779": "\u2581eld", "2780": "\u2581fat", "2781": "\u2581few", "2782": "\u2581fru", "2783": "\u2581pun", "2784": "\u2581ran", "2785": "\u2581uns", "2786": "eterm", "2787": "gment", "2788": "iance", "2789": "ility", "2790": "itors", "2791": "rence", "2792": "\u2581Cons", "2793": "\u2581John", "2794": "\u2581Mowb", "2795": "\u2581SAMP", "2796": "\u2581abro", "2797": "\u2581army", "2798": "\u2581capt", "2799": "\u2581corn", "2800": "\u2581died", "2801": "\u2581foll", "2802": "\u2581hair", "2803": "\u2581kept", "2804": "\u2581seal", "2805": "\u2581sour", "2806": "\u2581stud", "2807": "ations", "2808": "estion", "2809": "ointed", "2810": "ontent", "2811": "\u2581alive", "2812": "\u2581const", "2813": "\u2581contr", "2814": "\u2581dance", "2815": "\u2581enjoy", "2816": "\u2581guess", "2817": "\u2581guest", "2818": "\u2581money", "2819": "\u2581mount", "2820": "\u2581plant", "2821": "\u2581quoth", "2822": "\u2581remed", "2823": "\u2581sever", "2824": "\u2581white", "2825": "\u2581CURTIS", "2826": "\u2581Keeper", "2827": "\u2581Pedant", "2828": "\u2581Within", "2829": "\u2581author", "2830": "\u2581beggar", "2831": "\u2581cheeks", "2832": "\u2581deadly", "2833": "\u2581determ", "2834": "\u2581fought", "2835": "\u2581health", "2836": "\u2581manner", "2837": "\u2581struck", "2838": "\u2581Aumerle", "2839": "\u2581Mowbray", "2840": "\u2581SAMPSON", "2841": "\u2581bastard", "2842": "\u2581flowers", "2843": "\u2581honours", "2844": "\u2581masters", "2845": "\u2581lordship", "2846": "\u2581methinks", "2847": "\u2581promised", "2848": "\u2581wretched", "2849": "\u2581understand", "2850": "BU", "2851": "ne", "2852": ":--", "2853": "GON", "2854": "LEY", "2855": "ash", "2856": "den", "2857": "ief", "2858": "mit", "2859": "ppy", "2860": "tle", "2861": "\u2581Fl", "2862": "\u2581Ne", "2863": "BURY", "2864": "bury", "2865": "ewis", "2866": "head", "2867": "ited", "2868": "osed", "2869": "reed", "2870": "utio", "2871": "ways", "2872": "\u2581Put", "2873": "\u2581aid", "2874": "\u2581deg", "2875": "\u2581pal", "2876": "\u2581rot", "2877": "\u2581sim", "2878": "\u2581try", "2879": "GONUS", "2880": "ament", "2881": "ounce", "2882": "\u2581ANTI", "2883": "\u2581Mine", "2884": "\u2581Poor", "2885": "\u2581cred", "2886": "\u2581gent", "2887": "\u2581prov", "2888": "orious", "2889": "\u2581Lewis", "2890": "\u2581among", "2891": "\u2581calls", "2892": "\u2581cried", "2893": "\u2581cruel", "2894": "\u2581early", "2895": "\u2581going", "2896": "\u2581greet", "2897": "\u2581guard", "2898": "\u2581judge", "2899": "\u2581liest", "2900": "\u2581moved", "2901": "\u2581seven", "2902": "\u2581shake", "2903": "\u2581spent", "2904": "\u2581stars", "2905": "\u2581teach", "2906": "\u2581truly", "2907": "\u2581Either", "2908": "\u2581Heaven", "2909": "\u2581Pardon", "2910": "\u2581demand", "2911": "\u2581dreams", "2912": "\u2581extrem", "2913": "\u2581humble", "2914": "\u2581neighb", "2915": "\u2581priest", "2916": "\u2581scarce", "2917": "\u2581summer", "2918": "\u2581valour", "2919": "\u2581wretch", "2920": "\u2581account", "2921": "\u2581charity", "2922": "\u2581foolish", "2923": "\u2581herself", "2924": "\u2581kindred", "2925": "\u2581officer", "2926": "\u2581triumph", "2927": "\u2581whether", "2928": "\u2581Citizens", "2929": "\u2581Mercutio", "2930": "\u2581brothers", "2931": "\u2581ANTIGONUS", "2932": "\u2581honourable", "2933": "BR", "2934": "lp", "2935": "ATC", "2936": "BRA", "2937": "ask", "2938": "iew", "2939": "ify", "2940": "pir", "2941": "roy", "2942": "\u2581ba", "2943": "\u2581ga", "2944": "Twas", "2945": "ians", "2946": "ites", "2947": "leep", "2948": "mble", "2949": "\u2581Bet", "2950": "\u2581Bid", "2951": "\u2581add", "2952": "\u2581cir", "2953": "\u2581din", "2954": "\u2581rid", "2955": "\u2581unf", "2956": "\u2581yea", "2957": "arted", "2958": "ating", "2959": "house", "2960": "ining", "2961": "orthy", "2962": "under", "2963": "\u2581Made", "2964": "\u2581Mars", "2965": "\u2581Once", "2966": "\u2581RATC", "2967": "\u2581anon", "2968": "\u2581beha", "2969": "\u2581bids", "2970": "\u2581dism", "2971": "\u2581ease", "2972": "\u2581envy", "2973": "\u2581fart", "2974": "\u2581hung", "2975": "\u2581idle", "2976": "\u2581imag", "2977": "\u2581ours", "2978": "\u2581pack", "2979": "\u2581rise", "2980": "\u2581thro", "2981": "\u2581view", "2982": "\u2581wail", "2983": "though", "2984": "\u2581Alack", "2985": "\u2581Faith", "2986": "\u2581Harry", "2987": "\u2581Music", "2988": "\u2581Never", "2989": "\u2581benef", "2990": "\u2581blame", "2991": "\u2581chast", "2992": "\u2581crave", "2993": "\u2581dwell", "2994": "\u2581faint", "2995": "\u2581faire", "2996": "\u2581force", "2997": "\u2581glass", "2998": "\u2581laugh", "2999": "\u2581miser", "3000": "\u2581month", "3001": "\u2581party", "3002": "\u2581stone", "3003": "\u2581subst", "3004": "\u2581trial", "3005": "\u2581walls", "3006": "\u2581weary", "3007": "\u2581abroad", "3008": "\u2581bright", "3009": "\u2581custom", "3010": "\u2581malice", "3011": "\u2581others", "3012": "\u2581thinks", "3013": "\u2581winter", "3014": "\u2581Volsces", "3015": "\u2581butcher", "3016": "\u2581fellows", "3017": "\u2581private", "3018": "\u2581provost", "3019": "\u2581thereof", "3020": "\u2581Cominius", "3021": "\u2581RATCLIFF", "3022": "\u2581kindness", "3023": "\u2581minister", "3024": "\u2581condition", "3025": "\u2581satisfied", "3026": "\u2581vengeance", "3027": "\u2581wherefore", "3028": "ALT", "3029": "HOP", "3030": "amp", "3031": "ope", "3032": "BALT", "3033": "cell", "3034": "enes", "3035": "lock", "3036": "ners", "3037": "omas", "3038": "rees", "3039": "scal", "3040": "vell", "3041": "with", "3042": "\u2581Des", "3043": "\u2581Fie", "3044": "\u2581Rut", "3045": "\u2581Vin", "3046": "\u2581bef", "3047": "\u2581env", "3048": "\u2581god", "3049": "\u2581hol", "3050": "\u2581rel", "3051": "\u2581smo", "3052": "\u2581unb", "3053": "\u2581unl", "3054": "\u2581unp", "3055": "\u2581ver", "3056": "\u2581wag", "3057": "\u2581wre", "3058": "ANLEY", "3059": "ISHOP", "3060": "ailor", "3061": "allow", "3062": "antua", "3063": "eless", "3064": "icked", "3065": "ident", "3066": "orous", "3067": "rench", "3068": "\u2581Barn", "3069": "\u2581Show", "3070": "\u2581True", "3071": "\u2581acqu", "3072": "\u2581arri", "3073": "\u2581bite", "3074": "\u2581boot", "3075": "\u2581deal", "3076": "\u2581dull", "3077": "\u2581easy", "3078": "\u2581evil", "3079": "\u2581firm", "3080": "\u2581foes", "3081": "\u2581gown", "3082": "\u2581incl", "3083": "\u2581lest", "3084": "\u2581meat", "3085": "\u2581root", "3086": "\u2581vice", "3087": "\u2581vile", "3088": "\u2581After", "3089": "\u2581Hence", "3090": "\u2581Lords", "3091": "\u2581Peter", "3092": "\u2581Under", "3093": "\u2581blind", "3094": "\u2581concl", "3095": "\u2581corse", "3096": "\u2581cover", "3097": "\u2581fruit", "3098": "\u2581mayst", "3099": "\u2581quite", "3100": "\u2581shore", "3101": "\u2581shrew", "3102": "\u2581sport", "3103": "\u2581wench", "3104": "\u2581Mantua", "3105": "\u2581Please", "3106": "\u2581TYBALT", "3107": "\u2581Thomas", "3108": "\u2581Whilst", "3109": "\u2581afford", "3110": "\u2581convey", "3111": "\u2581deputy", "3112": "\u2581excuse", "3113": "\u2581flower", "3114": "\u2581former", "3115": "\u2581humour", "3116": "\u2581prophe", "3117": "\u2581school", "3118": "\u2581swords", "3119": "\u2581tyrant", "3120": "\u2581Corioli", "3121": "\u2581Paulina", "3122": "\u2581Rutland", "3123": "\u2581STANLEY", "3124": "\u2581changed", "3125": "\u2581counten", "3126": "\u2581honesty", "3127": "\u2581tongues", "3128": "\u2581Methinks", "3129": "\u2581judgment", "3130": "\u2581question", "3131": "\u2581received", "3132": "\u2581Vincentio", "3133": "'?", "3134": "AK", "3135": "ek", "3136": "AND", "3137": "HOM", "3138": "ead", "3139": "llo", "3140": "she", "3141": "und", "3142": "\u2581Lo", "3143": "AKEN", "3144": "aper", "3145": "azed", "3146": "ered", "3147": "ilia", "3148": "omer", "3149": "ract", "3150": "rate", "3151": "rift", "3152": "roth", "3153": "vish", "3154": "\u2581Art", "3155": "\u2581Ind", "3156": "\u2581Sic", "3157": "\u2581Tut", "3158": "\u2581spe", "3159": "HOMAS", "3160": "acher", "3161": "anley", "3162": "arden", "3163": "cians", "3164": "ement", "3165": "rison", "3166": "twixt", "3167": "ursed", "3168": "woman", "3169": "\u2581Dost", "3170": "\u2581Jove", "3171": "\u2581Love", "3172": "\u2581Wilt", "3173": "\u2581brow", "3174": "\u2581circ", "3175": "\u2581cure", "3176": "\u2581disg", "3177": "\u2581door", "3178": "\u2581dust", "3179": "\u2581fain", "3180": "\u2581feed", "3181": "\u2581gift", "3182": "\u2581girl", "3183": "\u2581leng", "3184": "\u2581nose", "3185": "\u2581stab", "3186": "\u2581stop", "3187": "ealous", "3188": "idings", "3189": "\u2581Caius", "3190": "\u2581Death", "3191": "\u2581Friar", "3192": "\u2581blest", "3193": "\u2581brows", "3194": "\u2581fiery", "3195": "\u2581ghost", "3196": "\u2581green", "3197": "\u2581gross", "3198": "\u2581grown", "3199": "\u2581joint", "3200": "\u2581knave", "3201": "\u2581pains", "3202": "\u2581proof", "3203": "\u2581sheep", "3204": "\u2581spake", "3205": "\u2581stoop", "3206": "\u2581taken", "3207": "\u2581twice", "3208": "\u2581tyran", "3209": "\u2581BRAKEN", "3210": "\u2581Prince", "3211": "\u2581THOMAS", "3212": "\u2581Verona", "3213": "\u2581affair", "3214": "\u2581always", "3215": "\u2581buried", "3216": "\u2581choice", "3217": "\u2581divine", "3218": "\u2581finger", "3219": "\u2581import", "3220": "\u2581leaves", "3221": "\u2581necess", "3222": "\u2581remedy", "3223": "\u2581repent", "3224": "\u2581sacred", "3225": "\u2581safety", "3226": "\u2581senate", "3227": "\u2581sirrah", "3228": "\u2581spring", "3229": "\u2581undert", "3230": "\u2581whilst", "3231": "\u2581wicked", "3232": "\u2581wither", "3233": "\u2581wrongs", "3234": "\u2581Besides", "3235": "\u2581Brother", "3236": "\u2581Stanley", "3237": "\u2581embrace", "3238": "\u2581prevail", "3239": "\u2581prevent", "3240": "\u2581reasons", "3241": "\u2581silence", "3242": "\u2581therein", "3243": "\u2581thunder", "3244": "\u2581Mistress", "3245": "\u2581creature", "3246": "\u2581innocent", "3247": "\u2581occasion", "3248": "\u2581perceive", "3249": "\u2581traitors", "3250": "\u2581BRAKENBURY", "3251": "?'", "3252": "jo", "3253": "mn", "3254": "sp", "3255": "GOR", "3256": "ONE", "3257": "STR", "3258": "eld", "3259": "hys", "3260": "loy", "3261": "nat", "3262": "oly", "3263": "omp", "3264": "pin", "3265": "shi", "3266": "\u2581AE", "3267": "\u2581OV", "3268": "\u2581ed", "3269": "\u2581es", "3270": "ERBY", "3271": "GORY", "3272": "aced", "3273": "anch", "3274": "aste", "3275": "ault", "3276": "elve", "3277": "hant", "3278": "itol", "3279": "oard", "3280": "orry", "3281": "unts", "3282": "\u2581Apo", "3283": "\u2581avo", "3284": "\u2581cre", "3285": "\u2581dec", "3286": "\u2581eag", "3287": "\u2581ele", "3288": "\u2581emp", "3289": "\u2581lar", "3290": "\u2581rob", "3291": "\u2581shr", "3292": "ctise", "3293": "enius", "3294": "hysic", "3295": "inous", "3296": "\u2581Turn", "3297": "\u2581bark", "3298": "\u2581drop", "3299": "\u2581empt", "3300": "\u2581fury", "3301": "\u2581rock", "3302": "\u2581rude", "3303": "\u2581sail", "3304": "\u2581shar", "3305": "\u2581ship", "3306": "\u2581sits", "3307": "\u2581used", "3308": "\u2581went", "3309": "ERDONE", "3310": "STRESS", "3311": "ardine", "3312": "edious", "3313": "othing", "3314": "unning", "3315": "\u2581DERBY", "3316": "\u2581Somer", "3317": "\u2581adieu", "3318": "\u2581allow", "3319": "\u2581anger", "3320": "\u2581belly", "3321": "\u2581cares", "3322": "\u2581cheek", "3323": "\u2581claim", "3324": "\u2581condu", "3325": "\u2581drawn", "3326": "\u2581fares", "3327": "\u2581langu", "3328": "\u2581loath", "3329": "\u2581loyal", "3330": "\u2581maids", "3331": "\u2581mayor", "3332": "\u2581plead", "3333": "\u2581round", "3334": "\u2581smile", "3335": "\u2581tempt", "3336": "\u2581troth", "3337": "\u2581utter", "3338": "\u2581weeds", "3339": "\u2581wings", "3340": "\u2581Having", "3341": "\u2581Indeed", "3342": "\u2581Myself", "3343": "\u2581assist", "3344": "\u2581broken", "3345": "\u2581design", "3346": "\u2581fright", "3347": "\u2581garden", "3348": "\u2581hollow", "3349": "\u2581inform", "3350": "\u2581knight", "3351": "\u2581oracle", "3352": "\u2581plague", "3353": "\u2581prayer", "3354": "\u2581renown", "3355": "\u2581rotten", "3356": "\u2581stones", "3357": "\u2581wanton", "3358": "aughters", "3359": "\u2581Capitol", "3360": "\u2581GREGORY", "3361": "\u2581Prithee", "3362": "\u2581Wherein", "3363": "\u2581Without", "3364": "\u2581absence", "3365": "\u2581commend", "3366": "\u2581delight", "3367": "\u2581deserve", "3368": "\u2581despite", "3369": "\u2581profess", "3370": "\u2581violent", "3371": "\u2581wherein", "3372": "\u2581MISTRESS", "3373": "\u2581Menenius", "3374": "\u2581OVERDONE", "3375": "\u2581Somerset", "3376": "\u2581deceived", "3377": "\u2581ignorant", "3378": "\u2581imprison", "3379": "\u2581practise", "3380": "\u2581treacher", "3381": "\u2581trumpets", "3382": "\u2581Barnardine", "3383": "\u2581countenance", "3384": "MON", "3385": "act", "3386": "aze", "3387": "cha", "3388": "esy", "3389": "isa", "3390": "mon", "3391": "pet", "3392": "ALER", "3393": "FORD", "3394": "MOND", "3395": "ards", "3396": "ashi", "3397": "cend", "3398": "draw", "3399": "eeth", "3400": "eous", "3401": "haps", "3402": "held", "3403": "ione", "3404": "ises", "3405": "ongs", "3406": "othe", "3407": "rand", "3408": "rehe", "3409": "semb", "3410": "utes", "3411": "\u2581Lea", "3412": "\u2581Pol", "3413": "\u2581Pre", "3414": "\u2581Res", "3415": "\u2581SOM", "3416": "\u2581Sha", "3417": "\u2581aim", "3418": "\u2581amb", "3419": "\u2581det", "3420": "\u2581dew", "3421": "\u2581due", "3422": "\u2581dur", "3423": "\u2581hid", "3424": "\u2581hit", "3425": "\u2581pil", "3426": "\u2581pin", "3427": "\u2581six", "3428": "ERSET", "3429": "iment", "3430": "mione", "3431": "rious", "3432": "\u2581Grey", "3433": "\u2581Into", "3434": "\u2581Know", "3435": "\u2581Mark", "3436": "\u2581Pisa", "3437": "\u2581alas", "3438": "\u2581babe", "3439": "\u2581ball", "3440": "\u2581cell", "3441": "\u2581earn", "3442": "\u2581gain", "3443": "\u2581heav", "3444": "\u2581lamb", "3445": "\u2581loud", "3446": "\u2581nine", "3447": "\u2581ones", "3448": "\u2581pair", "3449": "\u2581pawn", "3450": "\u2581publ", "3451": "\u2581ruin", "3452": "\u2581sens", "3453": "\u2581star", "3454": "\u2581stat", "3455": "\u2581tune", "3456": "\u2581wont", "3457": "ALERIA", "3458": "change", "3459": "ission", "3460": "itting", "3461": "pinion", "3462": "ursday", "3463": "\u2581Great", "3464": "\u2581Three", "3465": "\u2581aught", "3466": "\u2581awake", "3467": "\u2581borne", "3468": "\u2581carry", "3469": "\u2581chief", "3470": "\u2581cries", "3471": "\u2581deare", "3472": "\u2581fatal", "3473": "\u2581fools", "3474": "\u2581gives", "3475": "\u2581names", "3476": "\u2581persu", "3477": "\u2581sighs", "3478": "\u2581steed", "3479": "\u2581stock", "3480": "\u2581storm", "3481": "\u2581stuff", "3482": "\u2581tread", "3483": "\u2581whole", "3484": "\u2581wives", "3485": "\u2581woful", "3486": "onounce", "3487": "\u2581Apollo", "3488": "\u2581Cousin", "3489": "\u2581Rivers", "3490": "\u2581advise", "3491": "\u2581asleep", "3492": "\u2581begins", "3493": "\u2581castle", "3494": "\u2581colour", "3495": "\u2581damned", "3496": "\u2581devise", "3497": "\u2581excell", "3498": "\u2581infect", "3499": "\u2581motion", "3500": "\u2581nobles", "3501": "\u2581number", "3502": "\u2581offend", "3503": "\u2581proper", "3504": "\u2581rememb", "3505": "\u2581resign", "3506": "\u2581simple", "3507": "\u2581supper", "3508": "\u2581thrive", "3509": "\u2581throat", "3510": "\u2581thrust", "3511": "\u2581undone", "3512": "ethought", "3513": "\u2581VALERIA", "3514": "\u2581affairs", "3515": "\u2581becomes", "3516": "\u2581benefit", "3517": "\u2581burthen", "3518": "\u2581deposed", "3519": "\u2581envious", "3520": "\u2581express", "3521": "\u2581farther", "3522": "\u2581follows", "3523": "\u2581hanging", "3524": "\u2581jealous", "3525": "\u2581meaning", "3526": "\u2581outward", "3527": "\u2581passing", "3528": "\u2581pleased", "3529": "\u2581protect", "3530": "\u2581receive", "3531": "\u2581tedious", "3532": "\u2581tidings", "3533": "\u2581vantage", "3534": "\u2581Hermione", "3535": "\u2581Musician", "3536": "\u2581RICHMOND", "3537": "\u2581SOMERSET", "3538": "\u2581Thursday", "3539": "\u2581banished", "3540": "\u2581dreadful", "3541": "\u2581garments", "3542": "\u2581possible", "3543": "\u2581prepared", "3544": "\u2581shouldst", "3545": "\u2581Christian", "3546": "\u2581authority", "3547": "\u2581followers", "3548": "\u2581disposition", "3549": "BH", "3550": "HY", "3551": "SA", "3552": "eg", "3553": "go", "3554": "ub", "3555": "ene", "3556": "enn", "3557": "gle", "3558": "hop", "3559": "rib", "3560": "ron", "3561": "run", "3562": "thi", "3563": "\u2581Bi", "3564": "\u2581er", "3565": "\u2581ir", "3566": "BHOR", "3567": "BRAY", "3568": "ETER", "3569": "LIUS", "3570": "OPSA", "3571": "USHY", "3572": "anct", "3573": "ancy", "3574": "arch", "3575": "ared", "3576": "atsw", "3577": "cing", "3578": "ello", "3579": "iffe", "3580": "ills", "3581": "ldom", "3582": "ords", "3583": "room", "3584": "yard", "3585": "yond", "3586": "\u2581Boy", "3587": "\u2581Has", "3588": "\u2581MOW", "3589": "\u2581bew", "3590": "\u2581cal", "3591": "\u2581cam", "3592": "\u2581equ", "3593": "\u2581lip", "3594": "\u2581lod", "3595": "\u2581owe", "3596": "\u2581sup", "3597": "\u2581top", "3598": "\u2581van", "3599": "after", "3600": "eding", "3601": "ellow", "3602": "erved", "3603": "imely", "3604": "itude", "3605": "loved", "3606": "orses", "3607": "ounty", "3608": "ouses", "3609": "place", "3610": "usion", "3611": "\u2581Bona", "3612": "\u2581Help", "3613": "\u2581Very", "3614": "\u2581ange", "3615": "\u2581band", "3616": "\u2581bond", "3617": "\u2581cens", "3618": "\u2581conj", "3619": "\u2581disd", "3620": "\u2581drum", "3621": "\u2581gage", "3622": "\u2581hurt", "3623": "\u2581lean", "3624": "\u2581legs", "3625": "\u2581lend", "3626": "\u2581prey", "3627": "\u2581quit", "3628": "\u2581rash", "3629": "\u2581room", "3630": "\u2581seas", "3631": "\u2581shut", "3632": "\u2581step", "3633": "\u2581sway", "3634": "\u2581tort", "3635": "\u2581weap", "3636": "\u2581wine", "3637": "enture", "3638": "illing", "3639": "iteous", "3640": "ixenes", "3641": "ortion", "3642": "\u2581ABHOR", "3643": "\u2581BUSHY", "3644": "\u2581Biond", "3645": "\u2581Leave", "3646": "\u2581MAMIL", "3647": "\u2581MOPSA", "3648": "\u2581Still", "3649": "\u2581accus", "3650": "\u2581brook", "3651": "\u2581chair", "3652": "\u2581clear", "3653": "\u2581crack", "3654": "\u2581curst", "3655": "\u2581delay", "3656": "\u2581empty", "3657": "\u2581exile", "3658": "\u2581keeps", "3659": "\u2581mourn", "3660": "\u2581paper", "3661": "\u2581parts", "3662": "\u2581penit", "3663": "\u2581peril", "3664": "\u2581prize", "3665": "\u2581sanct", "3666": "\u2581sorry", "3667": "\u2581speci", "3668": "\u2581spend", "3669": "\u2581store", "3670": "\u2581taste", "3671": "\u2581teeth", "3672": "\u2581trans", "3673": "\u2581unnat", "3674": "\u2581until", "3675": "\u2581wrath", "3676": "atswain", "3677": "utation", "3678": "\u2581Tailor", "3679": "\u2581accept", "3680": "\u2581access", "3681": "\u2581accuse", "3682": "\u2581affect", "3683": "\u2581beheld", "3684": "\u2581belike", "3685": "\u2581circum", "3686": "\u2581denied", "3687": "\u2581desert", "3688": "\u2581dinner", "3689": "\u2581flight", "3690": "\u2581humbly", "3691": "\u2581intend", "3692": "\u2581kingly", "3693": "\u2581palace", "3694": "\u2581partic", "3695": "\u2581perish", "3696": "\u2581physic", "3697": "\u2581punish", "3698": "\u2581shadow", "3699": "\u2581silver", "3700": "\u2581solemn", "3701": "\u2581twelve", "3702": "\u2581wander", "3703": "\u2581weight", "3704": "\u2581Believe", "3705": "\u2581MOWBRAY", "3706": "\u2581Officer", "3707": "\u2581betwixt", "3708": "\u2581conquer", "3709": "\u2581corrupt", "3710": "\u2581cunning", "3711": "\u2581perfect", "3712": "\u2581protest", "3713": "\u2581resolve", "3714": "\u2581several", "3715": "\u2581spirits", "3716": "\u2581wedding", "3717": "\u2581whither", "3718": "\u2581ABHORSON", "3719": "\u2581continue", "3720": "\u2581contrary", "3721": "\u2581courtesy", "3722": "\u2581forsworn", "3723": "\u2581goodness", "3724": "\u2581murderer", "3725": "\u2581petition", "3726": "\u2581pleasant", "3727": "\u2581resolved", "3728": "\u2581threaten", "3729": "\u2581Biondello", "3730": "\u2581MAMILLIUS", "3731": "\u2581Polixenes", "3732": "\u2581advantage", "3733": "\u2581daughters", "3734": "\u2581miserable", "3735": "\u2581neighbour", "3736": "\u2581gentlewoman", "3737": "CH", "3738": "af", "3739": "dy", "3740": "rt", "3741": "RCH", "3742": "aff", "3743": "ane", "3744": "cio", "3745": "ept", "3746": "irg", "3747": "oke", "3748": "oot", "3749": "ote", "3750": "pic", "3751": "que", "3752": "ung", "3753": "\u2581Co", "3754": "\u2581di", "3755": "\u2581pi", "3756": "ALTH", "3757": "ASAR", "3758": "ERCY", "3759": "amed", "3760": "cape", "3761": "cian", "3762": "ency", "3763": "erve", "3764": "mity", "3765": "oler", "3766": "outs", "3767": "ping", "3768": "sequ", "3769": "sing", "3770": "uted", "3771": "\u2581AEd", "3772": "\u2581Nap", "3773": "\u2581Rep", "3774": "\u2581Two", "3775": "\u2581ado", "3776": "\u2581arg", "3777": "\u2581bas", "3778": "\u2581bud", "3779": "\u2581clo", "3780": "\u2581cup", "3781": "\u2581dag", "3782": "\u2581fee", "3783": "\u2581fle", "3784": "\u2581fro", "3785": "\u2581sep", "3786": "\u2581tut", "3787": "\u2581wol", "3788": "\u2581wot", "3789": "aries", "3790": "clock", "3791": "ising", "3792": "kedom", "3793": "pping", "3794": "rease", "3795": "umble", "3796": "\u2581ARCH", "3797": "\u2581Bear", "3798": "\u2581None", "3799": "\u2581Only", "3800": "\u2581amen", "3801": "\u2581calm", "3802": "\u2581comb", "3803": "\u2581debt", "3804": "\u2581dies", "3805": "\u2581dign", "3806": "\u2581diss", "3807": "\u2581ends", "3808": "\u2581fail", "3809": "\u2581gate", "3810": "\u2581hark", "3811": "\u2581heed", "3812": "\u2581hunt", "3813": "\u2581joys", "3814": "\u2581mend", "3815": "\u2581miss", "3816": "\u2581plot", "3817": "\u2581pure", "3818": "\u2581rose", "3819": "\u2581slow", "3820": "\u2581tomb", "3821": "\u2581ways", "3822": "\u2581wits", "3823": "\u2581wond", "3824": "\u2581wood", "3825": "igence", "3826": "lesome", "3827": "ourish", "3828": "picion", "3829": "urance", "3830": "urious", "3831": "ustice", "3832": "\u2581BALTH", "3833": "\u2581Mayor", "3834": "\u2581Might", "3835": "\u2581PERCY", "3836": "\u2581Right", "3837": "\u2581chide", "3838": "\u2581dares", "3839": "\u2581durst", "3840": "\u2581faces", "3841": "\u2581fashi", "3842": "\u2581folly", "3843": "\u2581griev", "3844": "\u2581groan", "3845": "\u2581hopes", "3846": "\u2581large", "3847": "\u2581naked", "3848": "\u2581scept", "3849": "\u2581seest", "3850": "\u2581sharp", "3851": "\u2581spare", "3852": "\u2581story", "3853": "\u2581table", "3854": "\u2581tremb", "3855": "\u2581turns", "3856": "\u2581weigh", "3857": "\u2581whore", "3858": "\u2581wreck", "3859": "hearted", "3860": "\u2581BISHOP", "3861": "\u2581Father", "3862": "\u2581French", "3863": "\u2581beyond", "3864": "\u2581bodies", "3865": "\u2581called", "3866": "\u2581comple", "3867": "\u2581credit", "3868": "\u2581crowns", "3869": "\u2581cursed", "3870": "\u2581curses", "3871": "\u2581employ", "3872": "\u2581endure", "3873": "\u2581expect", "3874": "\u2581fairly", "3875": "\u2581hatred", "3876": "\u2581horses", "3877": "\u2581intent", "3878": "\u2581joyful", "3879": "\u2581making", "3880": "\u2581market", "3881": "\u2581misery", "3882": "\u2581perpet", "3883": "\u2581public", "3884": "\u2581quench", "3885": "\u2581reward", "3886": "\u2581seeing", "3887": "\u2581spoken", "3888": "\u2581temper", "3889": "\u2581terror", "3890": "\u2581theirs", "3891": "\u2581waters", "3892": "\u2581whiles", "3893": "\u2581yonder", "3894": "\u2581Beseech", "3895": "\u2581Marshal", "3896": "\u2581Nothing", "3897": "\u2581advance", "3898": "\u2581apparel", "3899": "\u2581attempt", "3900": "\u2581beloved", "3901": "\u2581colours", "3902": "\u2581courage", "3903": "\u2581dukedom", "3904": "\u2581looking", "3905": "\u2581mistake", "3906": "\u2581natural", "3907": "\u2581needful", "3908": "\u2581opinion", "3909": "\u2581painted", "3910": "\u2581piteous", "3911": "\u2581princes", "3912": "\u2581remains", "3913": "\u2581shortly", "3914": "\u2581swallow", "3915": "\u2581wounded", "3916": "\u2581complain", "3917": "\u2581discover", "3918": "\u2581fortunes", "3919": "\u2581instruct", "3920": "\u2581language", "3921": "\u2581princess", "3922": "\u2581senators", "3923": "\u2581services", "3924": "\u2581sometime", "3925": "\u2581BALTHASAR", "3926": "\u2581assurance", "3927": "\u2581commanded", "3928": "\u2581excellent", "3929": "\u2581happiness", "3930": "\u2581hereafter", "3931": "\u2581obedience", "3932": "\u2581pronounce", "3933": "\u2581sometimes", "3934": "\u2581undertake", "3935": "\u2581unnatural", "3936": "\u2581discontent", "3937": "\u2581government", "3938": "\u2581instrument", "3939": "\u2581counterfeit", "3940": "\u2581remembrance", "3941": "OS", "3942": "oe", "3943": "ys", "3944": "?--", "3945": "CAS", "3946": "FOL", "3947": "OSS", "3948": "afe", "3949": "bow", "3950": "dds", "3951": "fer", "3952": "hor", "3953": "ita", "3954": "lar", "3955": "lic", "3956": "val", "3957": "whe", "3958": "\u2581El", "3959": "\u2581Le", "3960": "FOLK", "3961": "ants", "3962": "arts", "3963": "atic", "3964": "born", "3965": "gers", "3966": "hest", "3967": "noon", "3968": "oved", "3969": "same", "3970": "uary", "3971": "uses", "3972": "what", "3973": "wise", "3974": "\u2581App", "3975": "\u2581Cal", "3976": "\u2581Lay", "3977": "\u2581Rem", "3978": "\u2581Ret", "3979": "\u2581Ros", "3980": "\u2581Set", "3981": "\u2581Tit", "3982": "\u2581gru", "3983": "\u2581haz", "3984": "\u2581imm", "3985": "\u2581its", "3986": "\u2581kin", "3987": "\u2581led", "3988": "\u2581mag", "3989": "\u2581odd", "3990": "\u2581pol", "3991": "\u2581sky", "3992": "\u2581tap", "3993": "\u2581ung", "3994": "\u2581vex", "3995": "akest", "3996": "arent", "3997": "ences", "3998": "happy", "3999": "ieved", "4000": "ified", "4001": "ishop", "4002": "isper", "4003": "olute", "4004": "orset", "4005": "think", "4006": "ument", "4007": "vours", "4008": "\u2581Amen", "4009": "\u2581Comm", "4010": "\u2581Dear", "4011": "\u2581Four", "4012": "\u2581Jack", "4013": "\u2581Long", "4014": "\u2581Page", "4015": "\u2581Post", "4016": "\u2581ROSS", "4017": "\u2581Sold", "4018": "\u2581bare", "4019": "\u2581boar", "4020": "\u2581bott", "4021": "\u2581cock", "4022": "\u2581conc", "4023": "\u2581east", "4024": "\u2581fame", "4025": "\u2581grey", "4026": "\u2581host", "4027": "\u2581isle", "4028": "\u2581mere", "4029": "\u2581mile", "4030": "\u2581mill", "4031": "\u2581odds", "4032": "\u2581qual", "4033": "\u2581repe", "4034": "\u2581ring", "4035": "\u2581rule", "4036": "\u2581shun", "4037": "\u2581sink", "4038": "\u2581sins", "4039": "\u2581slay", "4040": "\u2581stol", "4041": "\u2581test", "4042": "\u2581virg", "4043": "\u2581wait", "4044": "\u2581worn", "4045": "chance", "4046": "ctions", "4047": "idence", "4048": "ourage", "4049": "strous", "4050": "uteous", "4051": "\u2581Lucio", "4052": "\u2581March", "4053": "\u2581Those", "4054": "\u2581Widow", "4055": "\u2581Young", "4056": "\u2581alter", "4057": "\u2581block", "4058": "\u2581blush", "4059": "\u2581brain", "4060": "\u2581cease", "4061": "\u2581drops", "4062": "\u2581drums", "4063": "\u2581flies", "4064": "\u2581frame", "4065": "\u2581grows", "4066": "\u2581journ", "4067": "\u2581knife", "4068": "\u2581leads", "4069": "\u2581maint", "4070": "\u2581meant", "4071": "\u2581oppos", "4072": "\u2581realm", "4073": "\u2581rogue", "4074": "\u2581scene", "4075": "\u2581scope", "4076": "\u2581seize", "4077": "\u2581shape", "4078": "\u2581slept", "4079": "\u2581spite", "4080": "\u2581strew", "4081": "\u2581terms", "4082": "\u2581thief", "4083": "\u2581trade", "4084": "\u2581trick", "4085": "\u2581vault", "4086": "\u2581venom", "4087": "\u2581wants", "4088": "\u2581winds", "4089": "\u2581write", "4090": "ination", "4091": "ression", "4092": "\u2581DORCAS", "4093": "\u2581Dorset", "4094": "\u2581Exeter", "4095": "\u2581Naples", "4096": "\u2581Volsce", "4097": "\u2581Worthy", "4098": "\u2581absent", "4099": "\u2581accord", "4100": "\u2581advers", "4101": "\u2581armour", "4102": "\u2581behalf", "4103": "\u2581brings", "4104": "\u2581camest", "4105": "\u2581choler", "4106": "\u2581comest", "4107": "\u2581compan", "4108": "\u2581dagger", "4109": "\u2581degree", "4110": "\u2581direct", "4111": "\u2581enmity", "4112": "\u2581freely", "4113": "\u2581houses", "4114": "\u2581imposs", "4115": "\u2581intell", "4116": "\u2581island", "4117": "\u2581maiden", "4118": "\u2581nought", "4119": "\u2581powers", "4120": "\u2581praise", "4121": "\u2581purcha", "4122": "\u2581repair", "4123": "\u2581serves", "4124": "\u2581smooth", "4125": "\u2581NORFOLK", "4126": "\u2581Whither", "4127": "\u2581apprehe", "4128": "\u2581captain", "4129": "\u2581compass", "4130": "\u2581disdain", "4131": "\u2581earnest", "4132": "\u2581fathers", "4133": "\u2581granted", "4134": "\u2581hateful", "4135": "\u2581instant", "4136": "\u2581manners", "4137": "\u2581passage", "4138": "\u2581passion", "4139": "\u2581privile", "4140": "\u2581sceptre", "4141": "\u2581seeming", "4142": "\u2581torment", "4143": "\u2581unknown", "4144": "\u2581weather", "4145": "\u2581approach", "4146": "\u2581consider", "4147": "\u2581contract", "4148": "\u2581deserves", "4149": "\u2581friendly", "4150": "\u2581glorious", "4151": "\u2581increase", "4152": "\u2581reverend", "4153": "\u2581untimely", "4154": "\u2581Boatswain", "4155": "\u2581Gentlemen", "4156": "\u2581contented", "4157": "\u2581monstrous", "4158": "\u2581respected", "4159": "\u2581suspicion", "4160": "\u2581particular", "4161": "\u2581prosperous", "4162": "\u2581resolution", "4163": "\u2581treacherous", "4164": "GH", "4165": "NS", "4166": "RR", "4167": "fl", "4168": "God", "4169": "NSO", "4170": "SET", "4171": "elt", "4172": "iny", "4173": "kin", "4174": "ped", "4175": "rey", "4176": "ric", "4177": "uce", "4178": "\u2581Se", "4179": "\u2581Ye", "4180": "\u2581da", "4181": "RREL", "4182": "ades", "4183": "ales", "4184": "atcl", "4185": "erns", "4186": "fret", "4187": "iate", "4188": "iven", "4189": "just", "4190": "oral", "4191": "rain", "4192": "reme", "4193": "ruly", "4194": "\u2581ALO", "4195": "\u2581Ber", "4196": "\u2581Bra", "4197": "\u2581Ire", "4198": "\u2581Lau", "4199": "\u2581Mil", "4200": "\u2581Pat", "4201": "\u2581Rom", "4202": "\u2581Son", "4203": "\u2581dig", "4204": "\u2581dri", "4205": "\u2581ens", "4206": "\u2581fig", "4207": "\u2581glo", "4208": "\u2581ing", "4209": "\u2581jew", "4210": "\u2581rap", "4211": "\u2581spr", "4212": "\u2581squ", "4213": "ERDIN", "4214": "aline", "4215": "ances", "4216": "andal", "4217": "ature", "4218": "ember", "4219": "raced", "4220": "\u2581Came", "4221": "\u2581Down", "4222": "\u2581Play", "4223": "\u2581Save", "4224": "\u2581Stri", "4225": "\u2581Supp", "4226": "\u2581able", "4227": "\u2581bird", "4228": "\u2581braw", "4229": "\u2581bury", "4230": "\u2581chat", "4231": "\u2581clam", "4232": "\u2581furn", "4233": "\u2581lark", "4234": "\u2581lion", "4235": "\u2581melt", "4236": "\u2581nobl", "4237": "\u2581perj", "4238": "\u2581puts", "4239": "\u2581roar", "4240": "\u2581ruth", "4241": "\u2581spur", "4242": "\u2581suck", "4243": "\u2581tame", "4244": "\u2581tide", "4245": "\u2581vows", "4246": "\u2581wept", "4247": "\u2581About", "4248": "\u2581Bring", "4249": "\u2581Froth", "4250": "\u2581GREEN", "4251": "\u2581Ghost", "4252": "\u2581Hunts", "4253": "\u2581Ratcl", "4254": "\u2581Titus", "4255": "\u2581Until", "4256": "\u2581abhor", "4257": "\u2581adver", "4258": "\u2581affli", "4259": "\u2581alike", "4260": "\u2581avoid", "4261": "\u2581beard", "4262": "\u2581begun", "4263": "\u2581boots", "4264": "\u2581build", "4265": "\u2581catch", "4266": "\u2581conce", "4267": "\u2581daily", "4268": "\u2581dress", "4269": "\u2581dying", "4270": "\u2581elder", "4271": "\u2581fears", "4272": "\u2581finds", "4273": "\u2581flatt", "4274": "\u2581haply", "4275": "\u2581hasty", "4276": "\u2581holds", "4277": "\u2581lusty", "4278": "\u2581nobly", "4279": "\u2581north", "4280": "\u2581parli", "4281": "\u2581patri", "4282": "\u2581peers", "4283": "\u2581press", "4284": "\u2581provo", "4285": "\u2581purse", "4286": "\u2581raise", "4287": "\u2581recom", "4288": "\u2581revol", "4289": "\u2581sends", "4290": "\u2581south", "4291": "\u2581stamp", "4292": "\u2581study", "4293": "\u2581swell", "4294": "\u2581tells", "4295": "\u2581third", "4296": "\u2581thorn", "4297": "\u2581urged", "4298": "\u2581veins", "4299": "\u2581waste", "4300": "\u2581witch", "4301": "\u2581AEdile", "4302": "\u2581ALONSO", "4303": "\u2581DORSET", "4304": "\u2581FERDIN", "4305": "\u2581Romans", "4306": "\u2581TYRREL", "4307": "\u2581Thanks", "4308": "\u2581aboard", "4309": "\u2581advice", "4310": "\u2581amazed", "4311": "\u2581county", "4312": "\u2581darest", "4313": "\u2581disper", "4314": "\u2581estate", "4315": "\u2581famous", "4316": "\u2581gently", "4317": "\u2581giving", "4318": "\u2581grieve", "4319": "\u2581groans", "4320": "\u2581hanged", "4321": "\u2581hardly", "4322": "\u2581kindly", "4323": "\u2581lovely", "4324": "\u2581muster", "4325": "\u2581parent", "4326": "\u2581pieces", "4327": "\u2581profit", "4328": "\u2581rascal", "4329": "\u2581rebell", "4330": "\u2581record", "4331": "\u2581season", "4332": "\u2581silent", "4333": "\u2581single", "4334": "\u2581smiles", "4335": "\u2581taught", "4336": "\u2581thrice", "4337": "\u2581unless", "4338": "\u2581virgin", "4339": "\u2581wealth", "4340": "\u2581worthi", "4341": "\u2581Conspir", "4342": "\u2581Ireland", "4343": "\u2581Pomfret", "4344": "\u2581Sicilia", "4345": "\u2581Soldier", "4346": "\u2581accused", "4347": "\u2581arrived", "4348": "\u2581assured", "4349": "\u2581bearing", "4350": "\u2581bethink", "4351": "\u2581charged", "4352": "\u2581conceit", "4353": "\u2581conduct", "4354": "\u2581current", "4355": "\u2581destroy", "4356": "\u2581enforce", "4357": "\u2581forbear", "4358": "\u2581garland", "4359": "\u2581journey", "4360": "\u2581soundly", "4361": "\u2581special", "4362": "\u2581streets", "4363": "\u2581warlike", "4364": "\u2581whereof", "4365": "\u2581whisper", "4366": "\u2581willing", "4367": "\u2581wrought", "4368": "\u2581Huntsman", "4369": "\u2581Ratcliff", "4370": "\u2581Rosaline", "4371": "\u2581circumst", "4372": "\u2581constant", "4373": "\u2581greatest", "4374": "\u2581grievous", "4375": "\u2581maintain", "4376": "\u2581perforce", "4377": "\u2581revenged", "4378": "\u2581shoulder", "4379": "\u2581supposed", "4380": "\u2581FERDINAND", "4381": "\u2581afternoon", "4382": "\u2581committed", "4383": "\u2581messenger", "4384": "\u2581perpetual", "4385": "\u2581protector", "4386": "\u2581sanctuary", "4387": "\u2581willingly", "4388": "\u2581affections", "4389": "\u2581commission", "4390": "\u2581parliament", "4391": "\u2581instruments", "4392": "\u2581imprisonment", "4393": "Th", "4394": "gl", "4395": "ib", "4396": "pr", "4397": "zz", "4398": "\u2581z", "4399": ";--", "4400": "LIS", "4401": "aly", "4402": "ams", "4403": "cei", "4404": "con", "4405": "dig", "4406": "eat", "4407": "gar", "4408": "icy", "4409": "ipe", "4410": "ipp", "4411": "ker", "4412": "law", "4413": "nal", "4414": "nty", "4415": "rac", "4416": "ser", "4417": "uch", "4418": "ulf", "4419": "upt", "4420": "vet", "4421": "\u2581Fo", "4422": "\u2581Ho", "4423": "\u2581Sm", "4424": "\u2581Vi", "4425": "\u2581fi", "4426": "\u2581sy", "4427": "aces", "4428": "aded", "4429": "ages", "4430": "alis", "4431": "ater", "4432": "clam", "4433": "deem", "4434": "eder", "4435": "enna", "4436": "erby", "4437": "erer", "4438": "esar", "4439": "fall", "4440": "grim", "4441": "iety", "4442": "llen", "4443": "more", "4444": "mory", "4445": "omen", "4446": "onci", "4447": "owry", "4448": "pass", "4449": "roll", "4450": "rrel", "4451": "ties", "4452": "time", "4453": "tled", "4454": "uing", "4455": "uten", "4456": "vior", "4457": "\u2581Acc", "4458": "\u2581Ben", "4459": "\u2581Bus", "4460": "\u2581Min", "4461": "\u2581Six", "4462": "\u2581Tar", "4463": "\u2581ach", "4464": "\u2581ago", "4465": "\u2581apt", "4466": "\u2581dim", "4467": "\u2581fun", "4468": "\u2581hie", "4469": "\u2581hor", "4470": "\u2581lin", "4471": "\u2581mel", "4472": "\u2581mir", "4473": "\u2581oak", "4474": "\u2581pot", "4475": "\u2581sal", "4476": "\u2581sue", "4477": "\u2581une", "4478": "\u2581ves", "4479": "Twere", "4480": "aming", "4481": "ative", "4482": "erity", "4483": "ested", "4484": "etite", "4485": "faced", "4486": "forth", "4487": "groom", "4488": "harge", "4489": "ierce", "4490": "ignty", "4491": "orted", "4492": "osing", "4493": "ouchs", "4494": "ourse", "4495": "shire", "4496": "ulate", "4497": "ullus", "4498": "\u2581Anti", "4499": "\u2581Cond", "4500": "\u2581Conf", "4501": "\u2581Dare", "4502": "\u2581Draw", "4503": "\u2581aunt", "4504": "\u2581bade", "4505": "\u2581begu", "4506": "\u2581boys", "4507": "\u2581cere", "4508": "\u2581cher", "4509": "\u2581clim", "4510": "\u2581feet", "4511": "\u2581food", "4512": "\u2581fors", "4513": "\u2581frow", "4514": "\u2581helm", "4515": "\u2581holp", "4516": "\u2581horn", "4517": "\u2581inqu", "4518": "\u2581lent", "4519": "\u2581mult", "4520": "\u2581nail", "4521": "\u2581port", "4522": "\u2581rare", "4523": "\u2581reck", "4524": "\u2581rejo", "4525": "\u2581rust", "4526": "\u2581salt", "4527": "\u2581sees", "4528": "\u2581sell", "4529": "\u2581sets", "4530": "\u2581sire", "4531": "\u2581snow", "4532": "\u2581sore", "4533": "\u2581sple", "4534": "\u2581stro", "4535": "\u2581tall", "4536": "\u2581task", "4537": "\u2581unst", "4538": "\u2581whip", "4539": "\u2581wide", "4540": "\u2581wing", "4541": "\u2581yoke", "4542": "\u2581yond", "4543": "eeming", "4544": "father", "4545": "forced", "4546": "semble", "4547": "soever", "4548": "\u2581Derby", "4549": "\u2581Makes", "4550": "\u2581Milan", "4551": "\u2581Noble", "4552": "\u2581Salis", "4553": "\u2581abide", "4554": "\u2581agree", "4555": "\u2581alack", "4556": "\u2581below", "4557": "\u2581blunt", "4558": "\u2581books", "4559": "\u2581brace", "4560": "\u2581chase", "4561": "\u2581confe", "4562": "\u2581corre", "4563": "\u2581craft", "4564": "\u2581diffe", "4565": "\u2581equal", "4566": "\u2581event", "4567": "\u2581exerc", "4568": "\u2581fancy", "4569": "\u2581fires", "4570": "\u2581flood", "4571": "\u2581habit", "4572": "\u2581image", "4573": "\u2581manif", "4574": "\u2581merit", "4575": "\u2581newly", "4576": "\u2581oaths", "4577": "\u2581pitch", "4578": "\u2581pound", "4579": "\u2581prett", "4580": "\u2581prick", "4581": "\u2581regal", "4582": "\u2581ruled", "4583": "\u2581smell", "4584": "\u2581sooth", "4585": "\u2581stabb", "4586": "\u2581sting", "4587": "\u2581stopp", "4588": "\u2581stout", "4589": "\u2581stret", "4590": "\u2581tarry", "4591": "\u2581twain", "4592": "\u2581weeps", "4593": "\u2581wrink", "4594": "ancholy", "4595": "itation", "4596": "ruction", "4597": "utenant", "4598": "\u2581Caesar", "4599": "\u2581Cannot", "4600": "\u2581Fourth", "4601": "\u2581Marian", "4602": "\u2581Rather", "4603": "\u2581Tyrrel", "4604": "\u2581Vienna", "4605": "\u2581appeal", "4606": "\u2581assure", "4607": "\u2581ballad", "4608": "\u2581barren", "4609": "\u2581beasts", "4610": "\u2581betray", "4611": "\u2581caught", "4612": "\u2581charac", "4613": "\u2581deceit", "4614": "\u2581disple", "4615": "\u2581fairer", "4616": "\u2581forced", "4617": "\u2581graves", "4618": "\u2581knaves", "4619": "\u2581length", "4620": "\u2581mouths", "4621": "\u2581native", "4622": "\u2581partly", "4623": "\u2581points", "4624": "\u2581raised", "4625": "\u2581redeem", "4626": "\u2581regard", "4627": "\u2581resist", "4628": "\u2581saying", "4629": "\u2581secure", "4630": "\u2581shield", "4631": "\u2581slaves", "4632": "\u2581stroke", "4633": "\u2581surely", "4634": "\u2581unjust", "4635": "\u2581unkind", "4636": "\u2581vessel", "4637": "\u2581waking", "4638": "\u2581Proceed", "4639": "\u2581besides", "4640": "\u2581betimes", "4641": "\u2581commons", "4642": "\u2581complex", "4643": "\u2581defence", "4644": "\u2581descend", "4645": "\u2581desires", "4646": "\u2581dignity", "4647": "\u2581fairest", "4648": "\u2581fashion", "4649": "\u2581feeling", "4650": "\u2581forfeit", "4651": "\u2581forgive", "4652": "\u2581froward", "4653": "\u2581parting", "4654": "\u2581pilgrim", "4655": "\u2581reconci", "4656": "\u2581substit", "4657": "\u2581suspect", "4658": "\u2581tempest", "4659": "\u2581tremble", "4660": "\u2581trumpet", "4661": "\u2581tyranny", "4662": "\u2581unhappy", "4663": "\u2581virtues", "4664": "\u2581accident", "4665": "\u2581alliance", "4666": "\u2581although", "4667": "\u2581apparent", "4668": "\u2581appetite", "4669": "\u2581breathed", "4670": "\u2581contempt", "4671": "\u2581devotion", "4672": "\u2581disgrace", "4673": "\u2581exchange", "4674": "\u2581faithful", "4675": "\u2581forswear", "4676": "\u2581mistrust", "4677": "\u2581obedient", "4678": "\u2581offended", "4679": "\u2581penitent", "4680": "\u2581powerful", "4681": "\u2581renowned", "4682": "\u2581sickness", "4683": "\u2581standing", "4684": "\u2581treasure", "4685": "\u2581weakness", "4686": "\u2581Salisbury", "4687": "\u2581according", "4688": "\u2581beholding", "4689": "\u2581complaint", "4690": "\u2581falsehood", "4691": "\u2581household", "4692": "\u2581rebellion", "4693": "\u2581reverence", "4694": "\u2581wholesome", "4695": "\u2581bridegroom", "4696": "\u2581conference", "4697": "\u2581determined", "4698": "\u2581impossible", "4699": "\u2581melancholy", "4700": "\u2581patricians", "4701": "\u2581sovereignty", "4702": "\u2581entertainment", "4703": "Ay", "4704": "DR", "4705": "IT", "4706": "gn", "4707": "ns", "4708": "rs", "4709": "xe", "4710": ".--", "4711": "EOM", "4712": "LOU", "4713": "bod", "4714": "com", "4715": "eve", "4716": "iam", "4717": "nes", "4718": "rat", "4719": "tic", "4720": "uit", "4721": "\u2581Af", "4722": "\u2581Aw", "4723": "\u2581Kn", "4724": "\u2581Ra", "4725": "GHBY", "4726": "ROTH", "4727": "ases", "4728": "bear", "4729": "cary", "4730": "cate", "4731": "cies", "4732": "dita", "4733": "fold", "4734": "ical", "4735": "illy", "4736": "inct", "4737": "irty", "4738": "iter", "4739": "ivil", "4740": "ized", "4741": "long", "4742": "maid", "4743": "mong", "4744": "onst", "4745": "sell", "4746": "teen", "4747": "ulch", "4748": "weal", "4749": "wife", "4750": "\u2581ADR", "4751": "\u2581Cle", "4752": "\u2581Cry", "4753": "\u2581Cur", "4754": "\u2581Get", "4755": "\u2581Him", "4756": "\u2581Lie", "4757": "\u2581Thr", "4758": "\u2581Val", "4759": "\u2581Ven", "4760": "\u2581WIL", "4761": "\u2581axe", "4762": "\u2581bir", "4763": "\u2581bon", "4764": "\u2581deb", "4765": "\u2581eng", "4766": "\u2581jot", "4767": "\u2581lap", "4768": "\u2581nap", "4769": "\u2581ope", "4770": "\u2581ped", "4771": "\u2581pee", "4772": "\u2581spl", "4773": "\u2581spy", "4774": "\u2581ste", "4775": "\u2581suc", "4776": "\u2581tim", "4777": "\u2581var", "4778": "\u2581vel", "4779": "\u2581vol", "4780": "\u2581wid", "4781": "\u2581yes", "4782": "aning", "4783": "earer", "4784": "erves", "4785": "herit", "4786": "icles", "4787": "imble", "4788": "irect", "4789": "itten", "4790": "omach", "4791": "ories", "4792": "othes", "4793": "otted", "4794": "stery", "4795": "uries", "4796": "ushes", "4797": "\u2581Anon", "4798": "\u2581Betw", "4799": "\u2581Each", "4800": "\u2581Fort", "4801": "\u2581Hail", "4802": "\u2581Lart", "4803": "\u2581Many", "4804": "\u2581Soft", "4805": "\u2581Time", "4806": "\u2581Tush", "4807": "\u2581Vill", "4808": "\u2581blem", "4809": "\u2581bran", "4810": "\u2581bred", "4811": "\u2581buck", "4812": "\u2581coff", "4813": "\u2581cost", "4814": "\u2581curt", "4815": "\u2581deck", "4816": "\u2581decl", "4817": "\u2581edge", "4818": "\u2581fact", "4819": "\u2581fawn", "4820": "\u2581fish", "4821": "\u2581gaze", "4822": "\u2581grat", "4823": "\u2581iron", "4824": "\u2581knot", "4825": "\u2581lift", "4826": "\u2581line", "4827": "\u2581mess", "4828": "\u2581mood", "4829": "\u2581rail", "4830": "\u2581rain", "4831": "\u2581reap", "4832": "\u2581ride", "4833": "\u2581ripe", "4834": "\u2581sham", "4835": "\u2581shri", "4836": "\u2581slip", "4837": "\u2581spit", "4838": "\u2581tail", "4839": "\u2581toad", "4840": "\u2581toil", "4841": "\u2581tres", "4842": "\u2581wake", "4843": "\u2581west", "4844": "\u2581whit", "4845": "\u2581wink", "4846": "bation", "4847": "itable", "4848": "seless", "4849": "\u2581Among", "4850": "\u2581Bushy", "4851": "\u2581CLEOM", "4852": "\u2581Didst", "4853": "\u2581FROTH", "4854": "\u2581Happy", "4855": "\u2581Italy", "4856": "\u2581Somet", "4857": "\u2581Sound", "4858": "\u2581Uncle", "4859": "\u2581babes", "4860": "\u2581began", "4861": "\u2581burst", "4862": "\u2581chall", "4863": "\u2581civil", "4864": "\u2581coron", "4865": "\u2581counc", "4866": "\u2581disgu", "4867": "\u2581dowry", "4868": "\u2581eagle", "4869": "\u2581estim", "4870": "\u2581hangs", "4871": "\u2581harsh", "4872": "\u2581hated", "4873": "\u2581heirs", "4874": "\u2581human", "4875": "\u2581impat", "4876": "\u2581incen", "4877": "\u2581innoc", "4878": "\u2581liken", "4879": "\u2581lover", "4880": "\u2581marks", "4881": "\u2581minds", "4882": "\u2581mirth", "4883": "\u2581negle", "4884": "\u2581occup", "4885": "\u2581offic", "4886": "\u2581pause", "4887": "\u2581scold", "4888": "\u2581spect", "4889": "\u2581stick", "4890": "\u2581super", "4891": "\u2581swain", "4892": "\u2581takes", "4893": "\u2581taunt", "4894": "\u2581thick", "4895": "\u2581tooth", "4896": "\u2581wager", "4897": "\u2581wakes", "4898": "\u2581warri", "4899": "LOUGHBY", "4900": "\u2581ADRIAN", "4901": "\u2581Behold", "4902": "\u2581Better", "4903": "\u2581County", "4904": "\u2581Follow", "4905": "\u2581Return", "4906": "\u2581Tullus", "4907": "\u2581abused", "4908": "\u2581bigger", "4909": "\u2581chaste", "4910": "\u2581craves", "4911": "\u2581dearly", "4912": "\u2581deaths", "4913": "\u2581dismal", "4914": "\u2581fierce", "4915": "\u2581frowns", "4916": "\u2581griefs", "4917": "\u2581infant", "4918": "\u2581keeper", "4919": "\u2581league", "4920": "\u2581lesser", "4921": "\u2581lovest", "4922": "\u2581manage", "4923": "\u2581memory", "4924": "\u2581modest", "4925": "\u2581object", "4926": "\u2581pierce", "4927": "\u2581policy", "4928": "\u2581refuse", "4929": "\u2581remove", "4930": "\u2581repeal", "4931": "\u2581repose", "4932": "\u2581retire", "4933": "\u2581revolt", "4934": "\u2581rights", "4935": "\u2581seldom", "4936": "\u2581served", "4937": "\u2581shrewd", "4938": "\u2581shroud", "4939": "\u2581sights", "4940": "\u2581steeds", "4941": "\u2581subtle", "4942": "\u2581suffic", "4943": "\u2581suitor", "4944": "\u2581sullen", "4945": "\u2581supply", "4946": "\u2581thirty", "4947": "\u2581thread", "4948": "\u2581trusty", "4949": "\u2581uncles", "4950": "\u2581visage", "4951": "banished", "4952": "othecary", "4953": "ouchsafe", "4954": "\u2581Commend", "4955": "\u2581Lartius", "4956": "\u2581Mariana", "4957": "\u2581Perdita", "4958": "\u2581Through", "4959": "\u2581Whether", "4960": "\u2581William", "4961": "\u2581clothes", "4962": "\u2581conceal", "4963": "\u2581confirm", "4964": "\u2581dearest", "4965": "\u2581descent", "4966": "\u2581feather", "4967": "\u2581foreign", "4968": "\u2581gallant", "4969": "\u2581growing", "4970": "\u2581meeting", "4971": "\u2581modesty", "4972": "\u2581mystery", "4973": "\u2581perhaps", "4974": "\u2581plainly", "4975": "\u2581proclam", "4976": "\u2581prophet", "4977": "\u2581redress", "4978": "\u2581remorse", "4979": "\u2581removed", "4980": "\u2581satisfy", "4981": "\u2581scandal", "4982": "\u2581sepulch", "4983": "\u2581shadows", "4984": "\u2581sorrows", "4985": "\u2581strokes", "4986": "\u2581stumble", "4987": "\u2581succeed", "4988": "\u2581sweeter", "4989": "\u2581torture", "4990": "\u2581windows", "4991": "\u2581writing", "4992": "\u2581yielded", "4993": "\u2581younger", "4994": "\u2581absolute", "4995": "\u2581accursed", "4996": "\u2581acquaint", "4997": "\u2581careless", "4998": "\u2581executed", "4999": "\u2581exercise", "5000": "\u2581fourteen", "5001": "\u2581heartily", "5002": "\u2581heavenly", "5003": "\u2581monument", "5004": "\u2581opposite", "5005": "\u2581pleasing", "5006": "\u2581purchase", "5007": "\u2581selfsame", "5008": "\u2581servants", "5009": "\u2581stranger", "5010": "\u2581stronger", "5011": "\u2581trespass", "5012": "\u2581withdraw", "5013": "\u2581wondrous", "5014": "\u2581youngest", "5015": "\u2581CLEOMENES", "5016": "\u2581adventure", "5017": "\u2581appointed", "5018": "\u2581beauteous", "5019": "\u2581determine", "5020": "\u2581direction", "5021": "\u2581extremity", "5022": "\u2581flatterer", "5023": "\u2581greatness", "5024": "\u2581ignorance", "5025": "\u2581infection", "5026": "\u2581mischance", "5027": "\u2581privilege", "5028": "\u2581trembling", "5029": "\u2581WILLOUGHBY", "5030": "\u2581commonweal", "5031": "\u2581countrymen", "5032": "\u2581triumphant", "5033": "\u2581Conspirator", "5034": "\u2581adversaries", "5035": "\u2581executioner", "5036": "\u2581instruction", "5037": "EP", "5038": "ax", "5039": "gy", "5040": "we", "5041": "ARN", "5042": "EPH", "5043": "INE", "5044": "ann", "5045": "app", "5046": "aug", "5047": "bio", "5048": "but", "5049": "cue", "5050": "esu", "5051": "iar", "5052": "ips", "5053": "mas", "5054": "ola", "5055": "oon", "5056": "owl", "5057": "rif", "5058": "sey", "5059": "sha", "5060": "son", "5061": "sop", "5062": "\u2581Ap", "5063": "\u2581Gu", "5064": "\u2581Im", "5065": "\u2581Oh", "5066": "\u2581Wr", "5067": "\u2581ah", "5068": "\u2581sn", "5069": "AMUS", "5070": "aker", "5071": "ares", "5072": "ased", "5073": "athe", "5074": "ayed", "5075": "bble", "5076": "bert", "5077": "cels", "5078": "ders", "5079": "enge", "5080": "hern", "5081": "hrew", "5082": "iced", "5083": "icio", "5084": "iddy", "5085": "iege", "5086": "ilth", "5087": "ital", "5088": "ived", "5089": "iver", "5090": "lied", "5091": "nken", "5092": "oops", "5093": "oubt", "5094": "rage", "5095": "raid", "5096": "rank", "5097": "rity", "5098": "sire", "5099": "some", "5100": "ueen", "5101": "\u2581Att", "5102": "\u2581Bre", "5103": "\u2581Bur", "5104": "\u2581Del", "5105": "\u2581Ely", "5106": "\u2581Fal", "5107": "\u2581Imp", "5108": "\u2581Old", "5109": "\u2581Pri", "5110": "\u2581RUT", "5111": "\u2581Sur", "5112": "\u2581Wed", "5113": "\u2581Woe", "5114": "\u2581ale", "5115": "\u2581bag", "5116": "\u2581cat", "5117": "\u2581fix", "5118": "\u2581hig", "5119": "\u2581hom", "5120": "\u2581hop", "5121": "\u2581ink", "5122": "\u2581lur", "5123": "\u2581mil", "5124": "\u2581net", "5125": "\u2581orn", "5126": "\u2581sav", "5127": "\u2581tig", "5128": "\u2581tou", "5129": "\u2581tro", "5130": "\u2581unm", "5131": "\u2581yon", "5132": "ables", "5133": "acles", "5134": "agues", "5135": "ainty", "5136": "ansom", "5137": "ardel", "5138": "atest", "5139": "athed", "5140": "cheth", "5141": "chief", "5142": "eping", "5143": "ering", "5144": "hamed", "5145": "icate", "5146": "inate", "5147": "ision", "5148": "itiff", "5149": "keley", "5150": "ontes", "5151": "orney", "5152": "pense", "5153": "ratch", "5154": "rible", "5155": "twill", "5156": "unate", "5157": "\u2581Anne", "5158": "\u2581BARN", "5159": "\u2581Cast", "5160": "\u2581Dido", "5161": "\u2581Disp", "5162": "\u2581Does", "5163": "\u2581Fair", "5164": "\u2581Find", "5165": "\u2581Gree", "5166": "\u2581Hang", "5167": "\u2581Perc", "5168": "\u2581Send", "5169": "\u2581Vaug", "5170": "\u2581Wife", "5171": "\u2581ages", "5172": "\u2581alms", "5173": "\u2581bank", "5174": "\u2581bere", "5175": "\u2581bill", "5176": "\u2581bore", "5177": "\u2581butt", "5178": "\u2581caps", "5179": "\u2581coll", "5180": "\u2581cram", "5181": "\u2581crow", "5182": "\u2581date", "5183": "\u2581deaf", "5184": "\u2581dogs", "5185": "\u2581dove", "5186": "\u2581drag", "5187": "\u2581eter", "5188": "\u2581exam", "5189": "\u2581fant", "5190": "\u2581flow", "5191": "\u2581fret", "5192": "\u2581godd", "5193": "\u2581grew", "5194": "\u2581hare", "5195": "\u2581heat", "5196": "\u2581hers", "5197": "\u2581hind", "5198": "\u2581hire", "5199": "\u2581laws", "5200": "\u2581lets", "5201": "\u2581luck", "5202": "\u2581main", "5203": "\u2581neat", "5204": "\u2581nest", "5205": "\u2581nice", "5206": "\u2581numb", "5207": "\u2581nupt", "5208": "\u2581page", "5209": "\u2581paid", "5210": "\u2581path", "5211": "\u2581pear", "5212": "\u2581pern", "5213": "\u2581prep", "5214": "\u2581rank", "5215": "\u2581serp", "5216": "\u2581sirs", "5217": "\u2581subd", "5218": "\u2581thie", "5219": "\u2581thin", "5220": "\u2581tren", "5221": "\u2581trif", "5222": "\u2581unfe", "5223": "\u2581unse", "5224": "\u2581urge", "5225": "\u2581vent", "5226": "\u2581ward", "5227": "\u2581wolf", "5228": "\u2581wore", "5229": "\u2581worm", "5230": "\u2581zeal", "5231": "ARDINE", "5232": "IDAMUS", "5233": "ceives", "5234": "ending", "5235": "ercing", "5236": "fellow", "5237": "harged", "5238": "headed", "5239": "ilence", "5240": "ingers", "5241": "master", "5242": "orough", "5243": "pardon", "5244": "scalus", "5245": "ushing", "5246": "\u2581Elbow", "5247": "\u2581Grace", "5248": "\u2581Green", "5249": "\u2581Hadst", "5250": "\u2581Licio", "5251": "\u2581Prove", "5252": "\u2581Queen", "5253": "\u2581Shore", "5254": "\u2581abuse", "5255": "\u2581amiss", "5256": "\u2581angel", "5257": "\u2581appea", "5258": "\u2581backs", "5259": "\u2581bands", "5260": "\u2581beaut", "5261": "\u2581beget", "5262": "\u2581birds", "5263": "\u2581blast", "5264": "\u2581boast", "5265": "\u2581bread", "5266": "\u2581breed", "5267": "\u2581brown", "5268": "\u2581burns", "5269": "\u2581burnt", "5270": "\u2581charm", "5271": "\u2581cheap", "5272": "\u2581dower", "5273": "\u2581dozen", "5274": "\u2581flint", "5275": "\u2581forty", "5276": "\u2581freed", "5277": "\u2581giddy", "5278": "\u2581goods", "5279": "\u2581grain", "5280": "\u2581heels", "5281": "\u2581honey", "5282": "\u2581jewel", "5283": "\u2581lance", "5284": "\u2581limbs", "5285": "\u2581limit", "5286": "\u2581lower", "5287": "\u2581lying", "5288": "\u2581metal", "5289": "\u2581moral", "5290": "\u2581moves", "5291": "\u2581noted", "5292": "\u2581price", "5293": "\u2581prime", "5294": "\u2581reply", "5295": "\u2581share", "5296": "\u2581shook", "5297": "\u2581sings", "5298": "\u2581spoil", "5299": "\u2581stale", "5300": "\u2581steps", "5301": "\u2581stern", "5302": "\u2581straw", "5303": "\u2581suits", "5304": "\u2581sweat", "5305": "\u2581swore", "5306": "\u2581thumb", "5307": "\u2581torch", "5308": "\u2581troop", "5309": "\u2581trunk", "5310": "\u2581waves", "5311": "\u2581wills", "5312": "ribunes", "5313": "\u2581Cambio", "5314": "\u2581Making", "5315": "\u2581Strike", "5316": "\u2581Surrey", "5317": "\u2581Whiles", "5318": "\u2581arrest", "5319": "\u2581befall", "5320": "\u2581bestow", "5321": "\u2581borrow", "5322": "\u2581bottom", "5323": "\u2581contro", "5324": "\u2581covert", "5325": "\u2581escape", "5326": "\u2581fardel", "5327": "\u2581graced", "5328": "\u2581guests", "5329": "\u2581haught", "5330": "\u2581hungry", "5331": "\u2581injury", "5332": "\u2581joints", "5333": "\u2581likely", "5334": "\u2581liking", "5335": "\u2581livery", "5336": "\u2581looked", "5337": "\u2581meddle", "5338": "\u2581minute", "5339": "\u2581months", "5340": "\u2581parted", "5341": "\u2581places", "5342": "\u2581rapier", "5343": "\u2581rebels", "5344": "\u2581restra", "5345": "\u2581sacrif", "5346": "\u2581saints", "5347": "\u2581senses", "5348": "\u2581shapes", "5349": "\u2581shines", "5350": "\u2581shrift", "5351": "\u2581sooner", "5352": "\u2581sought", "5353": "\u2581spleen", "5354": "\u2581statue", "5355": "\u2581strive", "5356": "\u2581thirst", "5357": "\u2581transp", "5358": "\u2581troops", "5359": "\u2581tyrann", "5360": "\u2581unfold", "5361": "\u2581velvet", "5362": "\u2581weapon", "5363": "\u2581wooing", "5364": "\u2581yields", "5365": "\u2581Another", "5366": "\u2581Escalus", "5367": "\u2581Fortune", "5368": "\u2581Justice", "5369": "\u2581Leontes", "5370": "\u2581RUTLAND", "5371": "\u2581Vaughan", "5372": "\u2581Villain", "5373": "\u2581Whereto", "5374": "\u2581actions", "5375": "\u2581advised", "5376": "\u2581affords", "5377": "\u2581burning", "5378": "\u2581caitiff", "5379": "\u2581careful", "5380": "\u2581carried", "5381": "\u2581censure", "5382": "\u2581cherish", "5383": "\u2581clamour", "5384": "\u2581conjure", "5385": "\u2581disease", "5386": "\u2581dismiss", "5387": "\u2581drunken", "5388": "\u2581execute", "5389": "\u2581fearing", "5390": "\u2581happily", "5391": "\u2581imagine", "5392": "\u2581liberal", "5393": "\u2581madness", "5394": "\u2581misfort", "5395": "\u2581monarch", "5396": "\u2581monster", "5397": "\u2581nuptial", "5398": "\u2581offices", "5399": "\u2581peevish", "5400": "\u2581pitiful", "5401": "\u2581praises", "5402": "\u2581process", "5403": "\u2581putting", "5404": "\u2581rejoice", "5405": "\u2581royalty", "5406": "\u2581sadness", "5407": "\u2581scatter", "5408": "\u2581shallow", "5409": "\u2581stomach", "5410": "\u2581stretch", "5411": "\u2581suitors", "5412": "\u2581tapster", "5413": "\u2581telling", "5414": "\u2581thereby", "5415": "\u2581upright", "5416": "\u2581wanting", "5417": "\u2581whereon", "5418": "\u2581written", "5419": "\u2581Although", "5420": "\u2581Berkeley", "5421": "\u2581Laurence", "5422": "\u2581Remember", "5423": "\u2581anointed", "5424": "\u2581behavior", "5425": "\u2581bitterly", "5426": "\u2581bleeding", "5427": "\u2581blessing", "5428": "\u2581childish", "5429": "\u2581conceive", "5430": "\u2581counsell", "5431": "\u2581flourish", "5432": "\u2581immortal", "5433": "\u2581inclined", "5434": "\u2581lengthen", "5435": "\u2581likeness", "5436": "\u2581midnight", "5437": "\u2581nobility", "5438": "\u2581officers", "5439": "\u2581ruthless", "5440": "\u2581sleeping", "5441": "\u2581somewhat", "5442": "\u2581thinking", "5443": "\u2581tomorrow", "5444": "\u2581violence", "5445": "\u2581warriors", "5446": "\u2581Methought", "5447": "\u2581Wherefore", "5448": "\u2581Wiltshire", "5449": "\u2581apprehend", "5450": "\u2581breathing", "5451": "\u2581challenge", "5452": "\u2581character", "5453": "\u2581companion", "5454": "\u2581courteous", "5455": "\u2581discourse", "5456": "\u2581dispersed", "5457": "\u2581forthwith", "5458": "\u2581grandsire", "5459": "\u2581lightning", "5460": "\u2581methought", "5461": "\u2581necessity", "5462": "\u2581prettiest", "5463": "\u2581prevented", "5464": "\u2581senseless", "5465": "\u2581sepulchre", "5466": "\u2581substance", "5467": "\u2581ARCHIDAMUS", "5468": "\u2581BARNARDINE", "5469": "\u2581churchyard", "5470": "\u2581coronation", "5471": "\u2581pernicious", "5472": "\u2581possession", "5473": "\u2581proportion", "5474": "\u2581reputation", "5475": "\u2581succession", "5476": "\u2581threatening", "5477": "\u2581commonwealth", "5478": "\u2581intelligence", "5479": "\u2581proclamation", "5480": "AG", "5481": "IR", "5482": "OT", "5483": "ta", "5484": "wd", "5485": "yc", "5486": "BAN", "5487": "CRO", "5488": "EOR", "5489": "MOR", "5490": "WAT", "5491": "acy", "5492": "adv", "5493": "arm", "5494": "asp", "5495": "bey", "5496": "cri", "5497": "dal", "5498": "ded", "5499": "dst", "5500": "got", "5501": "hen", "5502": "ndy", "5503": "oes", "5504": "rog", "5505": "sen", "5506": "uns", "5507": "zed", "5508": "\u2581Em", "5509": "\u2581Ga", "5510": "\u2581Qu", "5511": "\u2581fr", "5512": "\u2581gn", "5513": "AGOT", "5514": "ably", "5515": "aged", "5516": "agot", "5517": "ardy", "5518": "cket", "5519": "cure", "5520": "ersu", "5521": "foot", "5522": "give", "5523": "here", "5524": "hilo", "5525": "hire", "5526": "iban", "5527": "iece", "5528": "igon", "5529": "itch", "5530": "join", "5531": "kind", "5532": "lace", "5533": "olks", "5534": "oned", "5535": "rald", "5536": "reet", "5537": "rich", "5538": "riel", "5539": "roof", "5540": "spur", "5541": "that", "5542": "ulls", "5543": "umed", "5544": "upid", "5545": "ushi", "5546": "utch", "5547": "vied", "5548": "wing", "5549": "\u2581Add", "5550": "\u2581CAR", "5551": "\u2581ELY", "5552": "\u2581FIT", "5553": "\u2581Fit", "5554": "\u2581Gra", "5555": "\u2581Hie", "5556": "\u2581Hon", "5557": "\u2581Mis", "5558": "\u2581SIR", "5559": "\u2581Saw", "5560": "\u2581Sly", "5561": "\u2581Sus", "5562": "\u2581Ten", "5563": "\u2581Wit", "5564": "\u2581aud", "5565": "\u2581bay", "5566": "\u2581bol", "5567": "\u2581bru", "5568": "\u2581cab", "5569": "\u2581cop", "5570": "\u2581dem", "5571": "\u2581fin", "5572": "\u2581gam", "5573": "\u2581gap", "5574": "\u2581ice", "5575": "\u2581inv", "5576": "\u2581leg", "5577": "\u2581lun", "5578": "\u2581mat", "5579": "\u2581mew", "5580": "\u2581nar", "5581": "\u2581pop", "5582": "\u2581por", "5583": "\u2581rag", "5584": "\u2581rue", "5585": "\u2581sau", "5586": "\u2581sca", "5587": "\u2581sed", "5588": "\u2581una", "5589": "\u2581wax", "5590": "\u2581wet", "5591": "CROOP", "5592": "ELAND", "5593": "EORGE", "5594": "EPHEN", "5595": "LIBAN", "5596": "LISLE", "5597": "WATER", "5598": "alter", "5599": "arers", "5600": "blood", "5601": "chers", "5602": "emper", "5603": "erest", "5604": "guard", "5605": "gundy", "5606": "ickle", "5607": "igent", "5608": "igned", "5609": "ilful", "5610": "iliar", "5611": "iners", "5612": "iring", "5613": "ishes", "5614": "light", "5615": "mbers", "5616": "olved", "5617": "order", "5618": "oured", "5619": "ranch", "5620": "reant", "5621": "shall", "5622": "sophy", "5623": "ulous", "5624": "verty", "5625": "vided", "5626": "volio", "5627": "which", "5628": "\u2581Capt", "5629": "\u2581Desp", "5630": "\u2581Dian", "5631": "\u2581Else", "5632": "\u2581Ever", "5633": "\u2581Five", "5634": "\u2581Full", "5635": "\u2581Gard", "5636": "\u2581Jesu", "5637": "\u2581Live", "5638": "\u2581Much", "5639": "\u2581Name", "5640": "\u2581Part", "5641": "\u2581Virt", "5642": "\u2581WEST", "5643": "\u2581aged", "5644": "\u2581also", "5645": "\u2581anch", "5646": "\u2581balm", "5647": "\u2581beef", "5648": "\u2581bell", "5649": "\u2581bent", "5650": "\u2581brat", "5651": "\u2581busy", "5652": "\u2581buzz", "5653": "\u2581cent", "5654": "\u2581coat", "5655": "\u2581cook", "5656": "\u2581drew", "5657": "\u2581felt", "5658": "\u2581flat", "5659": "\u2581fray", "5660": "\u2581fres", "5661": "\u2581goss", "5662": "\u2581hail", "5663": "\u2581herd", "5664": "\u2581hist", "5665": "\u2581hoar", "5666": "\u2581hurl", "5667": "\u2581keys", "5668": "\u2581lect", "5669": "\u2581lewd", "5670": "\u2581load", "5671": "\u2581lock", "5672": "\u2581lour", "5673": "\u2581mars", "5674": "\u2581misc", "5675": "\u2581mour", "5676": "\u2581omit", "5677": "\u2581owes", "5678": "\u2581pace", "5679": "\u2581palm", "5680": "\u2581pent", "5681": "\u2581pick", "5682": "\u2581pict", "5683": "\u2581pill", "5684": "\u2581pomp", "5685": "\u2581push", "5686": "\u2581rack", "5687": "\u2581rate", "5688": "\u2581rear", "5689": "\u2581rend", "5690": "\u2581robb", "5691": "\u2581sess", "5692": "\u2581shel", "5693": "\u2581shop", "5694": "\u2581shru", "5695": "\u2581smil", "5696": "\u2581soci", "5697": "\u2581soil", "5698": "\u2581surp", "5699": "\u2581tack", "5700": "\u2581term", "5701": "\u2581tied", "5702": "\u2581tops", "5703": "\u2581tree", "5704": "\u2581trim", "5705": "\u2581unre", "5706": "\u2581vast", "5707": "\u2581wave", "5708": "\u2581week", "5709": "\u2581wipe", "5710": "action", "5711": "egrity", "5712": "idered", "5713": "igonus", "5714": "isting", "5715": "nesday", "5716": "owards", "5717": "spurgh", "5718": "tering", "5719": "ventry", "5720": "\u2581Above", "5721": "\u2581Adieu", "5722": "\u2581BAGOT", "5723": "\u2581Bagot", "5724": "\u2581Blunt", "5725": "\u2581Canst", "5726": "\u2581Comes", "5727": "\u2581False", "5728": "\u2581Persu", "5729": "\u2581Raven", "5730": "\u2581Shalt", "5731": "\u2581Swear", "5732": "\u2581Thine", "5733": "\u2581Trust", "5734": "\u2581Welsh", "5735": "\u2581Women", "5736": "\u2581Yield", "5737": "\u2581abund", "5738": "\u2581accom", "5739": "\u2581alleg", "5740": "\u2581amain", "5741": "\u2581ambit", "5742": "\u2581apace", "5743": "\u2581array", "5744": "\u2581beams", "5745": "\u2581beats", "5746": "\u2581clock", "5747": "\u2581cozen", "5748": "\u2581crook", "5749": "\u2581disin", "5750": "\u2581divor", "5751": "\u2581droop", "5752": "\u2581eaten", "5753": "\u2581eight", "5754": "\u2581ended", "5755": "\u2581exped", "5756": "\u2581falls", "5757": "\u2581fever", "5758": "\u2581fiend", "5759": "\u2581frail", "5760": "\u2581frank", "5761": "\u2581frost", "5762": "\u2581gains", "5763": "\u2581gifts", "5764": "\u2581goose", "5765": "\u2581helps", "5766": "\u2581imper", "5767": "\u2581infer", "5768": "\u2581insol", "5769": "\u2581lambs", "5770": "\u2581likes", "5771": "\u2581lions", "5772": "\u2581lists", "5773": "\u2581merri", "5774": "\u2581mould", "5775": "\u2581ought", "5776": "\u2581paint", "5777": "\u2581petty", "5778": "\u2581philo", "5779": "\u2581plebe", "5780": "\u2581purge", "5781": "\u2581raven", "5782": "\u2581reach", "5783": "\u2581revel", "5784": "\u2581robes", "5785": "\u2581rouse", "5786": "\u2581saved", "5787": "\u2581ships", "5788": "\u2581shoes", "5789": "\u2581sides", "5790": "\u2581silly", "5791": "\u2581skill", "5792": "\u2581slipp", "5793": "\u2581stays", "5794": "\u2581stead", "5795": "\u2581stops", "5796": "\u2581tired", "5797": "\u2581towns", "5798": "\u2581train", "5799": "\u2581waked", "5800": "\u2581wears", "5801": "ceiving", "5802": "isement", "5803": "iveness", "5804": "mediate", "5805": "onstant", "5806": "umbling", "5807": "\u2581Appear", "5808": "\u2581Curtis", "5809": "\u2581GEORGE", "5810": "\u2581Gaoler", "5811": "\u2581Minola", "5812": "\u2581Nature", "5813": "\u2581SCROOP", "5814": "\u2581Things", "5815": "\u2581Venice", "5816": "\u2581afraid", "5817": "\u2581amends", "5818": "\u2581aspect", "5819": "\u2581attain", "5820": "\u2581beaten", "5821": "\u2581betide", "5822": "\u2581boldly", "5823": "\u2581bowels", "5824": "\u2581brains", "5825": "\u2581bridal", "5826": "\u2581cheque", "5827": "\u2581chosen", "5828": "\u2581cloudy", "5829": "\u2581couple", "5830": "\u2581dearer", "5831": "\u2581depose", "5832": "\u2581detest", "5833": "\u2581eldest", "5834": "\u2581eleven", "5835": "\u2581errand", "5836": "\u2581esteem", "5837": "\u2581except", "5838": "\u2581falcon", "5839": "\u2581figure", "5840": "\u2581fondly", "5841": "\u2581gladly", "5842": "\u2581hazard", "5843": "\u2581height", "5844": "\u2581herald", "5845": "\u2581homely", "5846": "\u2581kisses", "5847": "\u2581landed", "5848": "\u2581lately", "5849": "\u2581livest", "5850": "\u2581lovers", "5851": "\u2581marvel", "5852": "\u2581middle", "5853": "\u2581narrow", "5854": "\u2581nights", "5855": "\u2581notice", "5856": "\u2581obsequ", "5857": "\u2581prefer", "5858": "\u2581prodig", "5859": "\u2581prompt", "5860": "\u2581proved", "5861": "\u2581purple", "5862": "\u2581ransom", "5863": "\u2581reckon", "5864": "\u2581riches", "5865": "\u2581savage", "5866": "\u2581seated", "5867": "\u2581seized", "5868": "\u2581severe", "5869": "\u2581signal", "5870": "\u2581slight", "5871": "\u2581sounds", "5872": "\u2581spread", "5873": "\u2581stolen", "5874": "\u2581storms", "5875": "\u2581strict", "5876": "\u2581swears", "5877": "\u2581takest", "5878": "\u2581testim", "5879": "\u2581tricks", "5880": "\u2581troubl", "5881": "\u2581vanity", "5882": "\u2581varlet", "5883": "\u2581wisely", "5884": "MORELAND", "5885": "perience", "5886": "\u2581Becomes", "5887": "\u2581CALIBAN", "5888": "\u2581Caliban", "5889": "\u2581Captain", "5890": "\u2581Comfort", "5891": "\u2581Neither", "5892": "\u2581Perhaps", "5893": "\u2581Prepare", "5894": "\u2581STEPHEN", "5895": "\u2581Towards", "5896": "\u2581Whereof", "5897": "\u2581amongst", "5898": "\u2581amorous", "5899": "\u2581ashamed", "5900": "\u2581bidding", "5901": "\u2581blemish", "5902": "\u2581ceremon", "5903": "\u2581cheerly", "5904": "\u2581conclud", "5905": "\u2581consequ", "5906": "\u2581couldst", "5907": "\u2581designs", "5908": "\u2581earthly", "5909": "\u2581example", "5910": "\u2581extreme", "5911": "\u2581fantast", "5912": "\u2581favours", "5913": "\u2581fingers", "5914": "\u2581freedom", "5915": "\u2581furnish", "5916": "\u2581ghostly", "5917": "\u2581goddess", "5918": "\u2581grandam", "5919": "\u2581grieved", "5920": "\u2581grieves", "5921": "\u2581heavier", "5922": "\u2581holding", "5923": "\u2581hopeful", "5924": "\u2581kinsmen", "5925": "\u2581knowing", "5926": "\u2581learned", "5927": "\u2581marvell", "5928": "\u2581members", "5929": "\u2581mightst", "5930": "\u2581neglect", "5931": "\u2581ourself", "5932": "\u2581outrage", "5933": "\u2581parents", "5934": "\u2581parties", "5935": "\u2581partner", "5936": "\u2581poverty", "5937": "\u2581presume", "5938": "\u2581profane", "5939": "\u2581prophes", "5940": "\u2581provide", "5941": "\u2581restore", "5942": "\u2581retired", "5943": "\u2581scratch", "5944": "\u2581settled", "5945": "\u2581signify", "5946": "\u2581smother", "5947": "\u2581sounded", "5948": "\u2581sweetly", "5949": "\u2581temples", "5950": "\u2581tempted", "5951": "\u2581thieves", "5952": "\u2581travell", "5953": "\u2581weapons", "5954": "\u2581winters", "5955": "\u2581worldly", "5956": "\u2581Benvolio", "5957": "\u2581Burgundy", "5958": "\u2581CARLISLE", "5959": "\u2581Coventry", "5960": "\u2581Gardener", "5961": "\u2581Patience", "5962": "\u2581Proclaim", "5963": "\u2581Tribunes", "5964": "\u2581Withdraw", "5965": "\u2581attorney", "5966": "\u2581bastards", "5967": "\u2581boldness", "5968": "\u2581compound", "5969": "\u2581conclude", "5970": "\u2581confound", "5971": "\u2581conquest", "5972": "\u2581contents", "5973": "\u2581courtier", "5974": "\u2581cowardly", "5975": "\u2581darkness", "5976": "\u2581devilish", "5977": "\u2581entrance", "5978": "\u2581greeting", "5979": "\u2581likewise", "5980": "\u2581merchant", "5981": "\u2581mildness", "5982": "\u2581mutinous", "5983": "\u2581persuade", "5984": "\u2581piercing", "5985": "\u2581preserve", "5986": "\u2581provoked", "5987": "\u2581revenges", "5988": "\u2581speaking", "5989": "\u2581suddenly", "5990": "\u2581thankful", "5991": "\u2581treasons", "5992": "\u2581troubled", "5993": "\u2581usurping", "5994": "\u2581villains", "5995": "\u2581youthful", "5996": "\u2581Antigonus", "5997": "\u2581Vouchsafe", "5998": "\u2581Wednesday", "5999": "\u2581ambitious", "6000": "\u2581condemned", "6001": "\u2581constable", "6002": "\u2581departure", "6003": "\u2581downright", "6004": "\u2581instantly", "6005": "\u2581integrity", "6006": "\u2581ministers", "6007": "\u2581musicians", "6008": "\u2581nobleness", "6009": "\u2581readiness", "6010": "\u2581reconcile", "6011": "\u2581sentenced", "6012": "\u2581tyrannous", "6013": "\u2581wandering", "6014": "\u2581accusation", "6015": "\u2581acquainted", "6016": "\u2581allegiance", "6017": "\u2581complexion", "6018": "\u2581entreaties", "6019": "\u2581estimation", "6020": "\u2581flattering", "6021": "\u2581lamentable", "6022": "\u2581misfortune", "6023": "\u2581neighbours", "6024": "\u2581occupation", "6025": "\u2581philosophy", "6026": "\u2581pilgrimage", "6027": "\u2581recompense", "6028": "\u2581substitute", "6029": "\u2581sufficient", "6030": "\u2581unkindness", "6031": "\u2581Ravenspurgh", "6032": "\u2581approbation", "6033": "\u2581destruction", "6034": "\u2581WESTMORELAND", "6035": "\u2581circumstance", "6036": "\u2581discontented", "6037": "\u2581satisfaction", "6038": "br", "6039": "do", "6040": "eb", "6041": "uc", "6042": "ug", "6043": "Hic", "6044": "amy", "6045": "bot", "6046": "boy", "6047": "cra", "6048": "cus", "6049": "des", "6050": "gea", "6051": "gic", "6052": "inu", "6053": "len", "6054": "lor", "6055": "low", "6056": "off", "6057": "ril", "6058": "rop", "6059": "tin", "6060": "uiv", "6061": "urb", "6062": "uts", "6063": "wer", "6064": "\u2581Ac", "6065": "\u2581Er", "6066": "\u2581ug", "6067": "What", "6068": "alks", "6069": "ands", "6070": "aped", "6071": "back", "6072": "bour", "6073": "bric", "6074": "cest", "6075": "ctor", "6076": "done", "6077": "ella", "6078": "eves", "6079": "ewks", "6080": "gues", "6081": "hage", "6082": "hand", "6083": "hors", "6084": "icle", "6085": "ifth", "6086": "inal", "6087": "kest", "6088": "lain", "6089": "last", "6090": "lect", "6091": "lier", "6092": "made", "6093": "nday", "6094": "oble", "6095": "onio", "6096": "orax", "6097": "oriz", "6098": "oses", "6099": "rish", "6100": "tied", "6101": "ules", "6102": "uned", "6103": "unis", "6104": "vive", "6105": "wear", "6106": "work", "6107": "\u2581Adv", "6108": "\u2581Aff", "6109": "\u2581Che", "6110": "\u2581Dep", "6111": "\u2581Div", "6112": "\u2581Har", "6113": "\u2581Jup", "6114": "\u2581Mur", "6115": "\u2581Ned", "6116": "\u2581Pem", "6117": "\u2581Rel", "6118": "\u2581Sit", "6119": "\u2581Syc", "6120": "\u2581Tra", "6121": "\u2581ack", "6122": "\u2581afe", "6123": "\u2581ann", "6124": "\u2581ape", "6125": "\u2581ash", "6126": "\u2581bul", "6127": "\u2581dot", "6128": "\u2581eff", "6129": "\u2581fan", "6130": "\u2581fox", "6131": "\u2581fre", "6132": "\u2581hag", "6133": "\u2581key", "6134": "\u2581mas", "6135": "\u2581moe", "6136": "\u2581mom", "6137": "\u2581nod", "6138": "\u2581obs", "6139": "\u2581pow", "6140": "\u2581pup", "6141": "\u2581rhe", "6142": "\u2581rig", "6143": "\u2581rum", "6144": "\u2581sap", "6145": "\u2581sow", "6146": "\u2581thw", "6147": "\u2581tie", "6148": "\u2581vul", "6149": "Twixt", "6150": "aints", "6151": "amity", "6152": "asant", "6153": "avour", "6154": "awful", "6155": "aying", "6156": "board", "6157": "ening", "6158": "horse", "6159": "iders", "6160": "inces", "6161": "inies", "6162": "inted", "6163": "ively", "6164": "lance", "6165": "longs", "6166": "ocate", "6167": "oster", "6168": "peian", "6169": "ption", "6170": "roach", "6171": "shine", "6172": "sooth", "6173": "there", "6174": "trees", "6175": "ually", "6176": "uring", "6177": "water", "6178": "\u2581ABRA", "6179": "\u2581Best", "6180": "\u2581Bold", "6181": "\u2581Cart", "6182": "\u2581Cont", "6183": "\u2581Dest", "6184": "\u2581Fall", "6185": "\u2581Fell", "6186": "\u2581Foul", "6187": "\u2581Happ", "6188": "\u2581Kent", "6189": "\u2581Kind", "6190": "\u2581Lead", "6191": "\u2581Lend", "6192": "\u2581Lies", "6193": "\u2581Nept", "6194": "\u2581Over", "6195": "\u2581Purs", "6196": "\u2581Read", "6197": "\u2581Scot", "6198": "\u2581Talk", "6199": "\u2581Troy", "6200": "\u2581Wert", "6201": "\u2581West", "6202": "\u2581acts", "6203": "\u2581aims", "6204": "\u2581alar", "6205": "\u2581amaz", "6206": "\u2581baby", "6207": "\u2581bail", "6208": "\u2581bald", "6209": "\u2581blot", "6210": "\u2581blue", "6211": "\u2581bowl", "6212": "\u2581bows", "6213": "\u2581cler", "6214": "\u2581cool", "6215": "\u2581cord", "6216": "\u2581crab", "6217": "\u2581crim", "6218": "\u2581dash", "6219": "\u2581dece", "6220": "\u2581deer", "6221": "\u2581defy", "6222": "\u2581desc", "6223": "\u2581dine", "6224": "\u2581diso", "6225": "\u2581dole", "6226": "\u2581dram", "6227": "\u2581earl", "6228": "\u2581fift", "6229": "\u2581fulf", "6230": "\u2581game", "6231": "\u2581grim", "6232": "\u2581gust", "6233": "\u2581harl", "6234": "\u2581heel", "6235": "\u2581hill", "6236": "\u2581inch", "6237": "\u2581lads", "6238": "\u2581leap", "6239": "\u2581lick", "6240": "\u2581lief", "6241": "\u2581lute", "6242": "\u2581mask", "6243": "\u2581meal", "6244": "\u2581meed", "6245": "\u2581milk", "6246": "\u2581nigh", "6247": "\u2581noon", "6248": "\u2581nort", "6249": "\u2581obsc", "6250": "\u2581pant", "6251": "\u2581peer", "6252": "\u2581perd", "6253": "\u2581pest", "6254": "\u2581plan", "6255": "\u2581pour", "6256": "\u2581race", "6257": "\u2581ranc", "6258": "\u2581rein", "6259": "\u2581roof", "6260": "\u2581runs", "6261": "\u2581rush", "6262": "\u2581sack", "6263": "\u2581shot", "6264": "\u2581silk", "6265": "\u2581sixt", "6266": "\u2581song", "6267": "\u2581stag", "6268": "\u2581summ", "6269": "\u2581terr", "6270": "\u2581torn", "6271": "\u2581trow", "6272": "\u2581undo", "6273": "\u2581vass", "6274": "\u2581veil", "6275": "\u2581vial", "6276": "\u2581welc", "6277": "\u2581yare", "6278": "BISHOP", "6279": "advent", "6280": "aments", "6281": "anders", "6282": "arried", "6283": "attern", "6284": "enches", "6285": "govern", "6286": "iments", "6287": "ittany", "6288": "lihood", "6289": "ossess", "6290": "ousins", "6291": "rament", "6292": "rantic", "6293": "twould", "6294": "uivant", "6295": "ulting", "6296": "\u2581Alban", "6297": "\u2581Ariel", "6298": "\u2581Bound", "6299": "\u2581Break", "6300": "\u2581Cupid", "6301": "\u2581Fetch", "6302": "\u2581Gives", "6303": "\u2581Ready", "6304": "\u2581Teach", "6305": "\u2581Tewks", "6306": "\u2581Thank", "6307": "\u2581Throw", "6308": "\u2581Touch", "6309": "\u2581Truly", "6310": "\u2581Tunis", "6311": "\u2581Twice", "6312": "\u2581aloud", "6313": "\u2581apart", "6314": "\u2581arise", "6315": "\u2581ashes", "6316": "\u2581blaze", "6317": "\u2581bliss", "6318": "\u2581blown", "6319": "\u2581brand", "6320": "\u2581cabin", "6321": "\u2581canop", "6322": "\u2581champ", "6323": "\u2581chose", "6324": "\u2581clean", "6325": "\u2581cloak", "6326": "\u2581coast", "6327": "\u2581cords", "6328": "\u2581crept", "6329": "\u2581crows", "6330": "\u2581crush", "6331": "\u2581cushi", "6332": "\u2581diest", "6333": "\u2581dined", "6334": "\u2581dried", "6335": "\u2581drift", "6336": "\u2581dukes", "6337": "\u2581eager", "6338": "\u2581evils", "6339": "\u2581faced", "6340": "\u2581fleet", "6341": "\u2581flock", "6342": "\u2581folks", "6343": "\u2581fount", "6344": "\u2581front", "6345": "\u2581fully", "6346": "\u2581gaunt", "6347": "\u2581grass", "6348": "\u2581groom", "6349": "\u2581haunt", "6350": "\u2581kites", "6351": "\u2581level", "6352": "\u2581linea", "6353": "\u2581lodge", "6354": "\u2581lowly", "6355": "\u2581mates", "6356": "\u2581medic", "6357": "\u2581midst", "6358": "\u2581model", "6359": "\u2581moody", "6360": "\u2581mouse", "6361": "\u2581murde", "6362": "\u2581nails", "6363": "\u2581named", "6364": "\u2581pearl", "6365": "\u2581pilot", "6366": "\u2581pinch", "6367": "\u2581prate", "6368": "\u2581print", "6369": "\u2581puiss", "6370": "\u2581rests", "6371": "\u2581roses", "6372": "\u2581sadly", "6373": "\u2581score", "6374": "\u2581seeks", "6375": "\u2581shade", "6376": "\u2581shown", "6377": "\u2581slily", "6378": "\u2581spark", "6379": "\u2581spurs", "6380": "\u2581stark", "6381": "\u2581steep", "6382": "\u2581stiff", "6383": "\u2581stink", "6384": "\u2581surpr", "6385": "\u2581swoon", "6386": "\u2581tardy", "6387": "\u2581theme", "6388": "\u2581tiger", "6389": "\u2581toads", "6390": "\u2581trees", "6391": "\u2581tutor", "6392": "\u2581unpro", "6393": "\u2581vouch", "6394": "\u2581waits", "6395": "\u2581whist", "6396": "\u2581worms", "6397": "\u2581wring", "6398": "advised", "6399": "angling", "6400": "emption", "6401": "ication", "6402": "racious", "6403": "rateful", "6404": "\u2581Answer", "6405": "\u2581Antium", "6406": "\u2581Bishop", "6407": "\u2581Murder", "6408": "\u2581Stands", "6409": "\u2581Sunday", "6410": "\u2581Virtue", "6411": "\u2581Walter", "6412": "\u2581abhorr", "6413": "\u2581accomp", "6414": "\u2581acknow", "6415": "\u2581afeard", "6416": "\u2581ancest", "6417": "\u2581angels", "6418": "\u2581asking", "6419": "\u2581belong", "6420": "\u2581bereft", "6421": "\u2581beside", "6422": "\u2581bestri", "6423": "\u2581bosoms", "6424": "\u2581bounty", "6425": "\u2581branch", "6426": "\u2581breaks", "6427": "\u2581burden", "6428": "\u2581butter", "6429": "\u2581causes", "6430": "\u2581closed", "6431": "\u2581crying", "6432": "\u2581dearth", "6433": "\u2581deform", "6434": "\u2581depend", "6435": "\u2581devils", "6436": "\u2581devour", "6437": "\u2581distra", "6438": "\u2581easily", "6439": "\u2581embass", "6440": "\u2581enrich", "6441": "\u2581exceed", "6442": "\u2581fallen", "6443": "\u2581feasts", "6444": "\u2581framed", "6445": "\u2581frozen", "6446": "\u2581gather", "6447": "\u2581graces", "6448": "\u2581growth", "6449": "\u2581herein", "6450": "\u2581hinder", "6451": "\u2581insinu", "6452": "\u2581invent", "6453": "\u2581inward", "6454": "\u2581knocks", "6455": "\u2581leaden", "6456": "\u2581lenity", "6457": "\u2581lights", "6458": "\u2581linger", "6459": "\u2581lodged", "6460": "\u2581magist", "6461": "\u2581meaner", "6462": "\u2581mildly", "6463": "\u2581moiety", "6464": "\u2581moment", "6465": "\u2581moving", "6466": "\u2581nimble", "6467": "\u2581orator", "6468": "\u2581patron", "6469": "\u2581pedlar", "6470": "\u2581pitied", "6471": "\u2581plants", "6472": "\u2581pursue", "6473": "\u2581reigns", "6474": "\u2581resemb", "6475": "\u2581rushes", "6476": "\u2581safely", "6477": "\u2581search", "6478": "\u2581speedy", "6479": "\u2581spider", "6480": "\u2581stocks", "6481": "\u2581strife", "6482": "\u2581taking", "6483": "\u2581taunts", "6484": "\u2581temple", "6485": "\u2581thrown", "6486": "\u2581unlike", "6487": "\u2581unlook", "6488": "\u2581unluck", "6489": "\u2581unruly", "6490": "\u2581unseen", "6491": "\u2581utmost", "6492": "\u2581watery", "6493": "\u2581wedded", "6494": "\u2581window", "6495": "\u2581worser", "6496": "\u2581yester", "6497": "isterous", "6498": "shearing", "6499": "standing", "6500": "\u2581ABRAHAM", "6501": "\u2581Antonio", "6502": "\u2581Command", "6503": "\u2581Confess", "6504": "\u2581Content", "6505": "\u2581Courage", "6506": "\u2581Jupiter", "6507": "\u2581Mistake", "6508": "\u2581Neptune", "6509": "\u2581Prosper", "6510": "\u2581Suppose", "6511": "\u2581Sycorax", "6512": "\u2581Thyself", "6513": "\u2581adverse", "6514": "\u2581afflict", "6515": "\u2581appears", "6516": "\u2581avoided", "6517": "\u2581battles", "6518": "\u2581beggars", "6519": "\u2581bending", "6520": "\u2581breasts", "6521": "\u2581carries", "6522": "\u2581chances", "6523": "\u2581charges", "6524": "\u2581climate", "6525": "\u2581compare", "6526": "\u2581dancing", "6527": "\u2581destiny", "6528": "\u2581dissemb", "6529": "\u2581disturb", "6530": "\u2581endured", "6531": "\u2581eternal", "6532": "\u2581falling", "6533": "\u2581fifteen", "6534": "\u2581frantic", "6535": "\u2581glasses", "6536": "\u2581hangman", "6537": "\u2581harbour", "6538": "\u2581harmony", "6539": "\u2581harvest", "6540": "\u2581heinous", "6541": "\u2581history", "6542": "\u2581ignoble", "6543": "\u2581impeach", "6544": "\u2581inquire", "6545": "\u2581intents", "6546": "\u2581lasting", "6547": "\u2581leaving", "6548": "\u2581loathed", "6549": "\u2581lodging", "6550": "\u2581loyalty", "6551": "\u2581lunatic", "6552": "\u2581manhood", "6553": "\u2581marshal", "6554": "\u2581midwife", "6555": "\u2581minutes", "6556": "\u2581mothers", "6557": "\u2581murders", "6558": "\u2581mustard", "6559": "\u2581numbers", "6560": "\u2581persons", "6561": "\u2581popular", "6562": "\u2581prating", "6563": "\u2581pursuit", "6564": "\u2581quarter", "6565": "\u2581require", "6566": "\u2581revenue", "6567": "\u2581roaring", "6568": "\u2581secrets", "6569": "\u2581serious", "6570": "\u2581serpent", "6571": "\u2581sitting", "6572": "\u2581sixteen", "6573": "\u2581springs", "6574": "\u2581steward", "6575": "\u2581support", "6576": "\u2581surfeit", "6577": "\u2581talking", "6578": "\u2581thereto", "6579": "\u2581trifles", "6580": "\u2581venture", "6581": "\u2581wronged", "6582": "adventure", "6583": "\u2581Brittany", "6584": "\u2581Capulets", "6585": "\u2581Carthage", "6586": "\u2581Isabella", "6587": "\u2581Pembroke", "6588": "\u2581Scotland", "6589": "\u2581Sometime", "6590": "\u2581Tarpeian", "6591": "\u2581Volscian", "6592": "\u2581advanced", "6593": "\u2581advocate", "6594": "\u2581approved", "6595": "\u2581attended", "6596": "\u2581believed", "6597": "\u2581blushing", "6598": "\u2581branches", "6599": "\u2581calamity", "6600": "\u2581changing", "6601": "\u2581chiefest", "6602": "\u2581commands", "6603": "\u2581commends", "6604": "\u2581concerns", "6605": "\u2581confeder", "6606": "\u2581cracking", "6607": "\u2581damnable", "6608": "\u2581delicate", "6609": "\u2581despised", "6610": "\u2581distress", "6611": "\u2581doubtful", "6612": "\u2581downfall", "6613": "\u2581drinking", "6614": "\u2581enforced", "6615": "\u2581entreaty", "6616": "\u2581everlast", "6617": "\u2581extremes", "6618": "\u2581familiar", "6619": "\u2581forehead", "6620": "\u2581forsooth", "6621": "\u2581humility", "6622": "\u2581incensed", "6623": "\u2581infected", "6624": "\u2581learning", "6625": "\u2581manifest", "6626": "\u2581mischief", "6627": "\u2581mountain", "6628": "\u2581murdered", "6629": "\u2581musician", "6630": "\u2581nighting", "6631": "\u2581northern", "6632": "\u2581offences", "6633": "\u2581perjured", "6634": "\u2581prophecy", "6635": "\u2581prophesy", "6636": "\u2581proudest", "6637": "\u2581provided", "6638": "\u2581recreant", "6639": "\u2581reported", "6640": "\u2581sensible", "6641": "\u2581singular", "6642": "\u2581smallest", "6643": "\u2581statutes", "6644": "\u2581sweetest", "6645": "\u2581swelling", "6646": "\u2581unworthy", "6647": "\u2581whoreson", "6648": "\u2581wrinkled", "6649": "\u2581yielding", "6650": "\u2581Montagues", "6651": "\u2581Tewksbury", "6652": "\u2581Volscians", "6653": "\u2581afterward", "6654": "\u2581confessor", "6655": "\u2581conqueror", "6656": "\u2581discharge", "6657": "\u2581disgraced", "6658": "\u2581guiltless", "6659": "\u2581injustice", "6660": "\u2581innocence", "6661": "\u2581interrupt", "6662": "\u2581loathsome", "6663": "\u2581multitude", "6664": "\u2581murderous", "6665": "\u2581ornaments", "6666": "\u2581otherwise", "6667": "\u2581plebeians", "6668": "\u2581royalties", "6669": "\u2581sacrament", "6670": "\u2581safeguard", "6671": "\u2581shoulders", "6672": "\u2581suffering", "6673": "\u2581thousands", "6674": "\u2581unwilling", "6675": "\u2581wonderful", "6676": "\u2581ARCHBISHOP", "6677": "\u2581Lieutenant", "6678": "\u2581boisterous", "6679": "\u2581compassion", "6680": "\u2581conclusion", "6681": "\u2581confession", "6682": "\u2581confidence", "6683": "\u2581considered", "6684": "\u2581correction", "6685": "\u2581corruption", "6686": "\u2581counsellor", "6687": "\u2581flatterers", "6688": "\u2581friendship", "6689": "\u2581henceforth", "6690": "\u2581likelihood", "6691": "\u2581marvellous", "6692": "\u2581oppression", "6693": "\u2581perfection", "6694": "\u2581prosperity", "6695": "\u2581redemption", "6696": "\u2581revengeful", "6697": "\u2581slanderous", "6698": "\u2581sufferance", "6699": "\u2581tenderness", "6700": "\u2581visitation", "6701": "\u2581whatsoever", "6702": "\u2581whispering", "6703": "\u2581brotherhood", "6704": "\u2581ceremonious", "6705": "\u2581consequence", "6706": "\u2581displeasure", "6707": "\u2581imagination", "6708": "\u2581lamentation", "6709": "\u2581proceedings", "6710": "Be", "6711": "He", "6712": "St", "6713": "cr", "6714": "ex", "6715": "lm", "6716": "lu", "6717": "ph", "6718": "AGE", "6719": "ANI", "6720": "ONA", "6721": "REY", "6722": "The", "6723": "ado", "6724": "ais", "6725": "ald", "6726": "ank", "6727": "asy", "6728": "ato", "6729": "aws", "6730": "bid", "6731": "cat", "6732": "cel", "6733": "cip", "6734": "cis", "6735": "civ", "6736": "eks", "6737": "eny", "6738": "hur", "6739": "idd", "6740": "iel", "6741": "imo", "6742": "ims", "6743": "iqu", "6744": "isk", "6745": "jud", "6746": "key", "6747": "lip", "6748": "met", "6749": "mph", "6750": "ops", "6751": "rge", "6752": "ros", "6753": "rup", "6754": "ted", "6755": "thw", "6756": "uge", "6757": "ule", "6758": "ums", "6759": "wit", "6760": "\u2581Ag", "6761": "\u2581Cy", "6762": "\u2581Du", "6763": "\u2581EM", "6764": "\u2581Ro", "6765": "\u2581av", "6766": "\u2581hy", "6767": "\u2581om", "6768": "\u2581vi", "6769": "Gain", "6770": "This", "6771": "adem", "6772": "atri", "6773": "azon", "6774": "bell", "6775": "bles", "6776": "cast", "6777": "cock", "6778": "core", "6779": "cund", "6780": "duce", "6781": "ebus", "6782": "ffer", "6783": "gage", "6784": "ghts", "6785": "gled", "6786": "good", "6787": "gory", "6788": "gued", "6789": "iner", "6790": "inew", "6791": "ingu", "6792": "itty", "6793": "ival", "6794": "izab", "6795": "kens", "6796": "lled", "6797": "look", "6798": "loqu", "6799": "love", "6800": "miss", "6801": "mpet", "6802": "odow", "6803": "olar", "6804": "olve", "6805": "omin", "6806": "peci", "6807": "phan", "6808": "pped", "6809": "ppet", "6810": "pret", "6811": "quet", "6812": "quis", "6813": "reth", "6814": "rial", "6815": "rief", "6816": "rion", "6817": "ropp", "6818": "seem", "6819": "seth", "6820": "side", "6821": "sion", "6822": "sses", "6823": "uced", "6824": "umes", "6825": "umny", "6826": "umps", "6827": "ungs", "6828": "upon", "6829": "urer", "6830": "urvy", "6831": "voke", "6832": "will", "6833": "xton", "6834": "your", "6835": "\u2581Any", "6836": "\u2581Arm", "6837": "\u2581Ass", "6838": "\u2581Bad", "6839": "\u2581Ban", "6840": "\u2581Def", "6841": "\u2581Dor", "6842": "\u2581End", "6843": "\u2581Fly", "6844": "\u2581Ill", "6845": "\u2581Ins", "6846": "\u2581Jer", "6847": "\u2581Jud", "6848": "\u2581Jun", "6849": "\u2581Lam", "6850": "\u2581Pha", "6851": "\u2581Pho", "6852": "\u2581Red", "6853": "\u2581Ren", "6854": "\u2581Run", "6855": "\u2581SUR", "6856": "\u2581Sin", "6857": "\u2581Tur", "6858": "\u2581box", "6859": "\u2581coz", "6860": "\u2581ded", "6861": "\u2581der", "6862": "\u2581dil", "6863": "\u2581ebb", "6864": "\u2581fem", "6865": "\u2581fet", "6866": "\u2581fif", "6867": "\u2581gaz", "6868": "\u2581haw", "6869": "\u2581ire", "6870": "\u2581kna", "6871": "\u2581mum", "6872": "\u2581non", "6873": "\u2581obt", "6874": "\u2581pox", "6875": "\u2581ren", "6876": "\u2581stu", "6877": "\u2581tax", "6878": "\u2581tea", "6879": "\u2581toe", "6880": "\u2581ton", "6881": "\u2581toy", "6882": "\u2581tur", "6883": "\u2581vig", "6884": "ANIEL", "6885": "Twill", "6886": "aches", "6887": "adise", "6888": "alion", "6889": "allel", "6890": "andle", "6891": "antle", "6892": "asing", "6893": "athom", "6894": "blown", "6895": "chool", "6896": "craft", "6897": "echer", "6898": "eches", "6899": "ethon", "6900": "feits", "6901": "glass", "6902": "gnant", "6903": "grown", "6904": "habit", "6905": "heard", "6906": "holds", "6907": "icial", "6908": "iding", "6909": "illed", "6910": "isome", "6911": "ivers", "6912": "licit", "6913": "lling", "6914": "neath", "6915": "nsion", "6916": "opher", "6917": "overy", "6918": "plish", "6919": "ptory", "6920": "rails", "6921": "rieve", "6922": "runes", "6923": "scals", "6924": "scape", "6925": "ships", "6926": "stone", "6927": "strel", "6928": "thing", "6929": "throw", "6930": "tised", "6931": "verse", "6932": "versy", "6933": "whelm", "6934": "where", "6935": "\u2581BONA", "6936": "\u2581Back", "6937": "\u2581Cher", "6938": "\u2581Cold", "6939": "\u2581DION", "6940": "\u2581Fill", "6941": "\u2581Fran", "6942": "\u2581Gold", "6943": "\u2581Harp", "6944": "\u2581Herc", "6945": "\u2581High", "6946": "\u2581Holy", "6947": "\u2581Host", "6948": "\u2581Join", "6949": "\u2581Just", "6950": "\u2581Left", "6951": "\u2581NATH", "6952": "\u2581Obey", "6953": "\u2581Open", "6954": "\u2581PAGE", "6955": "\u2581Pres", "6956": "\u2581Prof", "6957": "\u2581Rest", "6958": "\u2581Urge", "6959": "\u2581abod", "6960": "\u2581abst", "6961": "\u2581airy", "6962": "\u2581alto", "6963": "\u2581answ", "6964": "\u2581arch", "6965": "\u2581awry", "6966": "\u2581beet", "6967": "\u2581boon", "6968": "\u2581bush", "6969": "\u2581cann", "6970": "\u2581card", "6971": "\u2581cave", "6972": "\u2581chaf", "6973": "\u2581chap", "6974": "\u2581chop", "6975": "\u2581clap", "6976": "\u2581coal", "6977": "\u2581crew", "6978": "\u2581cuck", "6979": "\u2581dame", "6980": "\u2581diet", "6981": "\u2581doct", "6982": "\u2581dumb", "6983": "\u2581farm", "6984": "\u2581feat", "6985": "\u2581fest", "6986": "\u2581fits", "6987": "\u2581foil", "6988": "\u2581fold", "6989": "\u2581forn", "6990": "\u2581gait", "6991": "\u2581gaol", "6992": "\u2581gape", "6993": "\u2581geld", "6994": "\u2581gulf", "6995": "\u2581hall", "6996": "\u2581halt", "6997": "\u2581heap", "6998": "\u2581hole", "6999": "\u2581hood", "7000": "\u2581idly", "7001": "\u2581inve", "7002": "\u2581jade", "7003": "\u2581knit", "7004": "\u2581lace", "7005": "\u2581levy", "7006": "\u2581liar", "7007": "\u2581link", "7008": "\u2581liqu", "7009": "\u2581male", "7010": "\u2581marr", "7011": "\u2581mast", "7012": "\u2581moan", "7013": "\u2581muff", "7014": "\u2581negl", "7015": "\u2581obst", "7016": "\u2581pate", "7017": "\u2581pays", "7018": "\u2581perf", "7019": "\u2581pine", "7020": "\u2581prec", "7021": "\u2581puff", "7022": "\u2581pull", "7023": "\u2581rats", "7024": "\u2581rent", "7025": "\u2581ridd", "7026": "\u2581rode", "7027": "\u2581sear", "7028": "\u2581sequ", "7029": "\u2581sith", "7030": "\u2581spar", "7031": "\u2581sped", "7032": "\u2581stem", "7033": "\u2581sued", "7034": "\u2581sugg", "7035": "\u2581sung", "7036": "\u2581syll", "7037": "\u2581tink", "7038": "\u2581ugly", "7039": "\u2581unth", "7040": "\u2581vine", "7041": "\u2581warn", "7042": "\u2581wasp", "7043": "\u2581weal", "7044": "\u2581weed", "7045": "\u2581whet", "7046": "Gainst", "7047": "actors", "7048": "ailing", "7049": "aining", "7050": "antime", "7051": "apable", "7052": "arison", "7053": "asures", "7054": "bearer", "7055": "cedent", "7056": "chelor", "7057": "elting", "7058": "erving", "7059": "estern", "7060": "franch", "7061": "iquity", "7062": "ivered", "7063": "leness", "7064": "liness", "7065": "mongst", "7066": "omenes", "7067": "orizel", "7068": "otless", "7069": "ouches", "7070": "piring", "7071": "randam", "7072": "ressed", "7073": "rician", "7074": "riment", "7075": "strong", "7076": "terate", "7077": "ueless", "7078": "uments", "7079": "voided", "7080": "witted", "7081": "\u2581Again", "7082": "\u2581Arise", "7083": "\u2581Carry", "7084": "\u2581Every", "7085": "\u2581Fifth", "7086": "\u2581Flore", "7087": "\u2581Forth", "7088": "\u2581Groom", "7089": "\u2581Infer", "7090": "\u2581Knock", "7091": "\u2581Lodow", "7092": "\u2581Lovel", "7093": "\u2581Mercy", "7094": "\u2581Percy", "7095": "\u2581Seize", "7096": "\u2581Shame", "7097": "\u2581Sixth", "7098": "\u2581Smile", "7099": "\u2581Tarqu", "7100": "\u2581Wales", "7101": "\u2581Whate", "7102": "\u2581Worse", "7103": "\u2581Write", "7104": "\u2581actor", "7105": "\u2581admir", "7106": "\u2581admit", "7107": "\u2581afoot", "7108": "\u2581afore", "7109": "\u2581allay", "7110": "\u2581aloof", "7111": "\u2581amend", "7112": "\u2581antic", "7113": "\u2581apply", "7114": "\u2581arbit", "7115": "\u2581argos", "7116": "\u2581armed", "7117": "\u2581beads", "7118": "\u2581befal", "7119": "\u2581begot", "7120": "\u2581blade", "7121": "\u2581bleed", "7122": "\u2581bodes", "7123": "\u2581bount", "7124": "\u2581brass", "7125": "\u2581brawl", "7126": "\u2581bribe", "7127": "\u2581broad", "7128": "\u2581budge", "7129": "\u2581chest", "7130": "\u2581climb", "7131": "\u2581coals", "7132": "\u2581crest", "7133": "\u2581dared", "7134": "\u2581decay", "7135": "\u2581doors", "7136": "\u2581doves", "7137": "\u2581draws", "7138": "\u2581drows", "7139": "\u2581eloqu", "7140": "\u2581embra", "7141": "\u2581error", "7142": "\u2581exact", "7143": "\u2581fills", "7144": "\u2581filth", "7145": "\u2581flame", "7146": "\u2581foret", "7147": "\u2581graft", "7148": "\u2581greyh", "7149": "\u2581hatch", "7150": "\u2581hazel", "7151": "\u2581hears", "7152": "\u2581hedge", "7153": "\u2581heigh", "7154": "\u2581herbs", "7155": "\u2581holid", "7156": "\u2581imped", "7157": "\u2581impud", "7158": "\u2581lends", "7159": "\u2581locks", "7160": "\u2581loins", "7161": "\u2581loose", "7162": "\u2581lungs", "7163": "\u2581madly", "7164": "\u2581magic", "7165": "\u2581miles", "7166": "\u2581musty", "7167": "\u2581noses", "7168": "\u2581notes", "7169": "\u2581penny", "7170": "\u2581perem", "7171": "\u2581plate", "7172": "\u2581prays", "7173": "\u2581privy", "7174": "\u2581pupil", "7175": "\u2581quake", "7176": "\u2581rages", "7177": "\u2581rebel", "7178": "\u2581relig", "7179": "\u2581repet", "7180": "\u2581ripen", "7181": "\u2581rites", "7182": "\u2581rocks", "7183": "\u2581safer", "7184": "\u2581sands", "7185": "\u2581saucy", "7186": "\u2581scape", "7187": "\u2581scour", "7188": "\u2581separ", "7189": "\u2581shift", "7190": "\u2581shout", "7191": "\u2581siege", "7192": "\u2581signs", "7193": "\u2581sinew", "7194": "\u2581slack", "7195": "\u2581spilt", "7196": "\u2581split", "7197": "\u2581staff", "7198": "\u2581stirs", "7199": "\u2581sugar", "7200": "\u2581tamed", "7201": "\u2581tents", "7202": "\u2581thres", "7203": "\u2581token", "7204": "\u2581tower", "7205": "\u2581treat", "7206": "\u2581tried", "7207": "\u2581truer", "7208": "\u2581unple", "7209": "\u2581using", "7210": "\u2581value", "7211": "\u2581waken", "7212": "\u2581wheel", "7213": "\u2581whipt", "7214": "enerate", "7215": "entious", "7216": "fulness", "7217": "herited", "7218": "itories", "7219": "izabeth", "7220": "kenbury", "7221": "picious", "7222": "shining", "7223": "venient", "7224": "\u2581Attend", "7225": "\u2581Belike", "7226": "\u2581Calais", "7227": "\u2581Commit", "7228": "\u2581Cursed", "7229": "\u2581Darest", "7230": "\u2581Direct", "7231": "\u2581EMILIA", "7232": "\u2581Emilia", "7233": "\u2581Enough", "7234": "\u2581Forbid", "7235": "\u2581Greece", "7236": "\u2581Hector", "7237": "\u2581Herald", "7238": "\u2581Neighb", "7239": "\u2581Renown", "7240": "\u2581Repent", "7241": "\u2581SURREY", "7242": "\u2581Twenty", "7243": "\u2581Verily", "7244": "\u2581agreed", "7245": "\u2581allies", "7246": "\u2581anchor", "7247": "\u2581appell", "7248": "\u2581ashore", "7249": "\u2581assemb", "7250": "\u2581attent", "7251": "\u2581befits", "7252": "\u2581beseem", "7253": "\u2581beware", "7254": "\u2581bishop", "7255": "\u2581bleeds", "7256": "\u2581bought", "7257": "\u2581braved", "7258": "\u2581canker", "7259": "\u2581canopy", "7260": "\u2581caused", "7261": "\u2581centre", "7262": "\u2581chains", "7263": "\u2581chival", "7264": "\u2581coldly", "7265": "\u2581combat", "7266": "\u2581confer", "7267": "\u2581contri", "7268": "\u2581create", "7269": "\u2581darken", "7270": "\u2581debase", "7271": "\u2581deeper", "7272": "\u2581deeply", "7273": "\u2581defect", "7274": "\u2581denial", "7275": "\u2581device", "7276": "\u2581diadem", "7277": "\u2581dragon", "7278": "\u2581dreamt", "7279": "\u2581dwells", "7280": "\u2581entire", "7281": "\u2581events", "7282": "\u2581famish", "7283": "\u2581female", "7284": "\u2581fights", "7285": "\u2581firmly", "7286": "\u2581fitted", "7287": "\u2581forces", "7288": "\u2581forest", "7289": "\u2581fouler", "7290": "\u2581gaoler", "7291": "\u2581gloves", "7292": "\u2581harlot", "7293": "\u2581higher", "7294": "\u2581homage", "7295": "\u2581horror", "7296": "\u2581hunger", "7297": "\u2581impart", "7298": "\u2581infirm", "7299": "\u2581issued", "7300": "\u2581jocund", "7301": "\u2581killed", "7302": "\u2581latest", "7303": "\u2581limits", "7304": "\u2581looker", "7305": "\u2581louder", "7306": "\u2581madest", "7307": "\u2581madman", "7308": "\u2581malign", "7309": "\u2581marble", "7310": "\u2581mellow", "7311": "\u2581merely", "7312": "\u2581minded", "7313": "\u2581mutiny", "7314": "\u2581napkin", "7315": "\u2581naught", "7316": "\u2581needle", "7317": "\u2581nobler", "7318": "\u2581nursed", "7319": "\u2581obtain", "7320": "\u2581orphan", "7321": "\u2581pedant", "7322": "\u2581permit", "7323": "\u2581pledge", "7324": "\u2581plucks", "7325": "\u2581pocket", "7326": "\u2581pounds", "7327": "\u2581prerog", "7328": "\u2581profan", "7329": "\u2581prunes", "7330": "\u2581puppet", "7331": "\u2581quaint", "7332": "\u2581queens", "7333": "\u2581ragged", "7334": "\u2581raging", "7335": "\u2581rebuke", "7336": "\u2581render", "7337": "\u2581rescue", "7338": "\u2581resort", "7339": "\u2581rising", "7340": "\u2581rivers", "7341": "\u2581sayest", "7342": "\u2581scorns", "7343": "\u2581shower", "7344": "\u2581shriek", "7345": "\u2581shrink", "7346": "\u2581silken", "7347": "\u2581skulls", "7348": "\u2581sleeps", "7349": "\u2581sleepy", "7350": "\u2581solely", "7351": "\u2581spices", "7352": "\u2581starve", "7353": "\u2581strait", "7354": "\u2581stream", "7355": "\u2581street", "7356": "\u2581succor", "7357": "\u2581sunder", "7358": "\u2581suppli", "7359": "\u2581sweets", "7360": "\u2581tailor", "7361": "\u2581thorns", "7362": "\u2581threes", "7363": "\u2581trades", "7364": "\u2581tumble", "7365": "\u2581turned", "7366": "\u2581unborn", "7367": "\u2581unrest", "7368": "\u2581vassal", "7369": "\u2581volume", "7370": "\u2581vulgar", "7371": "\u2581widows", "7372": "\u2581wilful", "7373": "\u2581winged", "7374": "\u2581wisest", "7375": "\u2581woeful", "7376": "\u2581wolves", "7377": "ervation", "7378": "ifferent", "7379": "osterous", "7380": "pecially", "7381": "\u2581Advance", "7382": "\u2581Amongst", "7383": "\u2581Beshrew", "7384": "\u2581Between", "7385": "\u2581Betwixt", "7386": "\u2581Condemn", "7387": "\u2581Forbear", "7388": "\u2581Francis", "7389": "\u2581Grandam", "7390": "\u2581Gregory", "7391": "\u2581Masters", "7392": "\u2581Measure", "7393": "\u2581Phoebus", "7394": "\u2581achieve", "7395": "\u2581appoint", "7396": "\u2581assault", "7397": "\u2581baggage", "7398": "\u2581banquet", "7399": "\u2581beastly", "7400": "\u2581beating", "7401": "\u2581beguile", "7402": "\u2581blister", "7403": "\u2581calumny", "7404": "\u2581capital", "7405": "\u2581captive", "7406": "\u2581changes", "7407": "\u2581closely", "7408": "\u2581conspir", "7409": "\u2581contrad", "7410": "\u2581cordial", "7411": "\u2581council", "7412": "\u2581counted", "7413": "\u2581cousins", "7414": "\u2581created", "7415": "\u2581cuckold", "7416": "\u2581curious", "7417": "\u2581curtain", "7418": "\u2581dangers", "7419": "\u2581deceive", "7420": "\u2581degrees", "7421": "\u2581demands", "7422": "\u2581direful", "7423": "\u2581disobed", "7424": "\u2581divided", "7425": "\u2581divines", "7426": "\u2581divorce", "7427": "\u2581earldom", "7428": "\u2581exclaim", "7429": "\u2581faction", "7430": "\u2581faintly", "7431": "\u2581falsely", "7432": "\u2581fasting", "7433": "\u2581feeding", "7434": "\u2581follies", "7435": "\u2581footman", "7436": "\u2581forsake", "7437": "\u2581gentler", "7438": "\u2581getting", "7439": "\u2581glories", "7440": "\u2581happier", "7441": "\u2581haughty", "7442": "\u2581hideous", "7443": "\u2581highway", "7444": "\u2581hurried", "7445": "\u2581infring", "7446": "\u2581inherit", "7447": "\u2581knowest", "7448": "\u2581lecture", "7449": "\u2581lightly", "7450": "\u2581longest", "7451": "\u2581lustful", "7452": "\u2581matters", "7453": "\u2581merrily", "7454": "\u2581mockery", "7455": "\u2581mocking", "7456": "\u2581natures", "7457": "\u2581notwith", "7458": "\u2581nourish", "7459": "\u2581pardons", "7460": "\u2581pastime", "7461": "\u2581pattern", "7462": "\u2581perjury", "7463": "\u2581picture", "7464": "\u2581plaints", "7465": "\u2581procure", "7466": "\u2581profits", "7467": "\u2581pursued", "7468": "\u2581raiment", "7469": "\u2581rancour", "7470": "\u2581rascals", "7471": "\u2581recover", "7472": "\u2581replied", "7473": "\u2581reproof", "7474": "\u2581rewards", "7475": "\u2581roundly", "7476": "\u2581scarlet", "7477": "\u2581scholar", "7478": "\u2581shelter", "7479": "\u2581showers", "7480": "\u2581smiling", "7481": "\u2581society", "7482": "\u2581solicit", "7483": "\u2581spiders", "7484": "\u2581suffice", "7485": "\u2581superfl", "7486": "\u2581suppose", "7487": "\u2581supreme", "7488": "\u2581tainted", "7489": "\u2581threats", "7490": "\u2581throats", "7491": "\u2581tonight", "7492": "\u2581tribune", "7493": "\u2581tribute", "7494": "\u2581undergo", "7495": "\u2581villany", "7496": "\u2581warning", "7497": "\u2581wayward", "7498": "\u2581weighty", "7499": "\u2581wenches", "7500": "\u2581western", "7501": "\u2581whistle", "7502": "\u2581wonders", "7503": "mediately", "7504": "perienced", "7505": "\u2581Antiates", "7506": "\u2581Consider", "7507": "\u2581Dispatch", "7508": "\u2581Doricles", "7509": "\u2581Evermore", "7510": "\u2581Florizel", "7511": "\u2581Hercules", "7512": "\u2581Lodowick", "7513": "\u2581Meantime", "7514": "\u2581Overdone", "7515": "\u2581Phaethon", "7516": "\u2581Thoughts", "7517": "\u2581Touching", "7518": "\u2581Welshmen", "7519": "\u2581achieved", "7520": "\u2581admitted", "7521": "\u2581affright", "7522": "\u2581ambition", "7523": "\u2581appeared", "7524": "\u2581bachelor", "7525": "\u2581backward", "7526": "\u2581bankrupt", "7527": "\u2581baseness", "7528": "\u2581bootless", "7529": "\u2581brawling", "7530": "\u2581breaking", "7531": "\u2581breathes", "7532": "\u2581breeding", "7533": "\u2581chastity", "7534": "\u2581choleric", "7535": "\u2581comforts", "7536": "\u2581confines", "7537": "\u2581consumed", "7538": "\u2581councils", "7539": "\u2581counsels", "7540": "\u2581delights", "7541": "\u2581discords", "7542": "\u2581disorder", "7543": "\u2581distingu", "7544": "\u2581division", "7545": "\u2581drunkard", "7546": "\u2581embraced", "7547": "\u2581entrails", "7548": "\u2581farthest", "7549": "\u2581festival", "7550": "\u2581fighting", "7551": "\u2581frighted", "7552": "\u2581fruitful", "7553": "\u2581function", "7554": "\u2581governor", "7555": "\u2581harmless", "7556": "\u2581husbands", "7557": "\u2581imperial", "7558": "\u2581indirect", "7559": "\u2581inferior", "7560": "\u2581injuries", "7561": "\u2581intended", "7562": "\u2581knightly", "7563": "\u2581ladyship", "7564": "\u2581mariners", "7565": "\u2581medicine", "7566": "\u2581merciful", "7567": "\u2581millions", "7568": "\u2581minstrel", "7569": "\u2581miseries", "7570": "\u2581mounting", "7571": "\u2581mourning", "7572": "\u2581needless", "7573": "\u2581nobleman", "7574": "\u2581peaceful", "7575": "\u2581publicly", "7576": "\u2581puissant", "7577": "\u2581receives", "7578": "\u2581regiment", "7579": "\u2581remedies", "7580": "\u2581required", "7581": "\u2581requires", "7582": "\u2581resolute", "7583": "\u2581restored", "7584": "\u2581returned", "7585": "\u2581scarcely", "7586": "\u2581scolding", "7587": "\u2581stirring", "7588": "\u2581stooping", "7589": "\u2581strongly", "7590": "\u2581strumpet", "7591": "\u2581sunshine", "7592": "\u2581tenderly", "7593": "\u2581terrible", "7594": "\u2581timeless", "7595": "\u2581trembles", "7596": "\u2581triumphs", "7597": "\u2581unlawful", "7598": "\u2581vineyard", "7599": "\u2581welcomes", "7600": "\u2581worthily", "7601": "\u2581Affection", "7602": "\u2581Cleomenes", "7603": "\u2581Elizabeth", "7604": "\u2581NATHANIEL", "7605": "\u2581Patrician", "7606": "\u2581amazement", "7607": "\u2581blessings", "7608": "\u2581caparison", "7609": "\u2581concluded", "7610": "\u2581confusion", "7611": "\u2581consorted", "7612": "\u2581counterpo", "7613": "\u2581cowardice", "7614": "\u2581creatures", "7615": "\u2581delivered", "7616": "\u2581disguised", "7617": "\u2581dissemble", "7618": "\u2581elsewhere", "7619": "\u2581extremest", "7620": "\u2581following", "7621": "\u2581greetings", "7622": "\u2581impatient", "7623": "\u2581importune", "7624": "\u2581injurious", "7625": "\u2581insolence", "7626": "\u2581insulting", "7627": "\u2581lightness", "7628": "\u2581merriment", "7629": "\u2581mistaking", "7630": "\u2581necessary", "7631": "\u2581notorious", "7632": "\u2581penitence", "7633": "\u2581physician", "7634": "\u2581poisonous", "7635": "\u2581possessed", "7636": "\u2581posterity", "7637": "\u2581precedent", "7638": "\u2581preserved", "7639": "\u2581prisoners", "7640": "\u2581reckoning", "7641": "\u2581repossess", "7642": "\u2581restraint", "7643": "\u2581solemnity", "7644": "\u2581testimony", "7645": "\u2581treachery", "7646": "\u2581troublous", "7647": "\u2581unfeigned", "7648": "\u2581utterance", "7649": "\u2581witnesses", "7650": "\u2581wrangling", "7651": "\u2581Apothecary", "7652": "\u2581Brakenbury", "7653": "\u2581advertised", "7654": "\u2581altogether", "7655": "\u2581assistance", "7656": "\u2581cheerfully", "7657": "\u2581commanding", "7658": "\u2581conditions", "7659": "\u2581difference", "7660": "\u2581discharged", "7661": "\u2581distressed", "7662": "\u2581expedition", "7663": "\u2581headstrong", "7664": "\u2581impatience", "7665": "\u2581impediment", "7666": "\u2581impression", "7667": "\u2581inconstant", "7668": "\u2581jealousies", "7669": "\u2581knighthood", "7670": "\u2581lieutenant", "7671": "\u2581peremptory", "7672": "\u2581persuasion", "7673": "\u2581pestilence", "7674": "\u2581pronounced", "7675": "\u2581repetition", "7676": "\u2581sisterhood", "7677": "\u2581underneath", "7678": "\u2581witchcraft", "7679": "\u2581Christopher", "7680": "\u2581acknowledge", "7681": "\u2581chamberlain", "7682": "\u2581comfortable", "7683": "\u2581composition", "7684": "\u2581controversy", "7685": "\u2581forgiveness", "7686": "\u2581grandfather", "7687": "\u2581inclination", "7688": "\u2581indifferent", "7689": "\u2581interchange", "7690": "\u2581nightingale", "7691": "\u2581prerogative", "7692": "\u2581territories", "7693": "\u2581transported", "7694": "\u2581apprehension", "7695": "\u2581chastisement", "7696": "\u2581schoolmaster", "7697": "\u2581circumstances", "7698": "\u2581understanding", "7699": "\u2581notwithstanding", "7700": "'!", "7701": "CI", "7702": "My", "7703": "Ty", "7704": "av", "7705": "co", "7706": "oz", "7707": "sy", "7708": "We", "7709": "te", "7710": "wh", "7711": "'--", "7712": "ARL", "7713": "UNT", "7714": "alf", "7715": "alo", "7716": "ami", "7717": "aus", "7718": "bel", "7719": "bes", "7720": "can", "7721": "cho", "7722": "cts", "7723": "din", "7724": "dis", "7725": "dra", "7726": "dur", "7727": "ech", "7728": "ele", "7729": "erp", "7730": "erw", "7731": "fly", "7732": "gom", "7733": "hos", "7734": "hra", "7735": "ias", "7736": "iby", "7737": "ige", "7738": "iod", "7739": "isc", "7740": "las", "7741": "leh", "7742": "lex", "7743": "liv", "7744": "lla", "7745": "mak", "7746": "min", "7747": "nel", "7748": "net", "7749": "nit", "7750": "nut", "7751": "oln", "7752": "orc", "7753": "pol", "7754": "por", "7755": "qua", "7756": "reg", "7757": "ris", "7758": "sia", "7759": "ton", "7760": "ubs", "7761": "umn", "7762": "usc", "7763": "uto", "7764": "vir", "7765": "\u2581BL", "7766": "\u2581Pe", "7767": "\u2581SA", "7768": "\u2581Ti", "7769": "\u2581Tr", "7770": "\u2581au", "7771": "\u2581cy", "7772": "\u2581eg", "7773": "\u2581el", "7774": "\u2581ew", "7775": "\u2581ib", "7776": "\u2581la", "7777": "\u2581na", "7778": "\u2581ny", "7779": "\u2581ox", "7780": "CISC", "7781": "Fore", "7782": "Good", "7783": "Hear", "7784": "Soul", "7785": "Tell", "7786": "acks", "7787": "agoz", "7788": "aith", "7789": "alem", "7790": "alls", "7791": "ange", "7792": "anks", "7793": "apes", "7794": "arth", "7795": "ashy", "7796": "atin", "7797": "aved", "7798": "bast", "7799": "bery", "7800": "bled", "7801": "body", "7802": "bred", "7803": "cued", "7804": "dent", "7805": "door", "7806": "eria", "7807": "eyed", "7808": "bu", "7809": "fix", "7810": "pse", "7811": "spo", "7812": "vil", "7813": "alty", "7814": "fend", "7815": "ffic", "7816": "geal", "7817": "geon", "7818": "gher", "7819": "gone", "7820": "happ", "7821": "hear", "7822": "hers", "7823": "hild", "7824": "hoop", "7825": "hyme", "7826": "ican", "7827": "ilty", "7828": "inet", "7829": "isle", "7830": "itae", "7831": "itan", "7832": "keep", "7833": "lord", "7834": "lore", "7835": "lorn", "7836": "lous", "7837": "lves", "7838": "mary", "7839": "mast", "7840": "mind", "7841": "once", "7842": "oted", "7843": "pery", "7844": "phos", "7845": "pire", "7846": "ples", "7847": "pted", "7848": "pter", "7849": "qual", "7850": "reef", "7851": "rian", "7852": "ribe", "7853": "roop", "7854": "rung", "7855": "sick", "7856": "song", "7857": "take", "7858": "this", "7859": "tles", "7860": "tree", "7861": "tsey", "7862": "uity", "7863": "ulte", "7864": "unch", "7865": "urps", "7866": "utus", "7867": "vill", "7868": "vity", "7869": "\u2581Bea", "7870": "\u2581Beg", "7871": "\u2581Cob", "7872": "\u2581Cot", "7873": "\u2581Die", "7874": "\u2581Dou", "7875": "\u2581Dre", "7876": "\u2581Ele", "7877": "\u2581Err", "7878": "\u2581Eur", "7879": "\u2581Far", "7880": "\u2581Fer", "7881": "\u2581Hap", "7882": "\u2581Inf", "7883": "\u2581Lad", "7884": "\u2581Lud", "7885": "\u2581Mab", "7886": "\u2581Nat", "7887": "\u2581Opp", "7888": "\u2581Phi", "7889": "\u2581Pil", "7890": "\u2581Pit", "7891": "\u2581Ref", "7892": "\u2581Rus", "7893": "\u2581Sad", "7894": "\u2581Sub", "7895": "\u2581Uly", "7896": "\u2581Unb", "7897": "\u2581Unc", "7898": "\u2581Unw", "7899": "\u2581Var", "7900": "\u2581bau", "7901": "\u2581baw", "7902": "\u2581cas", "7903": "\u2581ced", "7904": "\u2581cri", "7905": "\u2581dol", "7906": "\u2581duc", "7907": "\u2581dug", "7908": "It", "7909": "arr", "7910": "azy", "7911": "bon", "7912": "book", "7913": "dict", "7914": "\u2581ant", "7915": "\u2581awe", "7916": "\u2581dun", "7917": "\u2581esc", "7918": "\u2581fed", "7919": "\u2581fen", "7920": "\u2581fut", "7921": "\u2581gay", "7922": "\u2581gir", "7923": "\u2581gle", "7924": "\u2581hab", "7925": "\u2581hen", "7926": "\u2581jar", "7927": "\u2581kit", "7928": "\u2581map", "7929": "\u2581mor", "7930": "\u2581mot", "7931": "\u2581mow", "7932": "\u2581nea", "7933": "\u2581nov", "7934": "\u2581oce", "7935": "\u2581orc", "7936": "\u2581ost", "7937": "\u2581phe", "7938": "\u2581pir", "7939": "\u2581poo", "7940": "\u2581pry", "7941": "\u2581raw", "7942": "\u2581rip", "7943": "\u2581rod", "7944": "\u2581roy", "7945": "\u2581rub", "7946": "\u2581sex", "7947": "\u2581sly", "7948": "\u2581sty", "7949": "\u2581tum", "7950": "\u2581utt", "7951": "\u2581vap", "7952": "\u2581vio", "7953": "\u2581web", "7954": "\u2581wra", "7955": "Heart", "7956": "abour", "7957": "acket", "7958": "ackey", "7959": "agate", "7960": "agems", "7961": "agine", "7962": "anous", "7963": "arded", "7964": "areth", "7965": "asciv", "7966": "asite", "7967": "assad", "7968": "ately", "7969": "atics", "7970": "atory", "7971": "aving", "7972": "bborn", "7973": "bered", "7974": "brain", "7975": "ccess", "7976": "ceipt", "7977": "child", "7978": "cible", "7979": "doing", "7980": "eases", "7981": "ected", "7982": "endom", "7983": "ennel", "7984": "ently", "7985": "erely", "7986": "erman", "7987": "ersha", "7988": "ggard", "7989": "gging", "7990": "greed", "7991": "gress", "7992": "hance", "7993": "iable", "7994": "icide", "7995": "icing", "7996": "ieldy", "7997": "ifter", "7998": "igeia", "7999": "ilver", "8000": "imois", "8001": "imple", "8002": "inite", "8003": "iving", "8004": "ivity", "8005": "izard", "8006": "jects", "8007": "journ", "8008": "abb", "8009": "bri", "8010": "cas", "8011": "voc", "8012": "cipl", "8013": "empl", "8014": "mony", "8015": "peak", "8016": "urbs", "8017": "\u2581Cut", "8018": "\u2581hew", "8019": "\u2581yew", "8020": "Souls", "8021": "guish", "8022": "lause", "8023": "lings", "8024": "loyal", "8025": "lphur", "8026": "nders", "8027": "odity", "8028": "oison", "8029": "olour", "8030": "omest", "8031": "oming", "8032": "ongue", "8033": "onour", "8034": "oting", "8035": "pence", "8036": "peror", "8037": "piece", "8038": "poses", "8039": "press", "8040": "prise", "8041": "pture", "8042": "quess", "8043": "quiet", "8044": "raign", "8045": "reach", "8046": "rings", "8047": "rosby", "8048": "score", "8049": "stood", "8050": "stool", "8051": "thren", "8052": "urity", "8053": "using", "8054": "ustle", "8055": "vener", "8056": "verns", "8057": "weary", "8058": "weigh", "8059": "wench", "8060": "women", "8061": "\u2581Acqu", "8062": "\u2581Adam", "8063": "\u2581Base", "8064": "\u2581Bore", "8065": "\u2581Bret", "8066": "\u2581Care", "8067": "\u2581Deep", "8068": "\u2581Dick", "8069": "\u2581Dion", "8070": "\u2581EARL", "8071": "\u2581FRAN", "8072": "\u2581Fitz", "8073": "\u2581Fool", "8074": "\u2581Gall", "8075": "\u2581Glad", "8076": "\u2581Half", "8077": "\u2581Hard", "8078": "\u2581Hung", "8079": "\u2581Jule", "8080": "\u2581Juno", "8081": "\u2581Last", "8082": "\u2581Leic", "8083": "\u2581Less", "8084": "\u2581Lift", "8085": "\u2581Luke", "8086": "\u2581Meet", "8087": "\u2581Near", "8088": "\u2581Nine", "8089": "\u2581Pale", "8090": "\u2581Ross", "8091": "\u2581Seal", "8092": "\u2581Sent", "8093": "\u2581Sirs", "8094": "\u2581Step", "8095": "\u2581Stir", "8096": "\u2581Stop", "8097": "\u2581Suff", "8098": "\u2581Tend", "8099": "\u2581Told", "8100": "\u2581Trem", "8101": "\u2581Weep", "8102": "\u2581Went", "8103": "\u2581adul", "8104": "\u2581aery", "8105": "\u2581agre", "8106": "\u2581aqua", "8107": "\u2581aust", "8108": "my", "8109": "soe", "8110": "hast", "8111": "warn", "8112": "\u2581Sel", "8113": "\u2581egg", "8114": "\u2581pul", "8115": "asted", "8116": "usual", "8117": "worth", "8118": "\u2581Carl", "8119": "\u2581Girl", "8120": "\u2581bait", "8121": "\u2581bale", "8122": "\u2581barb", "8123": "\u2581barr", "8124": "\u2581bash", "8125": "\u2581bate", "8126": "\u2581bats", "8127": "\u2581beho", "8128": "\u2581bide", "8129": "\u2581bier", "8130": "\u2581bind", "8131": "\u2581bone", "8132": "\u2581bulk", "8133": "\u2581calf", "8134": "\u2581caus", "8135": "\u2581cele", "8136": "\u2581cert", "8137": "\u2581chid", "8138": "\u2581cony", "8139": "\u2581crad", "8140": "\u2581crut", "8141": "\u2581cuff", "8142": "\u2581curs", "8143": "\u2581dial", "8144": "\u2581dimm", "8145": "\u2581doit", "8146": "\u2581emul", "8147": "\u2581exha", "8148": "\u2581eyeb", "8149": "\u2581fate", "8150": "\u2581fees", "8151": "\u2581file", "8152": "\u2581flag", "8153": "\u2581fowl", "8154": "\u2581gear", "8155": "\u2581gild", "8156": "\u2581gilt", "8157": "\u2581gnaw", "8158": "\u2581grub", "8159": "\u2581heal", "8160": "\u2581hilt", "8161": "\u2581hint", "8162": "\u2581hook", "8163": "\u2581howl", "8164": "\u2581hush", "8165": "\u2581ibat", "8166": "\u2581jump", "8167": "\u2581keen", "8168": "\u2581kern", "8169": "\u2581lain", "8170": "\u2581lame", "8171": "\u2581lamp", "8172": "\u2581lane", "8173": "\u2581lass", "8174": "\u2581lazy", "8175": "\u2581limb", "8176": "\u2581lurk", "8177": "\u2581mart", "8178": "\u2581mass", "8179": "\u2581mete", "8180": "\u2581ming", "8181": "\u2581muse", "8182": "\u2581mute", "8183": "\u2581nuns", "8184": "\u2581pals", "8185": "\u2581park", "8186": "\u2581peck", "8187": "\u2581pens", "8188": "\u2581pith", "8189": "\u2581poll", "8190": "\u2581raze", "8191": "\u2581resp", "8192": "\u2581road", "8193": "\u2581rood", "8194": "\u2581rope", "8195": "\u2581scra", "8196": "\u2581skin", "8197": "\u2581soar", "8198": "\u2581stew", "8199": "\u2581subm", "8200": "\u2581sues", "8201": "\u2581suns", "8202": "\u2581surm", "8203": "\u2581surn", "8204": "\u2581swim", "8205": "\u2581symp", "8206": "\u2581thra", "8207": "\u2581tire", "8208": "\u2581Staf", "8209": "\u2581ribb", "8210": "\u2581toss", "8211": "\u2581toys", "8212": "\u2581trod", "8213": "\u2581unaw", "8214": "\u2581unlo", "8215": "\u2581unsc", "8216": "\u2581vehe", "8217": "\u2581vest", "8218": "\u2581ware", "8219": "\u2581wary", "8220": "\u2581yard", "8221": "Tybalt", "8222": "acious", "8223": "antial", "8224": "arling", "8225": "atiate", "8226": "attery", "8227": "bering", "8228": "boding", "8229": "durate", "8230": "echery", "8231": "eliver", "8232": "ellows", "8233": "ension", "8234": "enting", "8235": "esters", "8236": "eterat", "8237": "favour", "8238": "gomery", "8239": "haniel", "8240": "horson", "8241": "iction", "8242": "ierced", "8243": "ighton", "8244": "inance", "8245": "inctly", "8246": "iously", "8247": "ixture", "8248": "lehill", "8249": "livion", "8250": "makers", "8251": "mbling", "8252": "minded", "8253": "oubted", "8254": "oughby", "8255": "overed", "8256": "people", "8257": "pherds", "8258": "randon", "8259": "reathe", "8260": "rehend", "8261": "retion", "8262": "ristol", "8263": "rolled", "8264": "ruised", "8265": "scaped", "8266": "school", "8267": "scribe", "8268": "shapen", "8269": "ternal", "8270": "tinent", "8271": "usalem", "8272": "usters", "8273": "vering", "8274": "withal", "8275": "\u2581Abbot", "8276": "\u2581Afric", "8277": "\u2581Alone", "8278": "\u2581April", "8279": "\u2581Awake", "8280": "\u2581BLUNT", "8281": "\u2581Black", "8282": "\u2581Blind", "8283": "\u2581Blood", "8284": "\u2581Blush", "8285": "\u2581Brave", "8286": "\u2581Cheer", "8287": "\u2581Child", "8288": "\u2581Const", "8289": "\u2581Dukes", "8290": "\u2581Envir", "8291": "\u2581Exton", "8292": "\u2581Found", "8293": "\u2581Given", "8294": "\u2581Guild", "8295": "\u2581Helen", "8296": "\u2581Irish", "8297": "\u2581James", "8298": "\u2581Knows", "8299": "\u2581LORDS", "8300": "\u2581Latin", "8301": "\u2581Lives", "8302": "\u2581Loved", "8303": "\u2581Mount", "8304": "\u2581Night", "8305": "\u2581Place", "8306": "\u2581Plain", "8307": "\u2581Pluck", "8308": "\u2581Proud", "8309": "\u2581Quick", "8310": "\u2581Ragoz", "8311": "\u2581Revol", "8312": "\u2581SALIS", "8313": "\u2581Sland", "8314": "\u2581Sleep", "8315": "\u2581Small", "8316": "\u2581Spoke", "8317": "\u2581Susan", "8318": "\u2581Takes", "8319": "\u2581Tiber", "8320": "\u2581Trans", "8321": "\u2581Turks", "8322": "\u2581White", "8323": "\u2581aches", "8324": "\u2581added", "8325": "\u2581adder", "8326": "\u2581adorn", "8327": "\u2581agony", "8328": "\u2581amity", "8329": "\u2581annoy", "8330": "\u2581asked", "8331": "\u2581atone", "8332": "\u2581awful", "8333": "\u2581bandy", "8334": "\u2581basil", "8335": "\u2581bawdy", "8336": "\u2581bench", "8337": "\u2581bills", "8338": "\u2581bites", "8339": "\u2581blasp", "8340": "\u2581blots", "8341": "\u2581bonds", "8342": "\u2581bonny", "8343": "\u2581bragg", "8344": "\u2581brine", "8345": "\u2581built", "8346": "\u2581chaff", "8347": "\u2581chain", "8348": "\u2581choke", "8349": "\u2581chron", "8350": "\u2581cleft", "8351": "\u2581coats", "8352": "\u2581cropp", "8353": "\u2581curbs", "8354": "\u2581daint", "8355": "\u2581depth", "8356": "\u2581dooms", "8357": "\u2581dropp", "8358": "\u2581edict", "8359": "\u2581effem", "8360": "\u2581endea", "8361": "\u2581endow", "8362": "\u2581ensue", "8363": "\u2581estab", "8364": "\u2581fails", "8365": "\u2581fence", "8366": "\u2581fifty", "8367": "\u2581flour", "8368": "\u2581forms", "8369": "\u2581gamut", "8370": "\u2581giant", "8371": "\u2581girls", "8372": "\u2581glove", "8373": "\u2581goest", "8374": "\u2581gorge", "8375": "\u2581greed", "8376": "\u2581grove", "8377": "\u2581hardy", "8378": "\u2581harms", "8379": "\u2581haven", "8380": "\u2581helms", "8381": "\u2581herds", "8382": "\u2581hills", "8383": "\u2581hoped", "8384": "\u2581impre", "8385": "\u2581incur", "8386": "\u2581influ", "8387": "\u2581knell", "8388": "\u2581lacks", "8389": "\u2581liars", "8390": "\u2581linen", "8391": "\u2581longs", "8392": "\u2581manly", "8393": "\u2581masqu", "8394": "\u2581moans", "8395": "\u2581needy", "8396": "\u2581niece", "8397": "\u2581ninet", "8398": "\u2581nymph", "8399": "\u2581outst", "8400": "\u2581parch", "8401": "\u2581parle", "8402": "\u2581pikes", "8403": "\u2581piled", "8404": "\u2581pines", "8405": "\u2581plays", "8406": "\u2581plent", "8407": "\u2581ports", "8408": "\u2581posts", "8409": "\u2581pratt", "8410": "\u2581quest", "8411": "\u2581rates", "8412": "\u2581rheum", "8413": "\u2581rings", "8414": "\u2581sails", "8415": "\u2581scare", "8416": "\u2581scars", "8417": "\u2581senis", "8418": "\u2581shine", "8419": "\u2581shock", "8420": "\u2581shunn", "8421": "\u2581slide", "8422": "\u2581smelt", "8423": "\u2581sober", "8424": "\u2581songs", "8425": "\u2581space", "8426": "\u2581spear", "8427": "\u2581spell", "8428": "\u2581spurn", "8429": "\u2581stage", "8430": "\u2581start", "8431": "\u2581stole", "8432": "\u2581strat", "8433": "\u2581stray", "8434": "\u2581strip", "8435": "\u2581stuck", "8436": "\u2581suret", "8437": "\u2581surly", "8438": "\u2581swine", "8439": "\u2581tales", "8440": "\u2581threw", "8441": "\u2581tides", "8442": "\u2581tunes", "8443": "\u2581unacc", "8444": "\u2581unfit", "8445": "\u2581unity", "8446": "\u2581unman", "8447": "\u2581unpre", "8448": "\u2581upper", "8449": "\u2581usage", "8450": "\u2581verge", "8451": "\u2581vices", "8452": "\u2581visor", "8453": "\u2581wagon", "8454": "\u2581walks", "8455": "\u2581whate", "8456": "aration", "8457": "bastian", "8458": "cession", "8459": "erwhelm", "8460": "forward", "8461": "igation", "8462": "liction", "8463": "minster", "8464": "reefold", "8465": "resseth", "8466": "seeming", "8467": "\u2581Amazon", "8468": "\u2581Assist", "8469": "\u2581Awaked", "8470": "\u2581Banish", "8471": "\u2581Become", "8472": "\u2581Castle", "8473": "\u2581Church", "8474": "\u2581Cobham", "8475": "\u2581Crosby", "8476": "\u2581Europe", "8477": "\u2581Except", "8478": "\u2581Fellow", "8479": "\u2581Forget", "8480": "\u2581Hallow", "8481": "\u2581Honest", "8482": "\u2581Julius", "8483": "\u2581Lammas", "8484": "\u2581Little", "8485": "\u2581Ludlow", "8486": "\u2581Merely", "8487": "\u2581Philip", "8488": "\u2581Plashy", "8489": "\u2581Player", "8490": "\u2581Prodig", "8491": "\u2581Redeem", "8492": "\u2581Repair", "8493": "\u2581Rescue", "8494": "\u2581Russia", "8495": "\u2581Sorrow", "8496": "\u2581Throng", "8497": "\u2581Tongue", "8498": "\u2581Valent", "8499": "\u2581Whence", "8500": "\u2581Withal", "8501": "\u2581Yonder", "8502": "\u2581abuses", "8503": "\u2581acting", "8504": "\u2581adulte", "8505": "\u2581ambush", "8506": "\u2581argosy", "8507": "\u2581ascend", "8508": "\u2581attach", "8509": "\u2581avouch", "8510": "\u2581bauble", "8511": "\u2581became", "8512": "\u2581beetle", "8513": "\u2581bewray", "8514": "\u2581births", "8515": "\u2581biting", "8516": "\u2581blasts", "8517": "\u2581blocks", "8518": "\u2581bonnet", "8519": "\u2581brazen", "8520": "\u2581broils", "8521": "\u2581buckle", "8522": "\u2581burial", "8523": "\u2581busied", "8524": "\u2581bustle", "8525": "\u2581candle", "8526": "\u2581cannib", "8527": "\u2581chafed", "8528": "\u2581charms", "8529": "\u2581cheers", "8530": "\u2581chides", "8531": "\u2581clergy", "8532": "\u2581clothe", "8533": "\u2581coffin", "8534": "\u2581colder", "8535": "\u2581commit", "8536": "\u2581conver", "8537": "\u2581courts", "8538": "\u2581crimes", "8539": "\u2581crutch", "8540": "\u2581dainty", "8541": "\u2581dances", "8542": "\u2581daring", "8543": "\u2581darkly", "8544": "\u2581decree", "8545": "\u2581digest", "8546": "\u2581dishes", "8547": "\u2581divers", "8548": "\u2581divide", "8549": "\u2581doings", "8550": "\u2581drinks", "8551": "\u2581driven", "8552": "\u2581drowsy", "8553": "\u2581ducats", "8554": "\u2581eating", "8555": "\u2581elders", "8556": "\u2581encomp", "8557": "\u2581enjoin", "8558": "\u2581enjoys", "8559": "\u2581enters", "8560": "\u2581execut", "8561": "\u2581expost", "8562": "\u2581fabric", "8563": "\u2581fathom", "8564": "\u2581feeble", "8565": "\u2581fester", "8566": "\u2581fickle", "8567": "\u2581fiends", "8568": "\u2581filthy", "8569": "\u2581fitter", "8570": "\u2581flayed", "8571": "\u2581fliers", "8572": "\u2581flinty", "8573": "\u2581floods", "8574": "\u2581fourth", "8575": "\u2581fruits", "8576": "\u2581future", "8577": "\u2581garlic", "8578": "\u2581gentry", "8579": "\u2581ginger", "8580": "\u2581gotten", "8581": "\u2581gratis", "8582": "\u2581greets", "8583": "\u2581handle", "8584": "\u2581happen", "8585": "\u2581harder", "8586": "\u2581hearth", "8587": "\u2581hounds", "8588": "\u2581hourly", "8589": "\u2581humane", "8590": "\u2581impose", "8591": "\u2581infamy", "8592": "\u2581issues", "8593": "\u2581jewels", "8594": "\u2581justly", "8595": "\u2581kennel", "8596": "\u2581kitche", "8597": "\u2581leader", "8598": "\u2581lesson", "8599": "\u2581levied", "8600": "\u2581lineal", "8601": "\u2581lively", "8602": "\u2581mantle", "8603": "\u2581mathem", "8604": "\u2581melted", "8605": "\u2581mirror", "8606": "\u2581morsel", "8607": "\u2581nearer", "8608": "\u2581nerves", "8609": "\u2581nettle", "8610": "\u2581ordain", "8611": "\u2581parcel", "8612": "\u2581passes", "8613": "\u2581penury", "8614": "\u2581period", "8615": "\u2581placed", "8616": "\u2581planet", "8617": "\u2581porter", "8618": "\u2581potion", "8619": "\u2581powder", "8620": "\u2581presum", "8621": "\u2581pricks", "8622": "\u2581proofs", "8623": "\u2581prover", "8624": "\u2581purged", "8625": "\u2581purses", "8626": "\u2581quarre", "8627": "\u2581rabble", "8628": "\u2581rarest", "8629": "\u2581refuge", "8630": "\u2581region", "8631": "\u2581rehear", "8632": "\u2581relish", "8633": "\u2581remiss", "8634": "\u2581remote", "8635": "\u2581repaid", "8636": "\u2581revell", "8637": "\u2581revers", "8638": "\u2581revive", "8639": "\u2581rigour", "8640": "\u2581rogues", "8641": "\u2581rumour", "8642": "\u2581saddle", "8643": "\u2581salute", "8644": "\u2581scouts", "8645": "\u2581seemed", "8646": "\u2581shamed", "8647": "\u2581sheets", "8648": "\u2581shores", "8649": "\u2581shouts", "8650": "\u2581sickly", "8651": "\u2581smiled", "8652": "\u2581soften", "8653": "\u2581softly", "8654": "\u2581solace", "8655": "\u2581spoils", "8656": "\u2581starts", "8657": "\u2581strain", "8658": "\u2581strang", "8659": "\u2581streak", "8660": "\u2581stride", "8661": "\u2581string", "8662": "\u2581subdue", "8663": "\u2581suborn", "8664": "\u2581summon", "8665": "\u2581supple", "8666": "\u2581survey", "8667": "\u2581talked", "8668": "\u2581tatter", "8669": "\u2581tellus", "8670": "\u2581thorny", "8671": "\u2581thrift", "8672": "\u2581throng", "8673": "\u2581tinker", "8674": "\u2581titles", "8675": "\u2581traged", "8676": "\u2581tragic", "8677": "\u2581treaty", "8678": "\u2581treble", "8679": "\u2581trudge", "8680": "\u2581tumult", "8681": "\u2581turtle", "8682": "\u2581uneven", "8683": "\u2581unwill", "8684": "\u2581urging", "8685": "\u2581usurer", "8686": "\u2581vanish", "8687": "\u2581verity", "8688": "\u2581vigour", "8689": "\u2581violet", "8690": "\u2581waning", "8691": "\u2581wasted", "8692": "\u2581welkin", "8693": "\u2581wheels", "8694": "\u2581wheres", "8695": "\u2581wildly", "8696": "\u2581wishes", "8697": "\u2581wooers", "8698": "\u2581yellow", "8699": "asonable", "8700": "changing", "8701": "cription", "8702": "peration", "8703": "ratitude", "8704": "\u2581Bearing", "8705": "\u2581Brandon", "8706": "\u2581Breathe", "8707": "\u2581Bristol", "8708": "\u2581Brought", "8709": "\u2581Delphos", "8710": "\u2581Destroy", "8711": "\u2581Dighton", "8712": "\u2581Enforce", "8713": "\u2581Forgive", "8714": "\u2581Forrest", "8715": "\u2581Happily", "8716": "\u2581Heavens", "8717": "\u2581Hostess", "8718": "\u2581Imagine", "8719": "\u2581Mariner", "8720": "\u2581Meaning", "8721": "\u2581Mercury", "8722": "\u2581Princes", "8723": "\u2581Seeking", "8724": "\u2581Setting", "8725": "\u2581Showing", "8726": "\u2581Silence", "8727": "\u2581Tarquin", "8728": "\u2581Thither", "8729": "\u2581Ulysses", "8730": "\u2581Valeria", "8731": "\u2581Witness", "8732": "\u2581Wouldst", "8733": "\u2581ability", "8734": "\u2581amended", "8735": "\u2581anguish", "8736": "\u2581arrival", "8737": "\u2581article", "8738": "\u2581ballads", "8739": "\u2581bargain", "8740": "\u2581bashful", "8741": "\u2581battery", "8742": "\u2581beggary", "8743": "\u2581begging", "8744": "\u2581belongs", "8745": "\u2581beshrew", "8746": "\u2581besiege", "8747": "\u2581bewitch", "8748": "\u2581bondage", "8749": "\u2581breaths", "8750": "\u2581briefly", "8751": "\u2581brittle", "8752": "\u2581buzzard", "8753": "\u2581calling", "8754": "\u2581capable", "8755": "\u2581carrion", "8756": "\u2581clouded", "8757": "\u2581coffers", "8758": "\u2581compell", "8759": "\u2581consort", "8760": "\u2581consuls", "8761": "\u2581consume", "8762": "\u2581control", "8763": "\u2581convent", "8764": "\u2581convers", "8765": "\u2581corners", "8766": "\u2581courses", "8767": "\u2581crowned", "8768": "\u2581cushion", "8769": "\u2581dastard", "8770": "\u2581dealing", "8771": "\u2581decrees", "8772": "\u2581derived", "8773": "\u2581deserts", "8774": "\u2581desired", "8775": "\u2581discipl", "8776": "\u2581discred", "8777": "\u2581dislike", "8778": "\u2581distrib", "8779": "\u2581doleful", "8780": "\u2581doublet", "8781": "\u2581doubted", "8782": "\u2581duteous", "8783": "\u2581effects", "8784": "\u2581engross", "8785": "\u2581evident", "8786": "\u2581fairies", "8787": "\u2581fitting", "8788": "\u2581foaming", "8789": "\u2581fooling", "8790": "\u2581footing", "8791": "\u2581forerun", "8792": "\u2581forlorn", "8793": "\u2581forsook", "8794": "\u2581fresher", "8795": "\u2581gainsay", "8796": "\u2581glister", "8797": "\u2581goodman", "8798": "\u2581gossips", "8799": "\u2581greatly", "8800": "\u2581hatches", "8801": "\u2581heavily", "8802": "\u2581helmets", "8803": "\u2581helping", "8804": "\u2581highest", "8805": "\u2581hostess", "8806": "\u2581incense", "8807": "\u2581infancy", "8808": "\u2581inhabit", "8809": "\u2581injured", "8810": "\u2581instead", "8811": "\u2581intends", "8812": "\u2581justify", "8813": "\u2581keeping", "8814": "\u2581kissing", "8815": "\u2581knavery", "8816": "\u2581longing", "8817": "\u2581lurking", "8818": "\u2581mangled", "8819": "\u2581mankind", "8820": "\u2581message", "8821": "\u2581mistook", "8822": "\u2581nearest", "8823": "\u2581nightly", "8824": "\u2581ominous", "8825": "\u2581opening", "8826": "\u2581opposed", "8827": "\u2581orchard", "8828": "\u2581orderly", "8829": "\u2581orphans", "8830": "\u2581painful", "8831": "\u2581parlous", "8832": "\u2581partake", "8833": "\u2581partial", "8834": "\u2581peasant", "8835": "\u2581perused", "8836": "\u2581plotted", "8837": "\u2581plucked", "8838": "\u2581poorest", "8839": "\u2581portion", "8840": "\u2581praised", "8841": "\u2581precise", "8842": "\u2581presses", "8843": "\u2581prodigy", "8844": "\u2581produce", "8845": "\u2581proffer", "8846": "\u2581pursues", "8847": "\u2581qualify", "8848": "\u2581quality", "8849": "\u2581quicken", "8850": "\u2581receipt", "8851": "\u2581recount", "8852": "\u2581regreet", "8853": "\u2581release", "8854": "\u2581relieve", "8855": "\u2581requite", "8856": "\u2581resteth", "8857": "\u2581returns", "8858": "\u2581rightly", "8859": "\u2581robbers", "8860": "\u2581royally", "8861": "\u2581sailors", "8862": "\u2581scourge", "8863": "\u2581seeking", "8864": "\u2581seemeth", "8865": "\u2581sending", "8866": "\u2581serving", "8867": "\u2581session", "8868": "\u2581shorten", "8869": "\u2581slender", "8870": "\u2581smoking", "8871": "\u2581soonest", "8872": "\u2581spotted", "8873": "\u2581sprites", "8874": "\u2581stabbed", "8875": "\u2581stripes", "8876": "\u2581studied", "8877": "\u2581studies", "8878": "\u2581subdued", "8879": "\u2581suburbs", "8880": "\u2581sulphur", "8881": "\u2581summers", "8882": "\u2581surname", "8883": "\u2581sweeten", "8884": "\u2581swifter", "8885": "\u2581swiftly", "8886": "\u2581teeming", "8887": "\u2581tending", "8888": "\u2581thirsty", "8889": "\u2581torches", "8890": "\u2581traffic", "8891": "\u2581turning", "8892": "\u2581univers", "8893": "\u2581unusual", "8894": "\u2581violate", "8895": "\u2581waiting", "8896": "\u2581wealthy", "8897": "\u2581wearing", "8898": "\u2581whipped", "8899": "\u2581winding", "8900": "\u2581wishing", "8901": "ascivious", "8902": "beseeming", "8903": "pretation", "8904": "\u2581Abhorson", "8905": "\u2581Accursed", "8906": "\u2581Acquaint", "8907": "\u2581Carlisle", "8908": "\u2581Chertsey", "8909": "\u2581Children", "8910": "\u2581FRANCISC", "8911": "\u2581Persuade", "8912": "\u2581Ragozine", "8913": "\u2581Renowned", "8914": "\u2581Senators", "8915": "\u2581Stafford", "8916": "\u2581Standing", "8917": "\u2581Thinking", "8918": "\u2581Together", "8919": "\u2581Yourself", "8920": "\u2581abundant", "8921": "\u2581affected", "8922": "\u2581ambassad", "8923": "\u2581applause", "8924": "\u2581argument", "8925": "\u2581articles", "8926": "\u2581aspiring", "8927": "\u2581assembly", "8928": "\u2581bastardy", "8929": "\u2581beauties", "8930": "\u2581beggarly", "8931": "\u2581beguiled", "8932": "\u2581brethren", "8933": "\u2581bringing", "8934": "\u2581butchers", "8935": "\u2581censured", "8936": "\u2581ceremony", "8937": "\u2581champion", "8938": "\u2581charters", "8939": "\u2581cheerful", "8940": "\u2581chivalry", "8941": "\u2581complete", "8942": "\u2581confined", "8943": "\u2581creation", "8944": "\u2581creeping", "8945": "\u2581criminal", "8946": "\u2581crutches", "8947": "\u2581daylight", "8948": "\u2581deceased", "8949": "\u2581delivery", "8950": "\u2581detested", "8951": "\u2581differen", "8952": "\u2581directly", "8953": "\u2581discreet", "8954": "\u2581diseases", "8955": "\u2581disguise", "8956": "\u2581disloyal", "8957": "\u2581disperse", "8958": "\u2581disposed", "8959": "\u2581drooping", "8960": "\u2581drowning", "8961": "\u2581dwelling", "8962": "\u2581election", "8963": "\u2581elements", "8964": "\u2581embraces", "8965": "\u2581enfranch", "8966": "\u2581entering", "8967": "\u2581exclaims", "8968": "\u2581external", "8969": "\u2581factious", "8970": "\u2581fashions", "8971": "\u2581fearless", "8972": "\u2581feasting", "8973": "\u2581foretell", "8974": "\u2581freshest", "8975": "\u2581fretting", "8976": "\u2581frowning", "8977": "\u2581handsome", "8978": "\u2581homicide", "8979": "\u2581hopeless", "8980": "\u2581horrible", "8981": "\u2581infinite", "8982": "\u2581infringe", "8983": "\u2581instance", "8984": "\u2581interest", "8985": "\u2581jointure", "8986": "\u2581laboured", "8987": "\u2581laughter", "8988": "\u2581leanness", "8989": "\u2581manacles", "8990": "\u2581marquess", "8991": "\u2581marrying", "8992": "\u2581mightily", "8993": "\u2581molehill", "8994": "\u2581mutinies", "8995": "\u2581nineteen", "8996": "\u2581obdurate", "8997": "\u2581oblivion", "8998": "\u2581obscured", "8999": "\u2581ordering", "9000": "\u2581painting", "9001": "\u2581paradise", "9002": "\u2581parasite", "9003": "\u2581pleaseth", "9004": "\u2581posterns", "9005": "\u2581pregnant", "9006": "\u2581prevails", "9007": "\u2581prodigal", "9008": "\u2581profound", "9009": "\u2581purposes", "9010": "\u2581reckless", "9011": "\u2581relation", "9012": "\u2581reprieve", "9013": "\u2581requital", "9014": "\u2581reserved", "9015": "\u2581resisted", "9016": "\u2581respects", "9017": "\u2581restrain", "9018": "\u2581rosemary", "9019": "\u2581security", "9020": "\u2581severity", "9021": "\u2581slanders", "9022": "\u2581somebody", "9023": "\u2581speeches", "9024": "\u2581speedily", "9025": "\u2581stealing", "9026": "\u2581steterat", "9027": "\u2581stinking", "9028": "\u2581stubborn", "9029": "\u2581stumbled", "9030": "\u2581swearing", "9031": "\u2581thorough", "9032": "\u2581timorous", "9033": "\u2581torments", "9034": "\u2581toucheth", "9035": "\u2581trencher", "9036": "\u2581trenches", "9037": "\u2581tumbling", "9038": "\u2581unawares", "9039": "\u2581ungentle", "9040": "\u2581unjustly", "9041": "\u2581unrevere", "9042": "\u2581unthrift", "9043": "\u2581vexation", "9044": "\u2581visiting", "9045": "\u2581warrants", "9046": "\u2581watchful", "9047": "\u2581womanish", "9048": "\u2581worships", "9049": "\u2581worthier", "9050": "estershire", "9051": "\u2581Condition", "9052": "\u2581Fitzwater", "9053": "\u2581Forthwith", "9054": "\u2581Hallowmas", "9055": "\u2581Jerusalem", "9056": "\u2581Nathaniel", "9057": "\u2581Perchance", "9058": "\u2581Persuades", "9059": "\u2581SALISBURY", "9060": "\u2581Sebastian", "9061": "\u2581abundance", "9062": "\u2581accompany", "9063": "\u2581agreement", "9064": "\u2581ancestors", "9065": "\u2581appellant", "9066": "\u2581arguments", "9067": "\u2581attorneys", "9068": "\u2581beautiful", "9069": "\u2581beginning", "9070": "\u2581butterfly", "9071": "\u2581certainly", "9072": "\u2581clamorous", "9073": "\u2581commodity", "9074": "\u2581complices", "9075": "\u2581consented", "9076": "\u2581conserves", "9077": "\u2581continued", "9078": "\u2581customary", "9079": "\u2581deformity", "9080": "\u2581diligence", "9081": "\u2581discovery", "9082": "\u2581distemper", "9083": "\u2581doubtless", "9084": "\u2581eloquence", "9085": "\u2581emulation", "9086": "\u2581encourage", "9087": "\u2581entreated", "9088": "\u2581expressly", "9089": "\u2581fantastic", "9090": "\u2581fortnight", "9091": "\u2581fortunate", "9092": "\u2581heaviness", "9093": "\u2581incapable", "9094": "\u2581infirmity", "9095": "\u2581innocency", "9096": "\u2581innocents", "9097": "\u2581insinuate", "9098": "\u2581intercept", "9099": "\u2581invention", "9100": "\u2581lengthens", "9101": "\u2581liberties", "9102": "\u2581malicious", "9103": "\u2581malignant", "9104": "\u2581minstrels", "9105": "\u2581momentary", "9106": "\u2581moveables", "9107": "\u2581murdering", "9108": "\u2581obsequies", "9109": "\u2581offenders", "9110": "\u2581ordinance", "9111": "\u2581overheard", "9112": "\u2581overthrow", "9113": "\u2581patiently", "9114": "\u2581perchance", "9115": "\u2581persuaded", "9116": "\u2581petitions", "9117": "\u2581pleasures", "9118": "\u2581privately", "9119": "\u2581qualities", "9120": "\u2581residence", "9121": "\u2581sacrifice", "9122": "\u2581separated", "9123": "\u2581shameless", "9124": "\u2581shepherds", "9125": "\u2581signories", "9126": "\u2581sparkling", "9127": "\u2581spectacle", "9128": "\u2581strangely", "9129": "\u2581subscribe", "9130": "\u2581suppliant", "9131": "\u2581surprised", "9132": "\u2581temperate", "9133": "\u2581threefold", "9134": "\u2581threshold", "9135": "\u2581throughly", "9136": "\u2581transport", "9137": "\u2581unavoided", "9138": "\u2581uncertain", "9139": "\u2581unluckily", "9140": "\u2581villanous", "9141": "\u2581whereupon", "9142": "\u2581wondering", "9143": "\u2581worthiest", "9144": "\u2581Englishman", "9145": "\u2581Montgomery", "9146": "\u2581Pursuivant", "9147": "\u2581Willoughby", "9148": "\u2581accomplish", "9149": "\u2581adulteress", "9150": "\u2581affliction", "9151": "\u2581afterwards", "9152": "\u2581alteration", "9153": "\u2581apothecary", "9154": "\u2581approaches", "9155": "\u2581changeling", "9156": "\u2581charitable", "9157": "\u2581companions", "9158": "\u2581complaints", "9159": "\u2581conspiracy", "9160": "\u2581countryman", "9161": "\u2581degenerate", "9162": "\u2581detestable", "9163": "\u2581discretion", "9164": "\u2581disinherit", "9165": "\u2581displeased", "9166": "\u2581distinctly", "9167": "\u2581effeminate", "9168": "\u2581enterprise", "9169": "\u2581especially", "9170": "\u2581favourable", "9171": "\u2581forefather", "9172": "\u2581imposition", "9173": "\u2581ingrateful", "9174": "\u2581inveterate", "9175": "\u2581lineaments", "9176": "\u2581magistrate", "9177": "\u2581maidenhead", "9178": "\u2581manifested", "9179": "\u2581meditation", "9180": "\u2581physicians", "9181": "\u2581proceeding", "9182": "\u2581profession", "9183": "\u2581prophecies", "9184": "\u2581punishment", "9185": "\u2581reasonable", "9186": "\u2581reconciled", "9187": "\u2581remembered", "9188": "\u2581spectators", "9189": "\u2581speechless", "9190": "\u2581stratagems", "9191": "\u2581strengthen", "9192": "\u2581submission", "9193": "\u2581temperance", "9194": "\u2581tongueless", "9195": "\u2581unaccustom", "9196": "\u2581unpleasing", "9197": "\u2581unprovided", "9198": "\u2581victorious", "9199": "\u2581worshipful", "9200": "\u2581wrongfully", "9201": "\u2581Christendom", "9202": "\u2581Westminster", "9203": "\u2581accusations", "9204": "\u2581advancement", "9205": "\u2581authorities", "9206": "\u2581commandment", "9207": "\u2581complexions", "9208": "\u2581confederate", "9209": "\u2581considering", "9210": "\u2581countermand", "9211": "\u2581deliverance", "9212": "\u2581desperately", "9213": "\u2581dissembling", "9214": "\u2581distinguish", "9215": "\u2581enforcement", "9216": "\u2581everlasting", "9217": "\u2581fantastical", "9218": "\u2581fornication", "9219": "\u2581immediately", "9220": "\u2581inheritance", "9221": "\u2581mathematics", "9222": "\u2581necessities", "9223": "\u2581preparation", "9224": "\u2581resemblance", "9225": "\u2581yesternight", "9226": "\u2581acquaintance", "9227": "\u2581disinherited", "9228": "\u2581embracements", "9229": "\u2581instructions", "9230": "\u2581intercession", "9231": "\u2581lamentations", "9232": "\u2581peradventure", "9233": "\u2581preposterous", "9234": "\u2581wretchedness", "9235": "An", "9236": "LL", "9237": "How", "9238": "Rem", "9239": "Sic", "9240": "VEL", "9241": "Yea", "9242": "chb", "9243": "dex", "9244": "eaf", "9245": "emp", "9246": "fig", "9247": "hic", "9248": "hod", "9249": "how", "9250": "ics", "9251": "ids", "9252": "igs", "9253": "imy", "9254": "lix", "9255": "ogy", "9256": "omy", "9257": "onz", "9258": "pit", "9259": "rip", "9260": "uel", "9261": "uft", "9262": "vex", "9263": "zes", "9264": "\u2581--", "9265": "\u2581CH", "9266": "\u2581Di", "9267": "\u2581Es", "9268": "AUGH", "9269": "ITUS", "9270": "OVEL", "9271": "Stay", "9272": "Than", "9273": "Thus", "9274": "anda", "9275": "auph", "9276": "avel", "9277": "beat", "9278": "bion", "9279": "bout", "9280": "boys", "9281": "butt", "9282": "comb", "9283": "cote", "9284": "crow", "9285": "disp", "9286": "dyed", "9287": "edic", "9288": "eing", "9289": "erry", "9290": "erth", "9291": "fast", "9292": "flow", "9293": "fond", "9294": "gars", "9295": "gger", "9296": "hank", "9297": "heth", "9298": "ibya", "9299": "ifle", "9300": "imer", "9301": "isit", "9302": "izes", "9303": "lant", "9304": "lars", "9305": "lymp", "9306": "merc", "9307": "much", "9308": "ii", "9309": "EAS", "9310": "add", "9311": "eys", "9312": "haw", "9313": "ifs", "9314": "tri", "9315": "why", "9316": "\u2581Bu", "9317": "\u2581Sk", "9318": "aned", "9319": "atal", "9320": "ists", "9321": "itic", "9322": "lies", "9323": "nant", "9324": "nard", "9325": "nity", "9326": "opsa", "9327": "orks", "9328": "orts", "9329": "pocr", "9330": "pper", "9331": "quer", "9332": "ques", "9333": "ride", "9334": "rine", "9335": "rius", "9336": "shot", "9337": "tern", "9338": "thou", "9339": "tico", "9340": "tino", "9341": "viol", "9342": "west", "9343": "wind", "9344": "\u2581ALL", "9345": "\u2581Arg", "9346": "\u2581Ask", "9347": "\u2581Aut", "9348": "\u2581Bar", "9349": "\u2581Day", "9350": "\u2581Dra", "9351": "\u2581Dry", "9352": "\u2581Fam", "9353": "\u2581Gro", "9354": "\u2581Imm", "9355": "\u2581Ing", "9356": "\u2581Inj", "9357": "\u2581Joy", "9358": "\u2581Lim", "9359": "\u2581Mir", "9360": "\u2581Nea", "9361": "\u2581Sea", "9362": "\u2581Thi", "9363": "\u2581alt", "9364": "\u2581cel", "9365": "\u2581coc", "9366": "\u2581cod", "9367": "\u2581coy", "9368": "\u2581fay", "9369": "\u2581fel", "9370": "\u2581fis", "9371": "\u2581gas", "9372": "\u2581gun", "9373": "\u2581ker", "9374": "\u2581lic",
[...]
