{"<pad>": 0, "<unk>": 1, "<s>": 2, "</s>": 3, "[PAD]": 4, "[UNK]": 5, "[CLS]": 6, "[SEP]": 7, "\u2581t": 8, "he": 9, "\u2581a": 10, "ou": 11, "\u2581s": 12, "\u2581m": 13, "\u2581w": 14, "in": 15, "re": 16, "ha": 17, "\u2581the": 18, "nd": 19, "\u2581b": 20, "is": 21, "or": 22, "\u2581f": 23, "\u2581I": 24, "er": 25, "ll": 26, "it": 27, "on": 28, "\u2581d": 29, "\u2581c": 30, "\u2581n": 31, "\u2581l": 32, "\u2581y": 33, "es": 34, "en": 35, "\u2581th": 36, "ar": 37, "\u2581h": 38, "\u2581o": 39, "\u2581to": 40, "\u2581you": 41, "\u2581p": 42, "\u2581T": 43, "hat": 44, "\u2581A": 45, "\u2581he": 46, "st": 47, "ve": 48, "ot": 49, "\u2581and": 50, "ow": 51, "ing": 52, "\u2581of": 53, "an": 54, "om": 55, "\u2581g": 56, "at": 57, "\u2581be": 58, "\u2581W": 59, "se": 60, "\u2581my": 61, "\u2581in": 62, "\u2581ha": 63, "ce": 64, "le": 65, "ay": 66, "ld": 67, "ir": 68, "et": 69, "ed": 70, "ut": 71, "\u2581B": 72, "\u2581me": 73, "im": 74, "\u2581S": 75, "ith": 76, "\u2581not": 77, "\u2581H": 78, "ch": 79, "\u2581that": 80, "\u2581is": 81, "\u2581M": 82, "gh": 83, "\u2581And": 84, "\u2581for": 85, "\u2581u": 86, "ke": 87, "\u2581C": 88, "\u2581we": 89, "our": 90, "oo": 91, "ill": 92, "\u2581e": 93, "\u2581with": 94, "her": 95, "\u2581it": 96, "ent": 97, "\u2581your": 98, "ad": 99, "ri": 100, "\u2581O": 101, "\u2581thou": 102, "\u2581st": 103, "\u2581k": 104, "\u2581L": 105, "ome": 106, "\u2581his": 107, "\u2581F": 108, "\u2581G": 109, "ght": 110, "EN": 111, "ord": 112, "\u2581re": 113, "id": 114, "ra": 115, "\u2581The": 116, "\u2581have": 117, "\u2581him": 118, "IN": 119, "ly": 120, "\u2581li": 121, "as": 122, "\u2581P": 123, "\u2581this": 124, "ur": 125, "IO": 126, "al": 127, "\u2581so": 128, "\u2581as": 129, "\u2581de": 130, "\u2581on": 131, "\u2581R": 132, "ore": 133, "ro": 134, "\u2581N": 135, "hi": 136, "ould": 137, "ood": 138, "AR": 139, "ck": 140, "ain": 141, "ver": 142, "\u2581Y": 143, "est": 144, "\u2581sha": 145, "\u2581thy": 146, "ess": 147, "\u2581will": 148, "\u2581do": 149, "ea": 150, "\u2581no": 151, "am": 152, "\u2581E": 153, "\u2581but": 154, "\u2581D": 155, "us": 156, "\u2581se": 157, "US": 158, "if": 159, "\u2581'": 160, "ge": 161, "\u2581all": 162, "and": 163, "\u2581Th": 164, "\u2581su": 165, "ake": 166, "\u2581To": 167, "\u2581her": 168, "ru": 169, "ion": 170, "\u2581an": 171, "\u2581K": 172, "\u2581lo": 173, "ard": 174, "ter": 175, "han": 176, "\u2581sp": 177, "ell": 178, "ear": 179, "\u2581thee": 180, "\u2581fa": 181, "\u2581shall": 182, "\u2581our": 183, "\u2581by": 184, "th": 185, "UC": 186, "\u2581are": 187, "il": 188, "ING": 189, "\u2581ne": 190, "\u2581kn": 191, "rom": 192, "ho": 193, "\u2581v": 194, "\u2581That": 195, "ER": 196, "OR": 197, "ast": 198, "ct": 199, "ous": 200, "\u2581what": 201, "\u2581sh": 202, "ight": 203, "ul": 204, "ET": 205, "ant": 206, "\u2581up": 207, "sel": 208, "\u2581good": 209, "qu": 210, "\u2581But": 211, "art": 212, "row": 213, "ath": 214, "ine": 215, "\u2581com": 216, "\u2581mu": 217, "\u2581lord": 218, "hich": 219, "nt": 220, "\u2581pr": 221, "\u2581man": 222, "\u2581at": 223, "\u2581V": 224, "one": 225, "\u2581whe": 226, "\u2581con": 227, "\u2581What": 228, "\u2581am": 229, "end": 230, "ic": 231, "ES": 232, "ble": 233, "ry": 234, "ong": 235, "\u2581from": 236, "ie": 237, "\u2581she": 238, "\u2581bl": 239, "ive": 240, "ven": 241, "\u2581go": 242, "\u2581For": 243, "\u2581more": 244, "\u2581them": 245, "em": 246, "\u2581was": 247, "IC": 248, "out": 249, "au": 250, "\u2581sir": 251, "other": 252, "are": 253, "oth": 254, "ol": 255, "\u2581if": 256, "\u2581He": 257, "\u2581now": 258, "\u2581hat": 259, "\u2581there": 260, "\u2581would": 261, "AN": 262, "ost": 263, "\u2581know": 264, "\u2581can": 265, "LO": 266, "ind": 267, "ers": 268, "IUS": 269, "ep": 270, "self": 271, "ARD": 272, "\u2581say": 273, "\u2581KING": 274, "ather": 275, "ond": 276, "ate": 277, "res": 278, "fe": 279, "\u2581sw": 280, "\u2581here": 281, "\u2581love": 282, "\u2581their": 283, "\u2581My": 284, "\u2581or": 285, "\u2581than": 286, "\u2581br": 287, "pp": 288, "--": 289, "\u2581us": 290, "\u2581king": 291, "\u2581they": 292, "\u2581then": 293, "all": 294, "\u2581ar": 295, "od": 296, "\u2581let": 297, "\u2581un": 298, "ig": 299, "\u2581wor": 300, "ure": 301, "ink": 302, "\u2581may": 303, "hy": 304, "ame": 305, "\u2581come": 306, "fore": 307, "ort": 308, "\u2581As": 309, "\u2581qu": 310, "ook": 311, "\u2581well": 312, "el": 313, "ish": 314, "LI": 315, "\u2581Whe": 316, "\u2581j": 317, "KE": 318, "ves": 319, "\u2581one": 320, "\u2581hath": 321, "irst": 322, "\u2581make": 323, "\u2581You": 324, "\u2581gra": 325, "reat": 326, "ak": 327, "ng": 328, "\u2581must": 329, "gain": 330, "ound": 331, "\u2581were": 332, "\u2581ho": 333, "\u2581see": 334, "\u2581should": 335, "\u2581like": 336, "ci": 337, "\u2581pro": 338, "ue": 339, "eak": 340, "TIO": 341, "\u2581sa": 342, "ity": 343, "\u2581pl": 344, "\u2581mad": 345, "\u2581father": 346, "\u2581had": 347, "um": 348, "\u2581did": 349, "\u2581upon": 350, "OM": 351, "ime": 352, "pe": 353, "\u2581too": 354, "ice": 355, "ON": 356, "\u2581J": 357, "\u2581dis": 358, "ence": 359, "\u2581death": 360, "ward": 361, "\u2581which": 362, "\u2581en": 363, "\u2581If": 364, "ose": 365, "own": 366, "\u2581speak": 367, "\u2581po": 368, "\u2581when": 369, "ful": 370, "\u2581out": 371, "\u2581fri": 372, "\u2581how": 373, "entle": 374, "io": 375, "pt": 376, "un": 377, "ICH": 378, "\u2581again": 379, "\u2581RICH": 380, "\u2581tru": 381, "OL": 382, "de": 383, "UKE": 384, "\u2581DUKE": 385, "man": 386, "\u2581heart": 387, "\u2581yet": 388, "ick": 389, "\u2581hand": 390, "very": 391, "\u2581With": 392, "\u2581RICHARD": 393, "\u2581who": 394, "ENTIO": 395, "\u2581Thou": 396, "ign": 397, "\u2581We": 398, "\u2581some": 399, "ance": 400, "\u2581Which": 401, "\u2581hon": 402, "\u2581mar": 403, "nce": 404, "\u2581r": 405, "ies": 406, "\u2581In": 407, "\u2581son": 408, "ire": 409, "\u2581off": 410, "\u2581mine": 411, "ist": 412, "INC": 413, "\u2581al": 414, "ince": 415, "har": 416, "orn": 417, "ack": 418, "\u2581Why": 419, "wn": 420, "\u2581Of": 421, "\u2581God": 422, "EL": 423, "\u2581hea": 424, "\u2581such": 425, "\u2581time": 426, "oy": 427, "\u2581First": 428, "\u2581hear": 429, "\u2581So": 430, "ness": 431, "\u2581brother": 432, "ec": 433, "\u2581these": 434, "\u2581Cl": 435, "\u2581blood": 436, "\u2581ab": 437, "\u2581ex": 438, "ither": 439, "\u2581give": 440, "UE": 441, "\u2581fo": 442, "\u2581Is": 443, "\u2581No": 444, "\u2581day": 445, "\u2581ear": 446, "\u2581ro": 447, "\u2581look": 448, "\u2581think": 449, "\u2581II": 450, "\u2581How": 451, "\u2581life": 452, "\u2581tell": 453, "EST": 454, "ise": 455, "\u2581ey": 456, "AB": 457, "eet": 458, "\u2581where": 459, "UCH": 460, "\u2581take": 461, "\u2581word": 462, "oul": 463, "\u2581friend": 464, "\u2581Q": 465, "ther": 466, "\u2581This": 467, "ag": 468, "age": 469, "LOUC": 470, "\u2581des": 471, "ESTER": 472, "\u2581GLOUC": 473, "\u2581GLOUCESTER": 474, "ef": 475, "een": 476, "erv": 477, "\u2581Come": 478, "ady": 479, "ust": 480, "rown": 481, "\u2581gentle": 482, "ings": 483, "\u2581Lord": 484, "\u2581U": 485, "\u2581ri": 486, "urse": 487, "ave": 488, "RY": 489, "ase": 490, "\u2581Rome": 491, "tis": 492, "UEEN": 493, "\u2581art": 494, "\u2581lea": 495, "\u2581VINC": 496, "\u2581QUEEN": 497, "\u2581VINCENTIO": 498, "way": 499, "\u2581OF": 500, "\u2581war": 501, "\u2581most": 502, "\u2581honour": 503, "\u2581fl": 504, "\u2581Mar": 505, "\u2581much": 506, "UM": 507, "LAN": 508, "\u2581sl": 509, "\u2581Where": 510, "AM": 511, "urn": 512, "\u2581made": 513, "\u2581tw": 514, "ment": 515, "\u2581fear": 516, "\u2581hast": 517, "\u2581Now": 518, "\u2581Who": 519, "\u2581bet": 520, "ENRY": 521, "aught": 522, "\u2581HENRY": 523, "\u2581cou": 524, "\u2581great": 525, "\u2581Be": 526, "ber": 527, "not": 528, "\u2581bre": 529, "ved": 530, "\u2581never": 531, "\u2581new": 532, "\u2581fair": 533, "cc": 534, "ee": 535, "ss": 536, "\u2581af": 537, "ower": 538, "ap": 539, "igh": 540, "\u2581AN": 541, "\u2581men": 542, "itt": 543, "aster": 544, "orrow": 545, "\u2581Your": 546, "uke": 547, "\u2581It": 548, "iz": 549, "ough": 550, "ORK": 551, "\u2581YORK": 552, "\u2581any": 553, "\u2581call": 554, "\u2581part": 555, "\u2581Or": 556, "\u2581ra": 557, "ation": 558, "INIUS": 559, "ST": 560, "ide": 561, "ree": 562, "\u2581ad": 563, "\u2581comm": 564, "\u2581cannot": 565, "\u2581pre": 566, "\u2581true": 567, "\u2581stand": 568, "\u2581heaven": 569, "\u2581PET": 570, "\u2581name": 571, "AU": 572, "\u2581been": 573, "\u2581pray": 574, "old": 575, "\u2581cl": 576, "hing": 577, "\u2581sweet": 578, "DW": 579, "\u2581EDW": 580, "\u2581per": 581, "\u2581ple": 582, "\u2581EDWARD": 583, "ple": 584, "\u2581GR": 585, ",--": 586, "\u2581doth": 587, "\u2581noble": 588, "\u2581wr": 589, "ears": 590, "\u2581own": 591, "\u2581LUC": 592, "ouse": 593, "\u2581done": 594, "\u2581There": 595, "ull": 596, "\u2581tr": 597, "\u2581way": 598, "ife": 599, "\u2581head": 600, "\u2581other": 601, "RO": 602, "aw": 603, "\u2581mean": 604, "\u2581pres": 605, "UT": 606, "\u2581Ed": 607, "\u2581bear": 608, "red": 609, "\u2581sc": 610, "\u2581nor": 611, "AP": 612, "EO": 613, "\u2581Ay": 614, "OMEO": 615, "\u2581When": 616, "\u2581soul": 617, "\u2581very": 618, "\u2581ROMEO": 619, "\u2581Edward": 620, "ass": 621, "\u2581An": 622, "ENEN": 623, "aint": 624, "ving": 625, "\u2581both": 626, "\u2581MENEN": 627, "\u2581night": 628, "\u2581world": 629, "\u2581before": 630, "\u2581MENENIUS": 631, "ace": 632, "ger": 633, "\u2581By": 634, "ause": 635, "\u2581queen": 636, "li": 637, "\u2581Let": 638, "TH": 639, "\u2581mo": 640, "\u2581chi": 641, "aughter": 642, "RUCH": 643, "\u2581Here": 644, "\u2581Then": 645, "RUCHIO": 646, "\u2581PETRUCHIO": 647, "able": 648, "\u2581cont": 649, "\u2581dead": 650, "\u2581down": 651, "TES": 652, "\u2581app": 653, "ite": 654, "\u2581wh": 655, "\u2581ke": 656, "\u2581rem": 657, "\u2581being": 658, "per": 659, "\u2581myself": 660, "ab": 661, "les": 662, "\u2581MAR": 663, "\u2581Than": 664, "\u2581arm": 665, "\u2581beg": 666, "ilt": 667, "ORIO": 668, "LANUS": 669, "\u2581thus": 670, "\u2581CORIO": 671, "\u2581leave": 672, "\u2581CORIOLANUS": 673, "\u2581Sec": 674, "\u2581grace": 675, "\u2581Second": 676, "\u2581unt": 677, "ction": 678, "ress": 679, "\u2581Nor": 680, "\u2581eyes": 681, "\u2581LE": 682, "\u2581im": 683, "\u2581mother": 684, "led": 685, "\u2581ma": 686, "less": 687, "\u2581old": 688, "ran": 689, "land": 690, "INA": 691, "\u2581rep": 692, "itiz": 693, "\u2581ever": 694, "itizen": 695, "lo": 696, "ps": 697, "sw": 698, "\u2581She": 699, "\u2581int": 700, "\u2581live": 701, "\u2581long": 702, "\u2581wife": 703, "\u2581child": 704, "\u2581wom": 705, "\u2581poor": 706, "\u2581friends": 707, "\u2581III": 708, "\u2581away": 709, "\u2581cons": 710, "\u2581Go": 711, "\u2581might": 712, "eace": 713, "ford": 714, "nder": 715, "\u2581Sir": 716, "\u2581die": 717, "\u2581stay": 718, "\u2581comes": 719, "ks": 720, "oud": 721, "atch": 722, "wick": 723, "\u2581War": 724, "\u2581many": 725, "\u2581ru": 726, "\u2581rest": 727, "\u2581house": 728, "\u2581pe": 729, "\u2581crown": 730, "\u2581Warwick": 731, "ff": 732, "ows": 733, "\u2581le": 734, "\u2581cour": 735, "Tis": 736, "come": 737, "ison": 738, "\u2581His": 739, "\u2581ent": 740, "\u2581har": 741, "\u2581thought": 742, "LA": 743, "SAB": 744, "ELLA": 745, "\u2581lie": 746, "\u2581ISAB": 747, "\u2581ISABELLA": 748, "erc": 749, "ian": 750, "iss": 751, "uck": 752, "RAN": 753, "\u2581set": 754, "\u2581daughter": 755, "che": 756, "\u2581Well": 757, "\u2581Romeo": 758, "\u2581nothing": 759, "ULI": 760, "ors": 761, "ONTES": 762, "ULIET": 763, "atter": 764, "\u2581tong": 765, "\u2581JULIET": 766, "\u2581better": 767, "\u2581LEONTES": 768, "\u2581St": 769, "\u2581VI": 770, "\u2581Nay": 771, "ittle": 772, "\u2581gone": 773, "\u2581prince": 774, "rant": 775, "AD": 776, "ADY": 777, "int": 778, "ought": 779, "\u2581LADY": 780, "AL": 781, "CE": 782, "me": 783, "ENCE": 784, "well": 785, "\u2581tri": 786, "ied": 787, "\u2581Pro": 788, "\u2581keep": 789, "\u2581news": 790, "os": 791, "\u2581res": 792, "\u2581sle": 793, "\u2581wit": 794, "\u2581best": 795, "\u2581against": 796, "ces": 797, "for": 798, "hall": 799, "ious": 800, "\u2581Serv": 801, "\u2581those": 802, "ier": 803, "ool": 804, "hard": 805, "\u2581SIC": 806, "\u2581acc": 807, "\u2581gri": 808, "\u2581comp": 809, "\u2581hence": 810, "\u2581little": 811, "\u2581Citizen": 812, "\u2581SICINIUS": 813, "\u2581Not": 814, "\u2581hour": 815, "\u2581lords": 816, "\u2581thing": 817, "une": 818, "akes": 819, "\u2581put": 820, "ardon": 821, "\u2581face": 822, "lse": 823, "ret": 824, "sed": 825, "ult": 826, "\u2581On": 827, "llow": 828, "\u2581end": 829, "\u2581kind": 830, "EY": 831, "ft": 832, "\u2581two": 833, "\u2581still": 834, "\u2581young": 835, "ont": 836, "ork": 837, "ield": 838, "\u2581pri": 839, "\u2581himself": 840, "ud": 841, "alk": 842, "\u2581Thy": 843, "\u2581pur": 844, "\u2581LUCIO": 845, "\u2581power": 846, "ale": 847, "ert": 848, "ins": 849, "\u2581IV": 850, "\u2581Ric": 851, "\u2581cha": 852, "\u2581Richard": 853, "\u2581CL": 854, "\u2581sub": 855, "\u2581count": 856, "\u2581therefore": 857, "TI": 858, "cl": 859, "ew": 860, "\u2581gu": 861, "ried": 862, "cious": 863, "iness": 864, "\u2581dear": 865, "\u2581else": 866, "\u2581unto": 867, "\u2581first": 868, "\u2581peace": 869, "\u2581BR": 870, "\u2581sm": 871, "ason": 872, "hile": 873, "\u2581Have": 874, "\u2581Will": 875, "\u2581duke": 876, "\u2581till": 877, "\u2581could": 878, "ail": 879, "ect": 880, "ile": 881, "uty": 882, "\u2581co": 883, "\u2581hus": 884, "\u2581tra": 885, "\u2581back": 886, "\u2581words": 887, "\u2581though": 888, "ETH": 889, "\u2581ELI": 890, "\u2581bid": 891, "\u2581dre": 892, "\u2581tre": 893, "ABETH": 894, "\u2581York": 895, "\u2581fell": 896, "\u2581find": 897, "\u2581need": 898, "\u2581earth": 899, "\u2581tongue": 900, "ius": 901, "yal": 902, "band": 903, "ople": 904, "\u2581lady": 905, "\u2581thine": 906, "ty": 907, "IAN": 908, "men": 909, "eech": 910, "orse": 911, "\u2581bra": 912, "\u2581hel": 913, "\u2581home": 914, "\u2581hope": 915, "\u2581seem": 916, "\u2581forth": 917, "ark": 918, "eth": 919, "ray": 920, "enry": 921, "\u2581Yet": 922, "\u2581high": 923, "\u2581Henry": 924, "\u2581husband": 925, "vere": 926, "\u2581Good": 927, "\u2581right": 928, "get": 929, "\u2581chan": 930, "tw": 931, "ARW": 932, "ICK": 933, "uth": 934, "\u2581ban": 935, "\u2581WARW": 936, "\u2581mind": 937, "\u2581people": 938, "\u2581WARWICK": 939, "ds": 940, "ix": 941, "AST": 942, "ach": 943, "hip": 944, "rer": 945, "\u2581Do": 946, "\u2581All": 947, "\u2581che": 948, "ister": 949, "\u2581char": 950, "\u2581conf": 951, "\u2581show": 952, "\u2581Shall": 953, "ged": 954, "\u2581bri": 955, "\u2581hands": 956, "HAM": 957, "fort": 958, "\u2581imp": 959, "\u2581joy": 960, "\u2581why": 961, "\u2581Nurse": 962, "\u2581cause": 963, "\u2581master": 964, "UL": 965, "\u2581gl": 966, "APUL": 967, "\u2581law": 968, "\u2581They": 969, "\u2581mist": 970, "\u2581none": 971, "\u2581once": 972, "\u2581said": 973, "\u2581serv": 974, "APULET": 975, "\u2581CAPULET": 976, "\u2581fort": 977, "\u2581every": 978, "GE": 979, "IL": 980, "MIO": 981, "ren": 982, "\u2581bod": 983, "ousin": 984, "\u2581bring": 985, "RI": 986, "bt": 987, "\u2581dou": 988, "UCK": 989, "eed": 990, "UTUS": 991, "ates": 992, "\u2581BUCK": 993, "\u2581pass": 994, "INGHAM": 995, "\u2581BRUTUS": 996, "\u2581please": 997, "\u2581BUCKINGHAM": 998, "lt": 999, "BRO": 1000, "ESS": 1001, "iet": 1002, "ird": 1003, "\u2581BOL": 1004, "BROKE": 1005, "RANIO": 1006, "\u2581From": 1007, "\u2581light": 1008, "\u2581BOLING": 1009, "\u2581TRANIO": 1010, "\u2581BOLINGBROKE": 1011, "eel": 1012, "\u2581wo": 1013, "swer": 1014, "vost": 1015, "\u2581bes": 1016, "\u2581nat": 1017, "\u2581thr": 1018, "\u2581royal": 1019, "\u2581tears": 1020, "\u2581whose": 1021, "\u2581present": 1022, "mb": 1023, "ary": 1024, "cle": 1025, "its": 1026, "\u2581Our": 1027, "\u2581boy": 1028, "\u2581came": 1029, "\u2581just": 1030, "\u2581since": 1031, "lf": 1032, "vy": 1033, "ock": 1034, "ory": 1035, "roke": 1036, "\u2581dev": 1037, "\u2581full": 1038, "\u2581after": 1039, "\u2581heard": 1040, "\u2581under": 1041, "\u2581wrong": 1042, "\u2581pardon": 1043, "NE": 1044, "GAR": 1045, "pose": 1046, "GARET": 1047, "\u2581happ": 1048, "\u2581land": 1049, "\u2581place": 1050, "\u2581MARGARET": 1051, "ATH": 1052, "ens": 1053, "AMIL": 1054, "\u2581ere": 1055, "\u2581mis": 1056, "\u2581King": 1057, "\u2581last": 1058, "\u2581state": 1059, "sand": 1060, "\u2581care": 1061, "\u2581hold": 1062, "\u2581kill": 1063, "\u2581meet": 1064, "\u2581sorrow": 1065, "ORD": 1066, "GELO": 1067, "cent": 1068, "esty": 1069, "\u2581GRE": 1070, "\u2581eye": 1071, "ition": 1072, "\u2581help": 1073, "\u2581whom": 1074, "\u2581ANGELO": 1075, "\u2581thousand": 1076, "\u2581Eng": 1077, "\u2581fal": 1078, "ARINA": 1079, "\u2581less": 1080, "arence": 1081, "\u2581answer": 1082, "\u2581follow": 1083, "SC": 1084, "irt": 1085, "\u2581Sh": 1086, "\u2581ch": 1087, "cius": 1088, "\u2581bus": 1089, "\u2581far": 1090, "\u2581pat": 1091, "\u2581sun": 1092, "ceive": 1093, "\u2581KATH": 1094, "\u2581enem": 1095, "\u2581fool": 1096, "\u2581weep": 1097, "selves": 1098, "\u2581about": 1099, "\u2581shame": 1100, "\u2581hither": 1101, "\u2581Clarence": 1102, "\u2581KATHARINA": 1103, "iol": 1104, "urde": 1105, "\u2581fall": 1106, "\u2581maid": 1107, "\u2581Marcius": 1108, "\u2581gentleman": 1109, "day": 1110, "\u2581ob": 1111, "asure": 1112, "\u2581into": 1113, "\u2581Un": 1114, "\u2581Up": 1115, "ALUS": 1116, "\u2581ESC": 1117, "\u2581coun": 1118, "\u2581hate": 1119, "\u2581court": 1120, "\u2581grief": 1121, "\u2581makes": 1122, "\u2581cousin": 1123, "\u2581ESCALUS": 1124, "\u2581gracious": 1125, "air": 1126, "\u2581Al": 1127, "imes": 1128, "ject": 1129, "\u2581stri": 1130, "\u2581woman": 1131, "iv": 1132, "ove": 1133, "\u2581Hath": 1134, "\u2581stre": 1135, "\u2581turn": 1136, "\u2581worth": 1137, "\u2581comfort": 1138, "alt": 1139, "ild": 1140, "ons": 1141, "deed": 1142, "ices": 1143, "ling": 1144, "\u2581bed": 1145, "\u2581hum": 1146, "\u2581DUCH": 1147, "\u2581Duke": 1148, "\u2581dost": 1149, "\u2581talk": 1150, "\u2581wilt": 1151, "\u2581sleep": 1152, "urderer": 1153, "\u2581DUCHESS": 1154, "ERC": 1155, "itor": 1156, "ount": 1157, "pher": 1158, "\u2581bel": 1159, "\u2581Ange": 1160, "\u2581body": 1161, "\u2581over": 1162, "\u2581i": 1163, "ute": 1164, "\u2581bu": 1165, "\u2581Her": 1166, "\u2581att": 1167, "\u2581dra": 1168, "\u2581inst": 1169, "morrow": 1170, "\u2581fault": 1171, "\u2581sound": 1172, "\u2581thank": 1173, "\u2581Angelo": 1174, "IA": 1175, "ised": 1176, "\u2581adv": 1177, "ience": 1178, "\u2581play": 1179, "AMILLO": 1180, "\u2581false": 1181, "\u2581prove": 1182, "\u2581indeed": 1183, "\u2581CAMILLO": 1184, "\u2581another": 1185, "ily": 1186, "\u2581vo": 1187, "ieve": 1188, "omet": 1189, "\u2581has": 1190, "\u2581ret": 1191, "\u2581ser": 1192, "\u2581use": 1193, "\u2581wel": 1194, "\u2581Even": 1195, "\u2581deed": 1196, "\u2581Would": 1197, "\u2581sword": 1198, "\u2581fellow": 1199, "\u2581Provost": 1200, "ENS": 1201, "ORT": 1202, "ade": 1203, "ans": 1204, "\u2581bo": 1205, "\u2581HORT": 1206, "\u2581even": 1207, "\u2581pers": 1208, "\u2581vill": 1209, "\u2581fight": 1210, "\u2581matter": 1211, "\u2581HORTENS": 1212, "\u2581fortune": 1213, "RIAR": 1214, "hold": 1215, "\u2581Upon": 1216, "\u2581sent": 1217, "\u2581FRIAR": 1218, "\u2581grave": 1219, "\u2581prison": 1220, "\u2581sovere": 1221, "\u2581country": 1222, "\u2581HORTENSIO": 1223, ",'": 1224, "STA": 1225, "eal": 1226, "ury": 1227, "APTI": 1228, "\u2581Are": 1229, "\u2581cur": 1230, "\u2581dan": 1231, "\u2581merc": 1232, "\u2581send": 1233, "\u2581virt": 1234, "\u2581BAPTI": 1235, "\u2581doubt": 1236, "\u2581years": 1237, "\u2581banish": 1238, "\u2581rather": 1239, "\u2581BAPTISTA": 1240, "YC": 1241, "mp": 1242, "\u2581Ty": 1243, "\u2581gr": 1244, "OLYC": 1245, "fect": 1246, "ouch": 1247, "pect": 1248, "\u2581AUT": 1249, "\u2581COM": 1250, "\u2581ass": 1251, "\u2581hang": 1252, "\u2581want": 1253, "\u2581wish": 1254, "OLYCUS": 1255, "\u2581reven": 1256, "\u2581truth": 1257, "\u2581COMINIUS": 1258, "\u2581business": 1259, "\u2581AUTOLYCUS": 1260, ".'": 1261, "dd": 1262, "\u2581At": 1263, "\u2581CLAR": 1264, "\u2581More": 1265, "\u2581disc": 1266, "\u2581lies": 1267, "\u2581only": 1268, "\u2581Third": 1269, "\u2581shalt": 1270, "\u2581reason": 1271, "\u2581CLARENCE": 1272, "ms": 1273, "ere": 1274, "ior": 1275, "pen": 1276, "ENES": 1277, "\u2581cra": 1278, "\u2581sea": 1279, "pherd": 1280, "rance": 1281, "\u2581arms": 1282, "\u2581stra": 1283, "\u2581dream": 1284, "\u2581breath": 1285, "\u2581command": 1286, "ENV": 1287, "der": 1288, "\u2581gi": 1289, "OLIO": 1290, "ener": 1291, "\u2581NOR": 1292, "\u2581lay": 1293, "\u2581sec": 1294, "\u2581BENV": 1295, "\u2581prom": 1296, "\u2581Clown": 1297, "\u2581stran": 1298, "\u2581Gentle": 1299, "\u2581BENVOLIO": 1300, "SP": 1301, "ERO": 1302, "ROSP": 1303, "UMIO": 1304, "\u2581sen": 1305, "\u2581Take": 1306, "\u2581holy": 1307, "\u2581pity": 1308, "\u2581wind": 1309, "\u2581PROSP": 1310, "\u2581proud": 1311, "\u2581remem": 1312, "\u2581somet": 1313, "\u2581GRUMIO": 1314, "\u2581enough": 1315, "\u2581content": 1316, "\u2581PROSPERO": 1317, "ia": 1318, "hed": 1319, "ken": 1320, "\u2581Su": 1321, "ERCU": 1322, "ator": 1323, "\u2581Did": 1324, "\u2581bea": 1325, "\u2581Kate": 1326, "\u2581dare": 1327, "\u2581fare": 1328, "\u2581sold": 1329, "\u2581spir": 1330, "\u2581MERCU": 1331, "\u2581lives": 1332, "\u2581swear": 1333, "\u2581three": 1334, "\u2581MERCUTIO": 1335, "\u2581Murderer": 1336, "IS": 1337, "ike": 1338, "eter": 1339, "\u2581dep": 1340, "\u2581get": 1341, "\u2581Were": 1342, "\u2581gods": 1343, "\u2581tend": 1344, "\u2581nature": 1345, "\u2581within": 1346, "\u2581Servant": 1347, "\u2581villain": 1348, "\u2581welcome": 1349, "\u2581LUCENTIO": 1350, "OMP": 1351, "ars": 1352, "ham": 1353, "LAND": 1354, "\u2581gre": 1355, "\u2581saw": 1356, "ester": 1357, "\u2581POMP": 1358, "\u2581foul": 1359, "\u2581free": 1360, "\u2581kiss": 1361, "\u2581happy": 1362, "\u2581madam": 1363, "\u2581sister": 1364, "\u2581things": 1365, "\u2581mistress": 1366, "\u2581sovereign": 1367, "AUL": 1368, "any": 1369, "apt": 1370, "att": 1371, "hal": 1372, "unt": 1373, "ient": 1374, "vers": 1375, "\u2581Was": 1376, "\u2581Give": 1377, "\u2581PAUL": 1378, "\u2581city": 1379, "\u2581break": 1380, "\u2581means": 1381, "\u2581yield": 1382, "\u2581PAULINA": 1383, "\u2581beseech": 1384, "\u2581subject": 1385, "eft": 1386, "ery": 1387, "\u2581aw": 1388, "ague": 1389, "\u2581Say": 1390, "\u2581den": 1391, "\u2581mer": 1392, "onder": 1393, "\u2581Look": 1394, "\u2581born": 1395, "\u2581oath": 1396, "gainst": 1397, "gether": 1398, "\u2581horse": 1399, "\u2581yours": 1400, "\u2581GREMIO": 1401, "\u2581POMPEY": 1402, "NIA": 1403, "OLI": 1404, "anc": 1405, "OLUM": 1406, "balt": 1407, "ches": 1408, "usic": 1409, "\u2581Com": 1410, "\u2581dru": 1411, "\u2581tem": 1412, "\u2581POLI": 1413, "\u2581fire": 1414, "\u2581supp": 1415, "\u2581VOLUM": 1416, "\u2581faith": 1417, "\u2581looks": 1418, "\u2581while": 1419, "\u2581wound": 1420, "\u2581bloody": 1421, "\u2581England": 1422, "\u2581VOLUMNIA": 1423, "\u2581yourself": 1424, "ey": 1425, "ues": 1426, "INGS": 1427, "\u2581car": 1428, "\u2581maj": 1429, "\u2581spo": 1430, "\u2581win": 1431, "enger": 1432, "\u2581Fare": 1433, "\u2581HAST": 1434, "\u2581cond": 1435, "\u2581requ": 1436, "centio": 1437, "ingman": 1438, "\u2581common": 1439, "\u2581traitor": 1440, "\u2581HASTINGS": 1441, "\u2581Servingman": 1442, "by": 1443, "AUR": 1444, "rong": 1445, "\u2581Can": 1446, "\u2581May": 1447, "\u2581def": 1448, "\u2581lam": 1449, "\u2581mon": 1450, "broke": 1451, "\u2581Hast": 1452, "\u2581LAUR": 1453, "\u2581mark": 1454, "ertain": 1455, "\u2581uncle": 1456, "essenger": 1457, "\u2581LAURENCE": 1458, "\u2581children": 1459, "BY": 1460, "BER": 1461, "\u2581Ah": 1462, "form": 1463, "\u2581Jul": 1464, "\u2581met": 1465, "\u2581val": 1466, "\u2581beat": 1467, "\u2581late": 1468, "\u2581left": 1469, "\u2581soon": 1470, "\u2581sight": 1471, "\u2581Tybalt": 1472, "\u2581danger": 1473, "\u2581tender": 1474, "\u2581majesty": 1475, "\u2581Therefore": 1476, "FF": 1477, "ten": 1478, "use": 1479, "\u2581Sp": 1480, "LIFF": 1481, "THUM": 1482, "like": 1483, "\u2581sin": 1484, "\u2581woe": 1485, "\u2581days": 1486, "\u2581foot": 1487, "\u2581save": 1488, "\u2581seen": 1489, "\u2581told": 1490, "BERLAND": 1491, "\u2581NORTHUM": 1492, "\u2581warrant": 1493, "\u2581NORTHUMBERLAND": 1494, "ID": 1495, "TA": 1496, "rem": 1497, "\u2581Lu": 1498, "\u2581Pl": 1499, "ides": 1500, "idow": 1501, "\u2581sad": 1502, "\u2581does": 1503, "\u2581gener": 1504, "\u2581mercy": 1505, "\u2581report": 1506, "\u2581return": 1507, "\u2581farewell": 1508, "up": 1509, "dom": 1510, "hes": 1511, "rel": 1512, "earn": 1513, "ring": 1514, "ters": 1515, "unes": 1516, "\u2581sit": 1517, "\u2581ANNE": 1518, "\u2581deep": 1519, "\u2581gold": 1520, "\u2581sure": 1521, "\u2581heavy": 1522, "\u2581marry": 1523, "\u2581Though": 1524, "\u2581purpose": 1525, "\u2581through": 1526, "\u2581without": 1527, "\u2581together": 1528, "bl": 1529, "ca": 1530, "ERD": 1531, "aim": 1532, "ict": 1533, "\u2581PR": 1534, "INCE": 1535, "cher": 1536, "enty": 1537, "\u2581Had": 1538, "\u2581cho": 1539, "\u2581ill": 1540, "\u2581rec": 1541, "ments": 1542, "\u2581Clif": 1543, "\u2581Mont": 1544, "\u2581cold": 1545, "\u2581ears": 1546, "\u2581grow": 1547, "\u2581lost": 1548, "ignior": 1549, "\u2581deser": 1550, "\u2581nurse": 1551, "\u2581Juliet": 1552, "\u2581PRINCE": 1553, "\u2581person": 1554, "\u2581strange": 1555, "\u2581Clifford": 1556, "az": 1557, "mer": 1558, "ush": 1559, "\u2581MI": 1560, "\u2581Ri": 1561, "ains": 1562, "ceed": 1563, "ours": 1564, "ross": 1565, "vent": 1566, "\u2581Bol": 1567, "\u2581Cam": 1568, "\u2581Cor": 1569, "\u2581ask": 1570, "\u2581wat": 1571, "\u2581Tell": 1572, "\u2581disp": 1573, "\u2581suff": 1574, "\u2581liege": 1575, "\u2581pluck": 1576, "\u2581times": 1577, "\u2581Boling": 1578, "\u2581spirit": 1579, "\u2581believe": 1580, "\u2581thyself": 1581, "\u2581Bolingbroke": 1582, "ets": 1583, "ift": 1584, "\u2581Ha": 1585, "\u2581Wh": 1586, "\u2581jo": 1587, "ever": 1588, "\u2581One": 1589, "\u2581age": 1590, "\u2581air": 1591, "\u2581sil": 1592, "\u2581Away": 1593, "\u2581Some": 1594, "\u2581heir": 1595, "\u2581loss": 1596, "\u2581says": 1597, "\u2581Whose": 1598, "\u2581learn": 1599, "\u2581point": 1600, "\u2581Should": 1601, "\u2581Signior": 1602, "aid": 1603, "ced": 1604, "ial": 1605, "ner": 1606, "\u2581cry": 1607, "\u2581fly": 1608, "\u2581past": 1609, "\u2581devil": 1610, "\u2581friar": 1611, "\u2581haste": 1612, "\u2581trust": 1613, "\u2581Coriol": 1614, "\u2581desire": 1615, "\u2581ground": 1616, "\u2581instru": 1617, "\u2581entreat": 1618, "\u2581justice": 1619, "\u2581Farewell": 1620, "gu": 1621, "sh": 1622, "aud": 1623, "ges": 1624, "ina": 1625, "ixt": 1626, "ined": 1627, "outh": 1628, "\u2581Sen": 1629, "\u2581mur": 1630, "\u2581ord": 1631, "\u2581vis": 1632, "aking": 1633, "night": 1634, "\u2581Like": 1635, "\u2581Pray": 1636, "\u2581betw": 1637, "\u2581bold": 1638, "\u2581fast": 1639, "\u2581near": 1640, "\u2581found": 1641, "\u2581slain": 1642, "\u2581France": 1643, "\u2581toward": 1644, "\u2581service": 1645, "\u2581remember": 1646, "\u2581straight": 1647, "LE": 1648, "UF": 1649, "LOR": 1650, "\u2581Gl": 1651, "LORI": 1652, "UFID": 1653, "oman": 1654, "ution": 1655, "\u2581hard": 1656, "\u2581wear": 1657, "\u2581AUFID": 1658, "\u2581FLORI": 1659, "\u2581These": 1660, "\u2581alone": 1661, "\u2581curse": 1662, "\u2581quick": 1663, "\u2581beauty": 1664, "\u2581strong": 1665, "\u2581worthy": 1666, "\u2581married": 1667, "\u2581AUFIDIUS": 1668, "\u2581Messenger": 1669, "xt": 1670, "ION": 1671, "TON": 1672, "let": 1673, "\u2581hu": 1674, "adam": 1675, "ithe": 1676, "ning": 1677, "ured": 1678, "\u2581See": 1679, "\u2581bec": 1680, "\u2581run": 1681, "\u2581woo": 1682, "audio": 1683, "\u2581exec": 1684, "\u2581open": 1685, "\u2581poss": 1686, "\u2581enemy": 1687, "\u2581grant": 1688, "\u2581ready": 1689, "\u2581touch": 1690, "\u2581Claudio": 1691, "\u2581brought": 1692, "\u2581general": 1693, "\u2581revenge": 1694, "!'": 1695, "bs": 1696, "gs": 1697, "ERS": 1698, "aunt": 1699, "cept": 1700, "ible": 1701, "inks": 1702, "\u2581fur": 1703, "\u2581inc": 1704, "\u2581inf": 1705, "\u2581iss": 1706, "umber": 1707, "\u2581deli": 1708, "\u2581duty": 1709, "\u2581lose": 1710, "\u2581prof": 1711, "\u2581quar": 1712, "\u2581canst": 1713, "\u2581hours": 1714, "\u2581knows": 1715, "\u2581youth": 1716, "\u2581charge": 1717, "\u2581itself": 1718, "\u2581Senator": 1719, "\u2581confess": 1720, "\u2581thoughts": 1721, "\u2581Gentleman": 1722, "AS": 1723, "EB": 1724, "pl": 1725, "ua": 1726, "vo": 1727, "ouc": 1728, "CIUS": 1729, "ched": 1730, "illo": 1731, "ship": 1732, "\u2581Bec": 1733, "\u2581SEB": 1734, "\u2581del": 1735, "\u2581par": 1736, "ithee": 1737, "riage": 1738, "\u2581desp": 1739, "\u2581dist": 1740, "\u2581feel": 1741, "\u2581morn": 1742, "\u2581read": 1743, "ASTIAN": 1744, "\u2581Glouc": 1745, "\u2581Madam": 1746, "\u2581speed": 1747, "\u2581Master": 1748, "\u2581stands": 1749, "\u2581streng": 1750, "\u2581twenty": 1751, "\u2581Against": 1752, "\u2581MARCIUS": 1753, "\u2581Montague": 1754, "\u2581Shepherd": 1755, "\u2581SEBASTIAN": 1756, "OW": 1757, "op": 1758, "eep": 1759, "olk": 1760, "oop": 1761, "ump": 1762, "\u2581Pr": 1763, "cess": 1764, "\u2581div": 1765, "\u2581jud": 1766, "\u2581fore": 1767, "\u2581half": 1768, "\u2581hell": 1769, "\u2581mock": 1770, "\u2581post": 1771, "ingham": 1772, "\u2581field": 1773, "\u2581resol": 1774, "fection": 1775, "\u2581behold": 1776, "\u2581Camillo": 1777, "\u2581counsel": 1778, "\u2581fearful": 1779, "no": 1780, "DEL": 1781, "ads": 1782, "alm": 1783, "ols": 1784, "\u2581Bo": 1785, "\u2581ye": 1786, "osom": 1787, "\u2581cut": 1788, "\u2581dam": 1789, "\u2581min": 1790, "\u2581ter": 1791, "DELLO": 1792, "ortal": 1793, "\u2581BION": 1794, "\u2581Buck": 1795, "\u2581Till": 1796, "\u2581batt": 1797, "\u2581each": 1798, "\u2581trib": 1799, "\u2581work": 1800, "\u2581wret": 1801, "\u2581bosom": 1802, "\u2581bound": 1803, "\u2581known": 1804, "\u2581short": 1805, "\u2581hearts": 1806, "\u2581honest": 1807, "\u2581Hastings": 1808, "\u2581marriage": 1809, "\u2581BIONDELLO": 1810, "\u2581Buckingham": 1811, "\u2581Gloucester": 1812, "of": 1813, "sc": 1814, "rah": 1815, "the": 1816, "\u2581ve": 1817, "ench": 1818, "folk": 1819, "iers": 1820, "ones": 1821, "pare": 1822, "\u2581Cap": 1823, "\u2581ten": 1824, "\u2581tit": 1825, "\u2581whi": 1826, "\u2581Thus": 1827, "\u2581Vols": 1828, "\u2581dish": 1829, "\u2581draw": 1830, "\u2581harm": 1831, "\u2581seek": 1832, "\u2581suit": 1833, "\u2581tale": 1834, "\u2581guilt": 1835, "\u2581serve": 1836, "\u2581widow": 1837, "\u2581women": 1838, "\u2581attend": 1839, "\u2581murder": 1840, "\u2581strike": 1841, "\u2581voices": 1842, "\u2581wonder": 1843, "\u2581Norfolk": 1844, "\u2581company": 1845, "\u2581highness": 1846, "\u2581something": 1847, "OP": 1848, "Tw": 1849, "\u2581CA": 1850, "\u2581ag": 1851, "ERLE": 1852, "hood": 1853, "most": 1854, "\u2581AUM": 1855, "\u2581bur": 1856, "\u2581cor": 1857, "\u2581sat": 1858, "TONIO": 1859, "ander": 1860, "ished": 1861, "\u2581knew": 1862, "\u2581pret": 1863, "\u2581side": 1864, "\u2581sing": 1865, "\u2581didst": 1866, "\u2581watch": 1867, "\u2581change": 1868, "\u2581loving": 1869, "\u2581ANTONIO": 1870, "\u2581AUMERLE": 1871, "\u2581heavens": 1872, "\u2581Lucentio": 1873, "\u2581strength": 1874, "\u2581gentlemen": 1875, "ALO": 1876, "ents": 1877, "\u2581GON": 1878, "\u2581Pet": 1879, "\u2581Wel": 1880, "\u2581act": 1881, "\u2581aff": 1882, "\u2581bit": 1883, "\u2581Bian": 1884, "\u2581Lanc": 1885, "\u2581Tran": 1886, "\u2581sake": 1887, "\u2581stir": 1888, "\u2581wast": 1889, "\u2581Marry": 1890, "\u2581brave": 1891, "\u2581cloud": 1892, "\u2581enter": 1893, "ethinks": 1894, "\u2581enemies": 1895, "\u2581pleasure": 1896, "\u2581Lancaster": 1897, "bly": 1898, "fid": 1899, "ils": 1900, "rew": 1901, "\u2581Sw": 1902, "\u2581dr": 1903, "\u2581ty": 1904, "\u2581wa": 1905, "ives": 1906, "oose": 1907, "\u2581HER": 1908, "\u2581Pom": 1909, "\u2581Unt": 1910, "\u2581ext": 1911, "\u2581gar": 1912, "\u2581pie": 1913, "\u2581pra": 1914, "\u2581Lady": 1915, "\u2581Most": 1916, "\u2581begg": 1917, "\u2581chee": 1918, "\u2581next": 1919, "\u2581pale": 1920, "\u2581sign": 1921, "ceived": 1922, "\u2581breat": 1923, "\u2581close": 1924, "\u2581gates": 1925, "\u2581music": 1926, "\u2581souls": 1927, "\u2581title": 1928, "\u2581Bianca": 1929, "\u2581coming": 1930, "\u2581course": 1931, "\u2581suffer": 1932, "\u2581thanks": 1933, "\u2581withal": 1934, "\u2581deliver": 1935, "be": 1936, "AUD": 1937, "ats": 1938, "els": 1939, "\u2581Au": 1940, "\u2581Ch": 1941, "\u2581sk": 1942, "etch": 1943, "vour": 1944, "\u2581abs": 1945, "\u2581fit": 1946, "AUDIO": 1947, "MIONE": 1948, "claim": 1949, "oward": 1950, "\u2581Rich": 1951, "\u2581forg": 1952, "\u2581grie": 1953, "\u2581jest": 1954, "\u2581lips": 1955, "\u2581rich": 1956, "\u2581sick": 1957, "\u2581weak": 1958, "\u2581CLIFF": 1959, "\u2581Petru": 1960, "\u2581order": 1961, "\u2581plain": 1962, "\u2581become": 1963, "\u2581either": 1964, "\u2581CLAUDIO": 1965, "\u2581CLIFFORD": 1966, "\u2581HERMIONE": 1967, "\u2581patience": 1968, "\u2581themselves": 1969, "DA": 1970, "isf": 1971, "kes": 1972, "lly": 1973, "oof": 1974, "ses": 1975, "urp": 1976, "\u2581EL": 1977, "\u2581JO": 1978, "\u2581ac": 1979, "arry": 1980, "chio": 1981, "east": 1982, "irth": 1983, "race": 1984, "rest": 1985, "ries": 1986, "twas": 1987, "\u2581Bes": 1988, "\u2581reg": 1989, "\u2581ven": 1990, "\u2581wis": 1991, "RANDA": 1992, "ready": 1993, "twere": 1994, "\u2581Call": 1995, "\u2581LORD": 1996, "\u2581Make": 1997, "\u2581cast": 1998, "\u2581forb": 1999, "\u2581prop": 2000, "\u2581same": 2001, "\u2581took": 2002, "\u2581wall": 2003, "fidius": 2004, "\u2581Being": 2005, "\u2581Since": 2006, "\u2581along": 2007, "\u2581cheer": 2008, "\u2581merry": 2009, "\u2581sworn": 2010, "\u2581worse": 2011, "\u2581Tranio": 2012, "\u2581breast": 2013, "\u2581consul": 2014, "\u2581forget": 2015, "\u2581poison": 2016, "\u2581virtue": 2017, "\u2581MIRANDA": 2018, "\u2581further": 2019, "\u2581Aufidius": 2020, "\u2581Petruchio": 2021, "HN": 2022, "cy": 2023, "SON": 2024, "lst": 2025, "\u2581Re": 2026, "\u2581cr": 2027, "\u2581du": 2028, "\u2581ta": 2029, "ally": 2030, "ions": 2031, "rows": 2032, "rust": 2033, "vern": 2034, "\u2581bad": 2035, "\u2581emb": 2036, "\u2581enc": 2037, "\u2581red": 2038, "\u2581wed": 2039, "\u2581Alas": 2040, "\u2581JOHN": 2041, "\u2581book": 2042, "\u2581dire": 2043, "\u2581four": 2044, "\u2581gave": 2045, "\u2581move": 2046, "\u2581self": 2047, "\u2581soft": 2048, "\u2581wise": 2049, "\u2581begin": 2050, "\u2581given": 2051, "\u2581issue": 2052, "\u2581liber": 2053, "\u2581loves": 2054, "\u2581mouth": 2055, "\u2581battle": 2056, "\u2581office": 2057, "\u2581already": 2058, "\u2581consent": 2059, "\u2581morning": 2060, "\u2581request": 2061, "\u2581Hereford": 2062, "\u2581dangerous": 2063, "nk": 2064, "pes": 2065, "\u2581Ar": 2066, "anus": 2067, "dden": 2068, "each": 2069, "fter": 2070, "icer": 2071, "mber": 2072, "mond": 2073, "orge": 2074, "uous": 2075, "used": 2076, "\u2581Yes": 2077, "\u2581exp": 2078, "\u2581foe": 2079, "\u2581gro": 2080, "\u2581lad": 2081, "\u2581pay": 2082, "\u2581burn": 2083, "\u2581goes": 2084, "\u2581sons": 2085, "\u2581succ": 2086, "\u2581trou": 2087, "\u2581Speak": 2088, "\u2581Tower": 2089, "\u2581black": 2090, "\u2581feast": 2091, "\u2581frown": 2092, "\u2581Before": 2093, "\u2581satisf": 2094, "\u2581wounds": 2095, "\u2581between": 2096, "\u2581neither": 2097, "\u2581quarrel": 2098, "\u2581Richmond": 2099, "\u2581soldiers": 2100, "NT": 2101, "awd": 2102, "hem": 2103, "irm": 2104, "ots": 2105, "\u2581Ab": 2106, "aret": 2107, "aris": 2108, "chan": 2109, "empt": 2110, "ging": 2111, "ires": 2112, "rist": 2113, "ting": 2114, "ures": 2115, "\u2581bar": 2116, "\u2581dro": 2117, "\u2581est": 2118, "\u2581hot": 2119, "\u2581mal": 2120, "\u2581und": 2121, "TESBY": 2122, "garet": 2123, "owers": 2124, "\u2581Must": 2125, "\u2581Such": 2126, "\u2581case": 2127, "\u2581dark": 2128, "\u2581priv": 2129, "\u2581sigh": 2130, "\u2581thri": 2131, "\u2581vict": 2132, "\u2581bless": 2133, "\u2581bride": 2134, "\u2581brief": 2135, "\u2581often": 2136, "\u2581water": 2137, "\u2581Unless": 2138, "\u2581having": 2139, "\u2581speech": 2140, "\u2581thence": 2141, "\u2581Because": 2142, "\u2581CATESBY": 2143, "\u2581Welcome": 2144, "\u2581servant": 2145, "\u2581presence": 2146, "po": 2147, "ILI": 2148, "emn": 2149, "ona": 2150, "\u2581ev": 2151, "alth": 2152, "ends": 2153, "\u2581ble": 2154, "\u2581bow": 2155, "\u2581got": 2156, "\u2581pen": 2157, "\u2581sum": 2158, "cient": 2159, "ondon": 2160, "\u2581Bapt": 2161, "\u2581Both": 2162, "\u2581GREY": 2163, "\u2581Keep": 2164, "\u2581Whom": 2165, "\u2581deny": 2166, "\u2581town": 2167, "\u2581wars": 2168, "\u2581Saint": 2169, "\u2581Their": 2170, "\u2581compl": 2171, "\u2581dread": 2172, "\u2581inter": 2173, "\u2581kings": 2174, "\u2581loved": 2175, "\u2581seems": 2176, "\u2581spoke": 2177, "\u2581visit": 2178, "\u2581voice": 2179, "\u2581London": 2180, "\u2581mighty": 2181, "\u2581mortal": 2182, "\u2581throne": 2183, "\u2581Baptist": 2184, "\u2581flatter": 2185, "\u2581respect": 2186, "\u2581Margaret": 2187, "\u2581Coriolanus": 2188, "CA": 2189, "IV": 2190, "ip": 2191, "so": 2192, "bed": 2193, "ern": 2194, "oun": 2195, "\u2581De": 2196, "\u2581Ge": 2197, "ILIA": 2198, "iant": 2199, "ided": 2200, "ired": 2201, "ourn": 2202, "ught": 2203, "\u2581Ere": 2204, "\u2581RIV": 2205, "\u2581bab": 2206, "\u2581bro": 2207, "\u2581buy": 2208, "\u2581cap": 2209, "\u2581col": 2210, "\u2581fra": 2211, "\u2581hur": 2212, "\u2581vow": 2213, "IANCA": 2214, "\u2581Isab": 2215, "\u2581Lest": 2216, "\u2581prot": 2217, "\u2581safe": 2218, "ainted": 2219, "\u2581Paris": 2220, "\u2581deeds": 2221, "\u2581knock": 2222, "\u2581BIANCA": 2223, "\u2581George": 2224, "\u2581RIVERS": 2225, "\u2581action": 2226, "\u2581appear": 2227, "\u2581bitter": 2228, "\u2581dishon": 2229, "\u2581sudden": 2230, "\u2581ancient": 2231, "\u2581chamber": 2232, "\u2581prayers": 2233, "\u2581promise": 2234, "\u2581worship": 2235, "\u2581Baptista": 2236, "\u2581princely": 2237, "ls": 2238, "BOW": 2239, "cks": 2240, "esh": 2241, "now": 2242, "ura": 2243, "\u2581pu": 2244, "AUNT": 2245, "ated": 2246, "lish": 2247, "nown": 2248, "oney": 2249, "resh": 2250, "urch": 2251, "\u2581ang": 2252, "\u2581ign": 2253, "\u2581lim": 2254, "\u2581opp": 2255, "\u2581reb": 2256, "\u2581sac": 2257, "essed": 2258, "otion": 2259, "right": 2260, "stand": 2261, "\u2581bawd": 2262, "\u2581lead": 2263, "\u2581rage": 2264, "\u2581viol": 2265, "antage": 2266, "\u2581ELBOW": 2267, "\u2581GAUNT": 2268, "\u2581Roman": 2269, "\u2581Stand": 2270, "\u2581appro": 2271, "\u2581creat": 2272, "\u2581cross": 2273, "\u2581fetch": 2274, "\u2581flesh": 2275, "\u2581heads": 2276, "\u2581scorn": 2277, "\u2581coward": 2278, "\u2581lament": 2279, "\u2581triump": 2280, "\u2581kingdom": 2281, "\u2581patient": 2282, "\u2581prepare": 2283, "\u2581success": 2284, "\u2581valiant": 2285, "\u2581witness": 2286, "\u2581presently": 2287, "UR": 2288, "to": 2289, "GUE": 2290, "iff": 2291, "ler": 2292, "urs": 2293, "\u2581Bl": 2294, "\u2581Jo": 2295, "\u2581Ox": 2296, "\u2581TY": 2297, "\u2581ow": 2298, "ONTA": 2299, "aken": 2300, "mand": 2301, "sper": 2302, "\u2581cle": 2303, "\u2581eat": 2304, "\u2581ins": 2305, "\u2581lab": 2306, "\u2581unw": 2307, "antag": 2308, "ensio": 2309, "ities": 2310, "itted": 2311, "\u2581Hort": 2312, "\u2581Merc": 2313, "\u2581gall": 2314, "\u2581kins": 2315, "\u2581lack": 2316, "\u2581moon": 2317, "\u2581prin": 2318, "\u2581scar": 2319, "\u2581wash": 2320, "\u2581MONTA": 2321, "\u2581Think": 2322, "\u2581drink": 2323, "\u2581least": 2324, "\u2581offer": 2325, "\u2581slave": 2326, "\u2581throw": 2327, "\u2581Christ": 2328, "\u2581Oxford": 2329, "\u2581defend": 2330, "\u2581faults": 2331, "\u2581secret": 2332, "\u2581forward": 2333, "\u2581prithee": 2334, "\u2581MONTAGUE": 2335, "\u2581tribunes": 2336, "\u2581Hortensio": 2337, "ac": 2338, "als": 2339, "bit": 2340, "ees": 2341, "ley": 2342, "pey": 2343, "ued": 2344, "\u2581id": 2345, "aked": 2346, "feit": 2347, "host": 2348, "ines": 2349, "king": 2350, "ully": 2351, "vest": 2352, "ying": 2353, "\u2581Con": 2354, "\u2581Gre": 2355, "\u2581Kat": 2356, "\u2581Whi": 2357, "\u2581ben": 2358, "\u2581fie": 2359, "\u2581mid": 2360, "\u2581nay": 2361, "\u2581occ": 2362, "\u2581sur": 2363, "\u2581Doth": 2364, "\u2581Hark": 2365, "\u2581damn": 2366, "\u2581dest": 2367, "\u2581hide": 2368, "\u2581writ": 2369, "asters": 2370, "harina": 2371, "\u2581Bohem": 2372, "\u2581North": 2373, "\u2581beast": 2374, "\u2581small": 2375, "\u2581Pompey": 2376, "\u2581almost": 2377, "\u2581chance": 2378, "\u2581depart": 2379, "\u2581pretty": 2380, "\u2581possess": 2381, "\u2581thither": 2382, "umberland": 2383, "\u2581subjects": 2384, "\u2581Katharina": 2385, "\u2581execution": 2386, "\u2581slaughter": 2387, "\u2581Northumberland": 2388, "AT": 2389, "RG": 2390, "ITA": 2391, "arl": 2392, "aul": 2393, "rum": 2394, "umb": 2395, "\u2581Ad": 2396, "\u2581Am": 2397, "\u2581Br": 2398, "\u2581Ca": 2399, "\u2581Ex": 2400, "\u2581ut": 2401, "hind": 2402, "oint": 2403, "then": 2404, "ural": 2405, "\u2581eas": 2406, "inger": 2407, "ingly": 2408, "ledge": 2409, "\u2581Hold": 2410, "\u2581PERD": 2411, "\u2581Paul": 2412, "\u2581VIRG": 2413, "\u2581base": 2414, "\u2581fill": 2415, "\u2581fond": 2416, "\u2581form": 2417, "\u2581glad": 2418, "\u2581inno": 2419, "\u2581pain": 2420, "\u2581stru": 2421, "\u2581tear": 2422, "\u2581wert": 2423, "cience": 2424, "perate": 2425, "\u2581Peace": 2426, "\u2581Sweet": 2427, "\u2581birth": 2428, "\u2581hadst": 2429, "\u2581trump": 2430, "\u2581usurp": 2431, "\u2581awhile": 2432, "\u2581favour": 2433, "\u2581goodly": 2434, "\u2581living": 2435, "\u2581whence": 2436, "\u2581Bohemia": 2437, "\u2581PERDITA": 2438, "\u2581certain": 2439, "\u2581hearing": 2440, "\u2581offence": 2441, "\u2581perform": 2442, "\u2581proceed": 2443, "\u2581quickly": 2444, "\u2581VIRGILIA": 2445, "\u2581virtuous": 2446, "LY": 2447, "ze": 2448, "dge": 2449, "eds": 2450, "eem": 2451, "raw": 2452, "ror": 2453, "\u2581ay": 2454, "\u2581ca": 2455, "\u2581ur": 2456, "IANA": 2457, "ding": 2458, "iest": 2459, "omes": 2460, "orth": 2461, "over": 2462, "\u2581Off": 2463, "\u2581SLY": 2464, "\u2581Yea": 2465, "\u2581adm": 2466, "\u2581inj": 2467, "\u2581pit": 2468, "\u2581shi": 2469, "\u2581tor": 2470, "edant": 2471, "force": 2472, "isure": 2473, "ustom": 2474, "\u2581Stay": 2475, "\u2581fier": 2476, "\u2581knee": 2477, "\u2581mild": 2478, "\u2581shad": 2479, "\u2581slew": 2480, "\u2581walk": 2481, "\u2581wild": 2482, "astard": 2483, "\u2581angry": 2484, "\u2581blows": 2485, "\u2581forsw": 2486, "\u2581kneel": 2487, "\u2581match": 2488, "\u2581pleas": 2489, "\u2581quiet": 2490, "\u2581worst": 2491, "\u2581Isabel": 2492, "\u2581church": 2493, "\u2581guilty": 2494, "\u2581lawful": 2495, "\u2581MARIANA": 2496, "\u2581greater": 2497, "\u2581leisure": 2498, "\u2581soldier": 2499, "\u2581treason": 2500, "\u2581weeping": 2501, "\u2581deserved": 2502, "\u2581affection": 2503, "gg": 2504, "arn": 2505, "awn": 2506, "gue": 2507, "joy": 2508, "ked": 2509, "med": 2510, "ony": 2511, "ual": 2512, "vol": 2513, "zen": 2514, "\u2581ST": 2515, "\u2581Tw": 2516, "\u2581ap": 2517, "\u2581em": 2518, "ARIS": 2519, "adua": 2520, "ames": 2521, "ighb": 2522, "read": 2523, "rupt": 2524, "\u2581Bel": 2525, "\u2581Men": 2526, "\u2581Out": 2527, "\u2581fam": 2528, "\u2581hap": 2529, "\u2581med": 2530, "\u2581mod": 2531, "\u2581nob": 2532, "\u2581sho": 2533, "\u2581unc": 2534, "\u2581unk": 2535, "\u2581won": 2536, "ended": 2537, "eness": 2538, "fully": 2539, "remio": 2540, "rumio": 2541, "\u2581Mist": 2542, "\u2581blow": 2543, "\u2581doom": 2544, "\u2581fled": 2545, "\u2581list": 2546, "\u2581neck": 2547, "\u2581sole": 2548, "\u2581year": 2549, "\u2581PARIS": 2550, "\u2581Padua": 2551, "\u2581Watch": 2552, "\u2581While": 2553, "\u2581ignor": 2554, "\u2581march": 2555, "\u2581needs": 2556, "\u2581reign": 2557, "\u2581sense": 2558, "\u2581shows": 2559, "antagen": 2560, "itizens": 2561, "osition": 2562, "\u2581Gremio": 2563, "\u2581Grumio": 2564, "\u2581behind": 2565, "\u2581clouds": 2566, "\u2581contin": 2567, "\u2581encoun": 2568, "\u2581forbid": 2569, "\u2581govern": 2570, "\u2581ladies": 2571, "\u2581letter": 2572, "\u2581second": 2573, "\u2581speaks": 2574, "\u2581English": 2575, "\u2581because": 2576, "\u2581breathe": 2577, "\u2581condemn": 2578, "\u2581letters": 2579, "\u2581liberty": 2580, "\u2581measure": 2581, "\u2581trouble": 2582, "\u2581wouldst": 2583, "\u2581prisoner": 2584, "\u2581sentence": 2585, "\u2581shepherd": 2586, "\u2581Plantagen": 2587, "\u2581dishonour": 2588, "\u2581ourselves": 2589, "\u2581banishment": 2590, ":'": 2591, "dle": 2592, "ize": 2593, "oor": 2594, "oss": 2595, "rue": 2596, "vel": 2597, "acle": 2598, "aves": 2599, "ider": 2600, "iles": 2601, "rous": 2602, "ster": 2603, "\u2581Ant": 2604, "\u2581Hea": 2605, "\u2581Int": 2606, "\u2581Too": 2607, "\u2581big": 2608, "\u2581cru": 2609, "\u2581dog": 2610, "\u2581dry": 2611, "\u2581lan": 2612, "\u2581mut": 2613, "\u2581oft": 2614, "\u2581pet": 2615, "\u2581ref": 2616, "aring": 2617, "ators": 2618, "ndred": 2619, "\u2581Fear": 2620, "\u2581five": 2621, "\u2581held": 2622, "\u2581join": 2623, "\u2581laid": 2624, "\u2581note": 2625, "\u2581obey": 2626, "\u2581seat": 2627, "\u2581sort": 2628, "\u2581stor": 2629, "\u2581temp": 2630, "\u2581vain": 2631, "\u2581womb": 2632, "\u2581Gaunt": 2633, "\u2581PETER": 2634, "\u2581above": 2635, "\u2581aside": 2636, "\u2581bones": 2637, "\u2581drunk": 2638, "\u2581fresh": 2639, "\u2581grand": 2640, "\u2581lived": 2641, "\u2581noise": 2642, "\u2581piece": 2643, "\u2581rough": 2644, "\u2581steal": 2645, "\u2581Sirrah": 2646, "\u2581appare": 2647, "\u2581choose": 2648, "\u2581golden": 2649, "\u2581longer": 2650, "\u2581morrow": 2651, "\u2581remain": 2652, "\u2581hundred": 2653, "\u2581prosper": 2654, "\u2581victory": 2655, "\u2581dispatch": 2656, "\u2581proclaim": 2657, "\u2581conscience": 2658, "\u2581Plantagenet": 2659, "bb": 2660, "hn": 2661, "ny": 2662, "ts": 2663, "!--": 2664, "ART": 2665, "WIS": 2666, "ban": 2667, "ety": 2668, "ieu": 2669, "ott": 2670, "rim": 2671, "set": 2672, "ume": 2673, "vey": 2674, "\u2581En": 2675, "\u2581Fa": 2676, "\u2581Me": 2677, "\u2581Sc": 2678, "\u2581ef": 2679, "RIEL": 2680, "ceit": 2681, "erle": 2682, "iled": 2683, "ular": 2684, "ulet": 2685, "\u2581DOR": 2686, "\u2581Per": 2687, "\u2581exc": 2688, "\u2581ind": 2689, "\u2581lau": 2690, "\u2581len": 2691, "\u2581low": 2692, "\u2581saf": 2693, "\u2581sch": 2694, "\u2581sto": 2695, "\u2581sus": 2696, "asion": 2697, "inius": 2698, "lease": 2699, "ounds": 2700, "posed": 2701, "uthor": 2702, "\u2581Earl": 2703, "\u2581Hear": 2704, "\u2581LART": 2705, "\u2581Unto": 2706, "\u2581bend": 2707, "\u2581fine": 2708, "\u2581lust": 2709, "\u2581obed": 2710, "\u2581purs": 2711, "\u2581shed": 2712, "\u2581tent": 2713, "\u2581warm": 2714, "\u2581woes": 2715, "atesby": 2716, "icious": 2717, "\u2581ARIEL": 2718, "\u2581Could": 2719, "\u2581LEWIS": 2720, "\u2581bears": 2721, "\u2581broke": 2722, "\u2581conqu": 2723, "\u2581doing": 2724, "\u2581drown": 2725, "\u2581glory": 2726, "\u2581knees": 2727, "\u2581lands": 2728, "\u2581pride": 2729, "\u2581saint": 2730, "\u2581stain": 2731, "\u2581steel": 2732, "\u2581stood": 2733, "\u2581swift": 2734, "\u2581venge": 2735, "\u2581double": 2736, "\u2581effect": 2737, "\u2581forgot": 2738, "\u2581labour": 2739, "\u2581revere": 2740, "\u2581threat": 2741, "\u2581wisdom": 2742, "\u2581Capulet": 2743, "\u2581Catesby": 2744, "\u2581LARTIUS": 2745, "\u2581blessed": 2746, "\u2581counter": 2747, "\u2581despair": 2748, "\u2581kinsman": 2749, "\u2581slander": 2750, "\u2581towards": 2751, "\u2581Watchman": 2752, "\u2581citizens": 2753, "\u2581precious": 2754, "\u2581desperate": 2755, "\u2581encounter": 2756, "\u2581entertain": 2757, "\u2581knowledge": 2758, "\u2581yourselves": 2759, ";'": 2760, "AMP": 2761, "TIS": 2762, "ang": 2763, "irl": 2764, "owb": 2765, "ude": 2766, "uff": 2767, "\u2581fe": 2768, "cted": 2769, "ease": 2770, "iful": 2771, "rent": 2772, "vail": 2773, "\u2581Aum": 2774, "\u2581CUR": 2775, "\u2581Dis": 2776, "\u2581Fri": 2777, "\u2581Ver": 2778, "\u2581eld": 2779, "\u2581fat": 2780, "\u2581few": 2781, "\u2581fru": 2782, "\u2581pun": 2783, "\u2581ran": 2784, "\u2581uns": 2785, "eterm": 2786, "gment": 2787, "iance": 2788, "ility": 2789, "itors": 2790, "rence": 2791, "\u2581Cons": 2792, "\u2581John": 2793, "\u2581Mowb": 2794, "\u2581SAMP": 2795, "\u2581abro": 2796, "\u2581army": 2797, "\u2581capt": 2798, "\u2581corn": 2799, "\u2581died": 2800, "\u2581foll": 2801, "\u2581hair": 2802, "\u2581kept": 2803, "\u2581seal": 2804, "\u2581sour": 2805, "\u2581stud": 2806, "ations": 2807, "estion": 2808, "ointed": 2809, "ontent": 2810, "\u2581alive": 2811, "\u2581const": 2812, "\u2581contr": 2813, "\u2581dance": 2814, "\u2581enjoy": 2815, "\u2581guess": 2816, "\u2581guest": 2817, "\u2581money": 2818, "\u2581mount": 2819, "\u2581plant": 2820, "\u2581quoth": 2821, "\u2581remed": 2822, "\u2581sever": 2823, "\u2581white": 2824, "\u2581CURTIS": 2825, "\u2581Keeper": 2826, "\u2581Pedant": 2827, "\u2581Within": 2828, "\u2581author": 2829, "\u2581beggar": 2830, "\u2581cheeks": 2831, "\u2581deadly": 2832, "\u2581determ": 2833, "\u2581fought": 2834, "\u2581health": 2835, "\u2581manner": 2836, "\u2581struck": 2837, "\u2581Aumerle": 2838, "\u2581Mowbray": 2839, "\u2581SAMPSON": 2840, "\u2581bastard": 2841, "\u2581flowers": 2842, "\u2581honours": 2843, "\u2581masters": 2844, "\u2581lordship": 2845, "\u2581methinks": 2846, "\u2581promised": 2847, "\u2581wretched": 2848, "\u2581understand": 2849, "BU": 2850, "ne": 2851, ":--": 2852, "GON": 2853, "LEY": 2854, "ash": 2855, "den": 2856, "ief": 2857, "mit": 2858, "ppy": 2859, "tle": 2860, "\u2581Fl": 2861, "\u2581Ne": 2862, "BURY": 2863, "bury": 2864, "ewis": 2865, "head": 2866, "ited": 2867, "osed": 2868, "reed": 2869, "utio": 2870, "ways": 2871, "\u2581Put": 2872, "\u2581aid": 2873, "\u2581deg": 2874, "\u2581pal": 2875, "\u2581rot": 2876, "\u2581sim": 2877, "\u2581try": 2878, "GONUS": 2879, "ament": 2880, "ounce": 2881, "\u2581ANTI": 2882, "\u2581Mine": 2883, "\u2581Poor": 2884, "\u2581cred": 2885, "\u2581gent": 2886, "\u2581prov": 2887, "orious": 2888, "\u2581Lewis": 2889, "\u2581among": 2890, "\u2581calls": 2891, "\u2581cried": 2892, "\u2581cruel": 2893, "\u2581early": 2894, "\u2581going": 2895, "\u2581greet": 2896, "\u2581guard": 2897, "\u2581judge": 2898, "\u2581liest": 2899, "\u2581moved": 2900, "\u2581seven": 2901, "\u2581shake": 2902, "\u2581spent": 2903, "\u2581stars": 2904, "\u2581teach": 2905, "\u2581truly": 2906, "\u2581Either": 2907, "\u2581Heaven": 2908, "\u2581Pardon": 2909, "\u2581demand": 2910, "\u2581dreams": 2911, "\u2581extrem": 2912, "\u2581humble": 2913, "\u2581neighb": 2914, "\u2581priest": 2915, "\u2581scarce": 2916, "\u2581summer": 2917, "\u2581valour": 2918, "\u2581wretch": 2919, "\u2581account": 2920, "\u2581charity": 2921, "\u2581foolish": 2922, "\u2581herself": 2923, "\u2581kindred": 2924, "\u2581officer": 2925, "\u2581triumph": 2926, "\u2581whether": 2927, "\u2581Citizens": 2928, "\u2581Mercutio": 2929, "\u2581brothers": 2930, "\u2581ANTIGONUS": 2931, "\u2581honourable": 2932, "BR": 2933, "lp": 2934, "ATC": 2935, "BRA": 2936, "ask": 2937, "iew": 2938, "ify": 2939, "pir": 2940, "roy": 2941, "\u2581ba": 2942, "\u2581ga": 2943, "Twas": 2944, "ians": 2945, "ites": 2946, "leep": 2947, "mble": 2948, "\u2581Bet": 2949, "\u2581Bid": 2950, "\u2581add": 2951, "\u2581cir": 2952, "\u2581din": 2953, "\u2581rid": 2954, "\u2581unf": 2955, "\u2581yea": 2956, "arted": 2957, "ating": 2958, "house": 2959, "ining": 2960, "orthy": 2961, "under": 2962, "\u2581Made": 2963, "\u2581Mars": 2964, "\u2581Once": 2965, "\u2581RATC": 2966, "\u2581anon": 2967, "\u2581beha": 2968, "\u2581bids": 2969, "\u2581dism": 2970, "\u2581ease": 2971, "\u2581envy": 2972, "\u2581fart": 2973, "\u2581hung": 2974, "\u2581idle": 2975, "\u2581imag": 2976, "\u2581ours": 2977, "\u2581pack": 2978, "\u2581rise": 2979, "\u2581thro": 2980, "\u2581view": 2981, "\u2581wail": 2982, "though": 2983, "\u2581Alack": 2984, "\u2581Faith": 2985, "\u2581Harry": 2986, "\u2581Music": 2987, "\u2581Never": 2988, "\u2581benef": 2989, "\u2581blame": 2990, "\u2581chast": 2991, "\u2581crave": 2992, "\u2581dwell": 2993, "\u2581faint": 2994, "\u2581faire": 2995, "\u2581force": 2996, "\u2581glass": 2997, "\u2581laugh": 2998, "\u2581miser": 2999, "\u2581month": 3000, "\u2581party": 3001, "\u2581stone": 3002, "\u2581subst": 3003, "\u2581trial": 3004, "\u2581walls": 3005, "\u2581weary": 3006, "\u2581abroad": 3007, "\u2581bright": 3008, "\u2581custom": 3009, "\u2581malice": 3010, "\u2581others": 3011, "\u2581thinks": 3012, "\u2581winter": 3013, "\u2581Volsces": 3014, "\u2581butcher": 3015, "\u2581fellows": 3016, "\u2581private": 3017, "\u2581provost": 3018, "\u2581thereof": 3019, "\u2581Cominius": 3020, "\u2581RATCLIFF": 3021, "\u2581kindness": 3022, "\u2581minister": 3023, "\u2581condition": 3024, "\u2581satisfied": 3025, "\u2581vengeance": 3026, "\u2581wherefore": 3027, "ALT": 3028, "HOP": 3029, "amp": 3030, "ope": 3031, "BALT": 3032, "cell": 3033, "enes": 3034, "lock": 3035, "ners": 3036, "omas": 3037, "rees": 3038, "scal": 3039, "vell": 3040, "with": 3041, "\u2581Des": 3042, "\u2581Fie": 3043, "\u2581Rut": 3044, "\u2581Vin": 3045, "\u2581bef": 3046, "\u2581env": 3047, "\u2581god": 3048, "\u2581hol": 3049, "\u2581rel": 3050, "\u2581smo": 3051, "\u2581unb": 3052, "\u2581unl": 3053, "\u2581unp": 3054, "\u2581ver": 3055, "\u2581wag": 3056, "\u2581wre": 3057, "ANLEY": 3058, "ISHOP": 3059, "ailor": 3060, "allow": 3061, "antua": 3062, "eless": 3063, "icked": 3064, "ident": 3065, "orous": 3066, "rench": 3067, "\u2581Barn": 3068, "\u2581Show": 3069, "\u2581True": 3070, "\u2581acqu": 3071, "\u2581arri": 3072, "\u2581bite": 3073, "\u2581boot": 3074, "\u2581deal": 3075, "\u2581dull": 3076, "\u2581easy": 3077, "\u2581evil": 3078, "\u2581firm": 3079, "\u2581foes": 3080, "\u2581gown": 3081, "\u2581incl": 3082, "\u2581lest": 3083, "\u2581meat": 3084, "\u2581root": 3085, "\u2581vice": 3086, "\u2581vile": 3087, "\u2581After": 3088, "\u2581Hence": 3089, "\u2581Lords": 3090, "\u2581Peter": 3091, "\u2581Under": 3092, "\u2581blind": 3093, "\u2581concl": 3094, "\u2581corse": 3095, "\u2581cover": 3096, "\u2581fruit": 3097, "\u2581mayst": 3098, "\u2581quite": 3099, "\u2581shore": 3100, "\u2581shrew": 3101, "\u2581sport": 3102, "\u2581wench": 3103, "\u2581Mantua": 3104, "\u2581Please": 3105, "\u2581TYBALT": 3106, "\u2581Thomas": 3107, "\u2581Whilst": 3108, "\u2581afford": 3109, "\u2581convey": 3110, "\u2581deputy": 3111, "\u2581excuse": 3112, "\u2581flower": 3113, "\u2581former": 3114, "\u2581humour": 3115, "\u2581prophe": 3116, "\u2581school": 3117, "\u2581swords": 3118, "\u2581tyrant": 3119, "\u2581Corioli": 3120, "\u2581Paulina": 3121, "\u2581Rutland": 3122, "\u2581STANLEY": 3123, "\u2581changed": 3124, "\u2581counten": 3125, "\u2581honesty": 3126, "\u2581tongues": 3127, "\u2581Methinks": 3128, "\u2581judgment": 3129, "\u2581question": 3130, "\u2581received": 3131, "\u2581Vincentio": 3132, "'?": 3133, "AK": 3134, "ek": 3135, "AND": 3136, "HOM": 3137, "ead": 3138, "llo": 3139, "she": 3140, "und": 3141, "\u2581Lo": 3142, "AKEN": 3143, "aper": 3144, "azed": 3145, "ered": 3146, "ilia": 3147, "omer": 3148, "ract": 3149, "rate": 3150, "rift": 3151, "roth": 3152, "vish": 3153, "\u2581Art": 3154, "\u2581Ind": 3155, "\u2581Sic": 3156, "\u2581Tut": 3157, "\u2581spe": 3158, "HOMAS": 3159, "acher": 3160, "anley": 3161, "arden": 3162, "cians": 3163, "ement": 3164, "rison": 3165, "twixt": 3166, "ursed": 3167, "woman": 3168, "\u2581Dost": 3169, "\u2581Jove": 3170, "\u2581Love": 3171, "\u2581Wilt": 3172, "\u2581brow": 3173, "\u2581circ": 3174, "\u2581cure": 3175, "\u2581disg": 3176, "\u2581door": 3177, "\u2581dust": 3178, "\u2581fain": 3179, "\u2581feed": 3180, "\u2581gift": 3181, "\u2581girl": 3182, "\u2581leng": 3183, "\u2581nose": 3184, "\u2581stab": 3185, "\u2581stop": 3186, "ealous": 3187, "idings": 3188, "\u2581Caius": 3189, "\u2581Death": 3190, "\u2581Friar": 3191, "\u2581blest": 3192, "\u2581brows": 3193, "\u2581fiery": 3194, "\u2581ghost": 3195, "\u2581green": 3196, "\u2581gross": 3197, "\u2581grown": 3198, "\u2581joint": 3199, "\u2581knave": 3200, "\u2581pains": 3201, "\u2581proof": 3202, "\u2581sheep": 3203, "\u2581spake": 3204, "\u2581stoop": 3205, "\u2581taken": 3206, "\u2581twice": 3207, "\u2581tyran": 3208, "\u2581BRAKEN": 3209, "\u2581Prince": 3210, "\u2581THOMAS": 3211, "\u2581Verona": 3212, "\u2581affair": 3213, "\u2581always": 3214, "\u2581buried": 3215, "\u2581choice": 3216, "\u2581divine": 3217, "\u2581finger": 3218, "\u2581import": 3219, "\u2581leaves": 3220, "\u2581necess": 3221, "\u2581remedy": 3222, "\u2581repent": 3223, "\u2581sacred": 3224, "\u2581safety": 3225, "\u2581senate": 3226, "\u2581sirrah": 3227, "\u2581spring": 3228, "\u2581undert": 3229, "\u2581whilst": 3230, "\u2581wicked": 3231, "\u2581wither": 3232, "\u2581wrongs": 3233, "\u2581Besides": 3234, "\u2581Brother": 3235, "\u2581Stanley": 3236, "\u2581embrace": 3237, "\u2581prevail": 3238, "\u2581prevent": 3239, "\u2581reasons": 3240, "\u2581silence": 3241, "\u2581therein": 3242, "\u2581thunder": 3243, "\u2581Mistress": 3244, "\u2581creature": 3245, "\u2581innocent": 3246, "\u2581occasion": 3247, "\u2581perceive": 3248, "\u2581traitors": 3249, "\u2581BRAKENBURY": 3250, "?'": 3251, "jo": 3252, "mn": 3253, "sp": 3254, "GOR": 3255, "ONE": 3256, "STR": 3257, "eld": 3258, "hys": 3259, "loy": 3260, "nat": 3261, "oly": 3262, "omp": 3263, "pin": 3264, "shi": 3265, "\u2581AE": 3266, "\u2581OV": 3267, "\u2581ed": 3268, "\u2581es": 3269, "ERBY": 3270, "GORY": 3271, "aced": 3272, "anch": 3273, "aste": 3274, "ault": 3275, "elve": 3276, "hant": 3277, "itol": 3278, "oard": 3279, "orry": 3280, "unts": 3281, "\u2581Apo": 3282, "\u2581avo": 3283, "\u2581cre": 3284, "\u2581dec": 3285, "\u2581eag": 3286, "\u2581ele": 3287, "\u2581emp": 3288, "\u2581lar": 3289, "\u2581rob": 3290, "\u2581shr": 3291, "ctise": 3292, "enius": 3293, "hysic": 3294, "inous": 3295, "\u2581Turn": 3296, "\u2581bark": 3297, "\u2581drop": 3298, "\u2581empt": 3299, "\u2581fury": 3300, "\u2581rock": 3301, "\u2581rude": 3302, "\u2581sail": 3303, "\u2581shar": 3304, "\u2581ship": 3305, "\u2581sits": 3306, "\u2581used": 3307, "\u2581went": 3308, "ERDONE": 3309, "STRESS": 3310, "ardine": 3311, "edious": 3312, "othing": 3313, "unning": 3314, "\u2581DERBY": 3315, "\u2581Somer": 3316, "\u2581adieu": 3317, "\u2581allow": 3318, "\u2581anger": 3319, "\u2581belly": 3320, "\u2581cares": 3321, "\u2581cheek": 3322, "\u2581claim": 3323, "\u2581condu": 3324, "\u2581drawn": 3325, "\u2581fares": 3326, "\u2581langu": 3327, "\u2581loath": 3328, "\u2581loyal": 3329, "\u2581maids": 3330, "\u2581mayor": 3331, "\u2581plead": 3332, "\u2581round": 3333, "\u2581smile": 3334, "\u2581tempt": 3335, "\u2581troth": 3336, "\u2581utter": 3337, "\u2581weeds": 3338, "\u2581wings": 3339, "\u2581Having": 3340, "\u2581Indeed": 3341, "\u2581Myself": 3342, "\u2581assist": 3343, "\u2581broken": 3344, "\u2581design": 3345, "\u2581fright": 3346, "\u2581garden": 3347, "\u2581hollow": 3348, "\u2581inform": 3349, "\u2581knight": 3350, "\u2581oracle": 3351, "\u2581plague": 3352, "\u2581prayer": 3353, "\u2581renown": 3354, "\u2581rotten": 3355, "\u2581stones": 3356, "\u2581wanton": 3357, "aughters": 3358, "\u2581Capitol": 3359, "\u2581GREGORY": 3360, "\u2581Prithee": 3361, "\u2581Wherein": 3362, "\u2581Without": 3363, "\u2581absence": 3364, "\u2581commend": 3365, "\u2581delight": 3366, "\u2581deserve": 3367, "\u2581despite": 3368, "\u2581profess": 3369, "\u2581violent": 3370, "\u2581wherein": 3371, "\u2581MISTRESS": 3372, "\u2581Menenius": 3373, "\u2581OVERDONE": 3374, "\u2581Somerset": 3375, "\u2581deceived": 3376, "\u2581ignorant": 3377, "\u2581imprison": 3378, "\u2581practise": 3379, "\u2581treacher": 3380, "\u2581trumpets": 3381, "\u2581Barnardine": 3382, "\u2581countenance": 3383, "MON": 3384, "act": 3385, "aze": 3386, "cha": 3387, "esy": 3388, "isa": 3389, "mon": 3390, "pet": 3391, "ALER": 3392, "FORD": 3393, "MOND": 3394, "ards": 3395, "ashi": 3396, "cend": 3397, "draw": 3398, "eeth": 3399, "eous": 3400, "haps": 3401, "held": 3402, "ione": 3403, "ises": 3404, "ongs": 3405, "othe": 3406, "rand": 3407, "rehe": 3408, "semb": 3409, "utes": 3410, "\u2581Lea": 3411, "\u2581Pol": 3412, "\u2581Pre": 3413, "\u2581Res": 3414, "\u2581SOM": 3415, "\u2581Sha": 3416, "\u2581aim": 3417, "\u2581amb": 3418, "\u2581det": 3419, "\u2581dew": 3420, "\u2581due": 3421, "\u2581dur": 3422, "\u2581hid": 3423, "\u2581hit": 3424, "\u2581pil": 3425, "\u2581pin": 3426, "\u2581six": 3427, "ERSET": 3428, "iment": 3429, "mione": 3430, "rious": 3431, "\u2581Grey": 3432, "\u2581Into": 3433, "\u2581Know": 3434, "\u2581Mark": 3435, "\u2581Pisa": 3436, "\u2581alas": 3437, "\u2581babe": 3438, "\u2581ball": 3439, "\u2581cell": 3440, "\u2581earn": 3441, "\u2581gain": 3442, "\u2581heav": 3443, "\u2581lamb": 3444, "\u2581loud": 3445, "\u2581nine": 3446, "\u2581ones": 3447, "\u2581pair": 3448, "\u2581pawn": 3449, "\u2581publ": 3450, "\u2581ruin": 3451, "\u2581sens": 3452, "\u2581star": 3453, "\u2581stat": 3454, "\u2581tune": 3455, "\u2581wont": 3456, "ALERIA": 3457, "change": 3458, "ission": 3459, "itting": 3460, "pinion": 3461, "ursday": 3462, "\u2581Great": 3463, "\u2581Three": 3464, "\u2581aught": 3465, "\u2581awake": 3466, "\u2581borne": 3467, "\u2581carry": 3468, "\u2581chief": 3469, "\u2581cries": 3470, "\u2581deare": 3471, "\u2581fatal": 3472, "\u2581fools": 3473, "\u2581gives": 3474, "\u2581names": 3475, "\u2581persu": 3476, "\u2581sighs": 3477, "\u2581steed": 3478, "\u2581stock": 3479, "\u2581storm": 3480, "\u2581stuff": 3481, "\u2581tread": 3482, "\u2581whole": 3483, "\u2581wives": 3484, "\u2581woful": 3485, "onounce": 3486, "\u2581Apollo": 3487, "\u2581Cousin": 3488, "\u2581Rivers": 3489, "\u2581advise": 3490, "\u2581asleep": 3491, "\u2581begins": 3492, "\u2581castle": 3493, "\u2581colour": 3494, "\u2581damned": 3495, "\u2581devise": 3496, "\u2581excell": 3497, "\u2581infect": 3498, "\u2581motion": 3499, "\u2581nobles": 3500, "\u2581number": 3501, "\u2581offend": 3502, "\u2581proper": 3503, "\u2581rememb": 3504, "\u2581resign": 3505, "\u2581simple": 3506, "\u2581supper": 3507, "\u2581thrive": 3508, "\u2581throat": 3509, "\u2581thrust": 3510, "\u2581undone": 3511, "ethought": 3512, "\u2581VALERIA": 3513, "\u2581affairs": 3514, "\u2581becomes": 3515, "\u2581benefit": 3516, "\u2581burthen": 3517, "\u2581deposed": 3518, "\u2581envious": 3519, "\u2581express": 3520, "\u2581farther": 3521, "\u2581follows": 3522, "\u2581hanging": 3523, "\u2581jealous": 3524, "\u2581meaning": 3525, "\u2581outward": 3526, "\u2581passing": 3527, "\u2581pleased": 3528, "\u2581protect": 3529, "\u2581receive": 3530, "\u2581tedious": 3531, "\u2581tidings": 3532, "\u2581vantage": 3533, "\u2581Hermione": 3534, "\u2581Musician": 3535, "\u2581RICHMOND": 3536, "\u2581SOMERSET": 3537, "\u2581Thursday": 3538, "\u2581banished": 3539, "\u2581dreadful": 3540, "\u2581garments": 3541, "\u2581possible": 3542, "\u2581prepared": 3543, "\u2581shouldst": 3544, "\u2581Christian": 3545, "\u2581authority": 3546, "\u2581followers": 3547, "\u2581disposition": 3548, "BH": 3549, "HY": 3550, "SA": 3551, "eg": 3552, "go": 3553, "ub": 3554, "ene": 3555, "enn": 3556, "gle": 3557, "hop": 3558, "rib": 3559, "ron": 3560, "run": 3561, "thi": 3562, "\u2581Bi": 3563, "\u2581er": 3564, "\u2581ir": 3565, "BHOR": 3566, "BRAY": 3567, "ETER": 3568, "LIUS": 3569, "OPSA": 3570, "USHY": 3571, "anct": 3572, "ancy": 3573, "arch": 3574, "ared": 3575, "atsw": 3576, "cing": 3577, "ello": 3578, "iffe": 3579, "ills": 3580, "ldom": 3581, "ords": 3582, "room": 3583, "yard": 3584, "yond": 3585, "\u2581Boy": 3586, "\u2581Has": 3587, "\u2581MOW": 3588, "\u2581bew": 3589, "\u2581cal": 3590, "\u2581cam": 3591, "\u2581equ": 3592, "\u2581lip": 3593, "\u2581lod": 3594, "\u2581owe": 3595, "\u2581sup": 3596, "\u2581top": 3597, "\u2581van": 3598, "after": 3599, "eding": 3600, "ellow": 3601, "erved": 3602, "imely": 3603, "itude": 3604, "loved": 3605, "orses": 3606, "ounty": 3607, "ouses": 3608, "place": 3609, "usion": 3610, "\u2581Bona": 3611, "\u2581Help": 3612, "\u2581Very": 3613, "\u2581ange": 3614, "\u2581band": 3615, "\u2581bond": 3616, "\u2581cens": 3617, "\u2581conj": 3618, "\u2581disd": 3619, "\u2581drum": 3620, "\u2581gage": 3621, "\u2581hurt": 3622, "\u2581lean": 3623, "\u2581legs": 3624, "\u2581lend": 3625, "\u2581prey": 3626, "\u2581quit": 3627, "\u2581rash": 3628, "\u2581room": 3629, "\u2581seas": 3630, "\u2581shut": 3631, "\u2581step": 3632, "\u2581sway": 3633, "\u2581tort": 3634, "\u2581weap": 3635, "\u2581wine": 3636, "enture": 3637, "illing": 3638, "iteous": 3639, "ixenes": 3640, "ortion": 3641, "\u2581ABHOR": 3642, "\u2581BUSHY": 3643, "\u2581Biond": 3644, "\u2581Leave": 3645, "\u2581MAMIL": 3646, "\u2581MOPSA": 3647, "\u2581Still": 3648, "\u2581accus": 3649, "\u2581brook": 3650, "\u2581chair": 3651, "\u2581clear": 3652, "\u2581crack": 3653, "\u2581curst": 3654, "\u2581delay": 3655, "\u2581empty": 3656, "\u2581exile": 3657, "\u2581keeps": 3658, "\u2581mourn": 3659, "\u2581paper": 3660, "\u2581parts": 3661, "\u2581penit": 3662, "\u2581peril": 3663, "\u2581prize": 3664, "\u2581sanct": 3665, "\u2581sorry": 3666, "\u2581speci": 3667, "\u2581spend": 3668, "\u2581store": 3669, "\u2581taste": 3670, "\u2581teeth": 3671, "\u2581trans": 3672, "\u2581unnat": 3673, "\u2581until": 3674, "\u2581wrath": 3675, "atswain": 3676, "utation": 3677, "\u2581Tailor": 3678, "\u2581accept": 3679, "\u2581access": 3680, "\u2581accuse": 3681, "\u2581affect": 3682, "\u2581beheld": 3683, "\u2581belike": 3684, "\u2581circum": 3685, "\u2581denied": 3686, "\u2581desert": 3687, "\u2581dinner": 3688, "\u2581flight": 3689, "\u2581humbly": 3690, "\u2581intend": 3691, "\u2581kingly": 3692, "\u2581palace": 3693, "\u2581partic": 3694, "\u2581perish": 3695, "\u2581physic": 3696, "\u2581punish": 3697, "\u2581shadow": 3698, "\u2581silver": 3699, "\u2581solemn": 3700, "\u2581twelve": 3701, "\u2581wander": 3702, "\u2581weight": 3703, "\u2581Believe": 3704, "\u2581MOWBRAY": 3705, "\u2581Officer": 3706, "\u2581betwixt": 3707, "\u2581conquer": 3708, "\u2581corrupt": 3709, "\u2581cunning": 3710, "\u2581perfect": 3711, "\u2581protest": 3712, "\u2581resolve": 3713, "\u2581several": 3714, "\u2581spirits": 3715, "\u2581wedding": 3716, "\u2581whither": 3717, "\u2581ABHORSON": 3718, "\u2581continue": 3719, "\u2581contrary": 3720, "\u2581courtesy": 3721, "\u2581forsworn": 3722, "\u2581goodness": 3723, "\u2581murderer": 3724, "\u2581petition": 3725, "\u2581pleasant": 3726, "\u2581resolved": 3727, "\u2581threaten": 3728, "\u2581Biondello": 3729, "\u2581MAMILLIUS": 3730, "\u2581Polixenes": 3731, "\u2581advantage": 3732, "\u2581daughters": 3733, "\u2581miserable": 3734, "\u2581neighbour": 3735, "\u2581gentlewoman": 3736, "CH": 3737, "af": 3738, "dy": 3739, "rt": 3740, "RCH": 3741, "aff": 3742, "ane": 3743, "cio": 3744, "ept": 3745, "irg": 3746, "oke": 3747, "oot": 3748, "ote": 3749, "pic": 3750, "que": 3751, "ung": 3752, "\u2581Co": 3753, "\u2581di": 3754, "\u2581pi": 3755, "ALTH": 3756, "ASAR": 3757, "ERCY": 3758, "amed": 3759, "cape": 3760, "cian": 3761, "ency": 3762, "erve": 3763, "mity": 3764, "oler": 3765, "outs": 3766, "ping": 3767, "sequ": 3768, "sing": 3769, "uted": 3770, "\u2581AEd": 3771, "\u2581Nap": 3772, "\u2581Rep": 3773, "\u2581Two": 3774, "\u2581ado": 3775, "\u2581arg": 3776, "\u2581bas": 3777, "\u2581bud": 3778, "\u2581clo": 3779, "\u2581cup": 3780, "\u2581dag": 3781, "\u2581fee": 3782, "\u2581fle": 3783, "\u2581fro": 3784, "\u2581sep": 3785, "\u2581tut": 3786, "\u2581wol": 3787, "\u2581wot": 3788, "aries": 3789, "clock": 3790, "ising": 3791, "kedom": 3792, "pping": 3793, "rease": 3794, "umble": 3795, "\u2581ARCH": 3796, "\u2581Bear": 3797, "\u2581None": 3798, "\u2581Only": 3799, "\u2581amen": 3800, "\u2581calm": 3801, "\u2581comb": 3802, "\u2581debt": 3803, "\u2581dies": 3804, "\u2581dign": 3805, "\u2581diss": 3806, "\u2581ends": 3807, "\u2581fail": 3808, "\u2581gate": 3809, "\u2581hark": 3810, "\u2581heed": 3811, "\u2581hunt": 3812, "\u2581joys": 3813, "\u2581mend": 3814, "\u2581miss": 3815, "\u2581plot": 3816, "\u2581pure": 3817, "\u2581rose": 3818, "\u2581slow": 3819, "\u2581tomb": 3820, "\u2581ways": 3821, "\u2581wits": 3822, "\u2581wond": 3823, "\u2581wood": 3824, "igence": 3825, "lesome": 3826, "ourish": 3827, "picion": 3828, "urance": 3829, "urious": 3830, "ustice": 3831, "\u2581BALTH": 3832, "\u2581Mayor": 3833, "\u2581Might": 3834, "\u2581PERCY": 3835, "\u2581Right": 3836, "\u2581chide": 3837, "\u2581dares": 3838, "\u2581durst": 3839, "\u2581faces": 3840, "\u2581fashi": 3841, "\u2581folly": 3842, "\u2581griev": 3843, "\u2581groan": 3844, "\u2581hopes": 3845, "\u2581large": 3846, "\u2581naked": 3847, "\u2581scept": 3848, "\u2581seest": 3849, "\u2581sharp": 3850, "\u2581spare": 3851, "\u2581story": 3852, "\u2581table": 3853, "\u2581tremb": 3854, "\u2581turns": 3855, "\u2581weigh": 3856, "\u2581whore": 3857, "\u2581wreck": 3858, "hearted": 3859, "\u2581BISHOP": 3860, "\u2581Father": 3861, "\u2581French": 3862, "\u2581beyond": 3863, "\u2581bodies": 3864, "\u2581called": 3865, "\u2581comple": 3866, "\u2581credit": 3867, "\u2581crowns": 3868, "\u2581cursed": 3869, "\u2581curses": 3870, "\u2581employ": 3871, "\u2581endure": 3872, "\u2581expect": 3873, "\u2581fairly": 3874, "\u2581hatred": 3875, "\u2581horses": 3876, "\u2581intent": 3877, "\u2581joyful": 3878, "\u2581making": 3879, "\u2581market": 3880, "\u2581misery": 3881, "\u2581perpet": 3882, "\u2581public": 3883, "\u2581quench": 3884, "\u2581reward": 3885, "\u2581seeing": 3886, "\u2581spoken": 3887, "\u2581temper": 3888, "\u2581terror": 3889, "\u2581theirs": 3890, "\u2581waters": 3891, "\u2581whiles": 3892, "\u2581yonder": 3893, "\u2581Beseech": 3894, "\u2581Marshal": 3895, "\u2581Nothing": 3896, "\u2581advance": 3897, "\u2581apparel": 3898, "\u2581attempt": 3899, "\u2581beloved": 3900, "\u2581colours": 3901, "\u2581courage": 3902, "\u2581dukedom": 3903, "\u2581looking": 3904, "\u2581mistake": 3905, "\u2581natural": 3906, "\u2581needful": 3907, "\u2581opinion": 3908, "\u2581painted": 3909, "\u2581piteous": 3910, "\u2581princes": 3911, "\u2581remains": 3912, "\u2581shortly": 3913, "\u2581swallow": 3914, "\u2581wounded": 3915, "\u2581complain": 3916, "\u2581discover": 3917, "\u2581fortunes": 3918, "\u2581instruct": 3919, "\u2581language": 3920, "\u2581princess": 3921, "\u2581senators": 3922, "\u2581services": 3923, "\u2581sometime": 3924, "\u2581BALTHASAR": 3925, "\u2581assurance": 3926, "\u2581commanded": 3927, "\u2581excellent": 3928, "\u2581happiness": 3929, "\u2581hereafter": 3930, "\u2581obedience": 3931, "\u2581pronounce": 3932, "\u2581sometimes": 3933, "\u2581undertake": 3934, "\u2581unnatural": 3935, "\u2581discontent": 3936, "\u2581government": 3937, "\u2581instrument": 3938, "\u2581counterfeit": 3939, "\u2581remembrance": 3940, "OS": 3941, "oe": 3942, "ys": 3943, "?--": 3944, "CAS": 3945, "FOL": 3946, "OSS": 3947, "afe": 3948, "bow": 3949, "dds": 3950, "fer": 3951, "hor": 3952, "ita": 3953, "lar": 3954, "lic": 3955, "val": 3956, "whe": 3957, "\u2581El": 3958, "\u2581Le": 3959, "FOLK": 3960, "ants": 3961, "arts": 3962, "atic": 3963, "born": 3964, "gers": 3965, "hest": 3966, "noon": 3967, "oved": 3968, "same": 3969, "uary": 3970, "uses": 3971, "what": 3972, "wise": 3973, "\u2581App": 3974, "\u2581Cal": 3975, "\u2581Lay": 3976, "\u2581Rem": 3977, "\u2581Ret": 3978, "\u2581Ros": 3979, "\u2581Set": 3980, "\u2581Tit": 3981, "\u2581gru": 3982, "\u2581haz": 3983, "\u2581imm": 3984, "\u2581its": 3985, "\u2581kin": 3986, "\u2581led": 3987, "\u2581mag": 3988, "\u2581odd": 3989, "\u2581pol": 3990, "\u2581sky": 3991, "\u2581tap": 3992, "\u2581ung": 3993, "\u2581vex": 3994, "akest": 3995, "arent": 3996, "ences": 3997, "happy": 3998, "ieved": 3999, "ified": 4000, "ishop": 4001, "isper": 4002, "olute": 4003, "orset": 4004, "think": 4005, "ument": 4006, "vours": 4007, "\u2581Amen": 4008, "\u2581Comm": 4009, "\u2581Dear": 4010, "\u2581Four": 4011, "\u2581Jack": 4012, "\u2581Long": 4013, "\u2581Page": 4014, "\u2581Post": 4015, "\u2581ROSS": 4016, "\u2581Sold": 4017, "\u2581bare": 4018, "\u2581boar": 4019, "\u2581bott": 4020, "\u2581cock": 4021, "\u2581conc": 4022, "\u2581east": 4023, "\u2581fame": 4024, "\u2581grey": 4025, "\u2581host": 4026, "\u2581isle": 4027, "\u2581mere": 4028, "\u2581mile": 4029, "\u2581mill": 4030, "\u2581odds": 4031, "\u2581qual": 4032, "\u2581repe": 4033, "\u2581ring": 4034, "\u2581rule": 4035, "\u2581shun": 4036, "\u2581sink": 4037, "\u2581sins": 4038, "\u2581slay": 4039, "\u2581stol": 4040, "\u2581test": 4041, "\u2581virg": 4042, "\u2581wait": 4043, "\u2581worn": 4044, "chance": 4045, "ctions": 4046, "idence": 4047, "ourage": 4048, "strous": 4049, "uteous": 4050, "\u2581Lucio": 4051, "\u2581March": 4052, "\u2581Those": 4053, "\u2581Widow": 4054, "\u2581Young": 4055, "\u2581alter": 4056, "\u2581block": 4057, "\u2581blush": 4058, "\u2581brain": 4059, "\u2581cease": 4060, "\u2581drops": 4061, "\u2581drums": 4062, "\u2581flies": 4063, "\u2581frame": 4064, "\u2581grows": 4065, "\u2581journ": 4066, "\u2581knife": 4067, "\u2581leads": 4068, "\u2581maint": 4069, "\u2581meant": 4070, "\u2581oppos": 4071, "\u2581realm": 4072, "\u2581rogue": 4073, "\u2581scene": 4074, "\u2581scope": 4075, "\u2581seize": 4076, "\u2581shape": 4077, "\u2581slept": 4078, "\u2581spite": 4079, "\u2581strew": 4080, "\u2581terms": 4081, "\u2581thief": 4082, "\u2581trade": 4083, "\u2581trick": 4084, "\u2581vault": 4085, "\u2581venom": 4086, "\u2581wants": 4087, "\u2581winds": 4088, "\u2581write": 4089, "ination": 4090, "ression": 4091, "\u2581DORCAS": 4092, "\u2581Dorset": 4093, "\u2581Exeter": 4094, "\u2581Naples": 4095, "\u2581Volsce": 4096, "\u2581Worthy": 4097, "\u2581absent": 4098, "\u2581accord": 4099, "\u2581advers": 4100, "\u2581armour": 4101, "\u2581behalf": 4102, "\u2581brings": 4103, "\u2581camest": 4104, "\u2581choler": 4105, "\u2581comest": 4106, "\u2581compan": 4107, "\u2581dagger": 4108, "\u2581degree": 4109, "\u2581direct": 4110, "\u2581enmity": 4111, "\u2581freely": 4112, "\u2581houses": 4113, "\u2581imposs": 4114, "\u2581intell": 4115, "\u2581island": 4116, "\u2581maiden": 4117, "\u2581nought": 4118, "\u2581powers": 4119, "\u2581praise": 4120, "\u2581purcha": 4121, "\u2581repair": 4122, "\u2581serves": 4123, "\u2581smooth": 4124, "\u2581NORFOLK": 4125, "\u2581Whither": 4126, "\u2581apprehe": 4127, "\u2581captain": 4128, "\u2581compass": 4129, "\u2581disdain": 4130, "\u2581earnest": 4131, "\u2581fathers": 4132, "\u2581granted": 4133, "\u2581hateful": 4134, "\u2581instant": 4135, "\u2581manners": 4136, "\u2581passage": 4137, "\u2581passion": 4138, "\u2581privile": 4139, "\u2581sceptre": 4140, "\u2581seeming": 4141, "\u2581torment": 4142, "\u2581unknown": 4143, "\u2581weather": 4144, "\u2581approach": 4145, "\u2581consider": 4146, "\u2581contract": 4147, "\u2581deserves": 4148, "\u2581friendly": 4149, "\u2581glorious": 4150, "\u2581increase": 4151, "\u2581reverend": 4152, "\u2581untimely": 4153, "\u2581Boatswain": 4154, "\u2581Gentlemen": 4155, "\u2581contented": 4156, "\u2581monstrous": 4157, "\u2581respected": 4158, "\u2581suspicion": 4159, "\u2581particular": 4160, "\u2581prosperous": 4161, "\u2581resolution": 4162, "\u2581treacherous": 4163, "GH": 4164, "NS": 4165, "RR": 4166, "fl": 4167, "God": 4168, "NSO": 4169, "SET": 4170, "elt": 4171, "iny": 4172, "kin": 4173, "ped": 4174, "rey": 4175, "ric": 4176, "uce": 4177, "\u2581Se": 4178, "\u2581Ye": 4179, "\u2581da": 4180, "RREL": 4181, "ades": 4182, "ales": 4183, "atcl": 4184, "erns": 4185, "fret": 4186, "iate": 4187, "iven": 4188, "just": 4189, "oral": 4190, "rain": 4191, "reme": 4192, "ruly": 4193, "\u2581ALO": 4194, "\u2581Ber": 4195, "\u2581Bra": 4196, "\u2581Ire": 4197, "\u2581Lau": 4198, "\u2581Mil": 4199, "\u2581Pat": 4200, "\u2581Rom": 4201, "\u2581Son": 4202, "\u2581dig": 4203, "\u2581dri": 4204, "\u2581ens": 4205, "\u2581fig": 4206, "\u2581glo": 4207, "\u2581ing": 4208, "\u2581jew": 4209, "\u2581rap": 4210, "\u2581spr": 4211, "\u2581squ": 4212, "ERDIN": 4213, "aline": 4214, "ances": 4215, "andal": 4216, "ature": 4217, "ember": 4218, "raced": 4219, "\u2581Came": 4220, "\u2581Down": 4221, "\u2581Play": 4222, "\u2581Save": 4223, "\u2581Stri": 4224, "\u2581Supp": 4225, "\u2581able": 4226, "\u2581bird": 4227, "\u2581braw": 4228, "\u2581bury": 4229, "\u2581chat": 4230, "\u2581clam": 4231, "\u2581furn": 4232, "\u2581lark": 4233, "\u2581lion": 4234, "\u2581melt": 4235, "\u2581nobl": 4236, "\u2581perj": 4237, "\u2581puts": 4238, "\u2581roar": 4239, "\u2581ruth": 4240, "\u2581spur": 4241, "\u2581suck": 4242, "\u2581tame": 4243, "\u2581tide": 4244, "\u2581vows": 4245, "\u2581wept": 4246, "\u2581About": 4247, "\u2581Bring": 4248, "\u2581Froth": 4249, "\u2581GREEN": 4250, "\u2581Ghost": 4251, "\u2581Hunts": 4252, "\u2581Ratcl": 4253, "\u2581Titus": 4254, "\u2581Until": 4255, "\u2581abhor": 4256, "\u2581adver": 4257, "\u2581affli": 4258, "\u2581alike": 4259, "\u2581avoid": 4260, "\u2581beard": 4261, "\u2581begun": 4262, "\u2581boots": 4263, "\u2581build": 4264, "\u2581catch": 4265, "\u2581conce": 4266, "\u2581daily": 4267, "\u2581dress": 4268, "\u2581dying": 4269, "\u2581elder": 4270, "\u2581fears": 4271, "\u2581finds": 4272, "\u2581flatt": 4273, "\u2581haply": 4274, "\u2581hasty": 4275, "\u2581holds": 4276, "\u2581lusty": 4277, "\u2581nobly": 4278, "\u2581north": 4279, "\u2581parli": 4280, "\u2581patri": 4281, "\u2581peers": 4282, "\u2581press": 4283, "\u2581provo": 4284, "\u2581purse": 4285, "\u2581raise": 4286, "\u2581recom": 4287, "\u2581revol": 4288, "\u2581sends": 4289, "\u2581south": 4290, "\u2581stamp": 4291, "\u2581study": 4292, "\u2581swell": 4293, "\u2581tells": 4294, "\u2581third": 4295, "\u2581thorn": 4296, "\u2581urged": 4297, "\u2581veins": 4298, "\u2581waste": 4299, "\u2581witch": 4300, "\u2581AEdile": 4301, "\u2581ALONSO": 4302, "\u2581DORSET": 4303, "\u2581FERDIN": 4304, "\u2581Romans": 4305, "\u2581TYRREL": 4306, "\u2581Thanks": 4307, "\u2581aboard": 4308, "\u2581advice": 4309, "\u2581amazed": 4310, "\u2581county": 4311, "\u2581darest": 4312, "\u2581disper": 4313, "\u2581estate": 4314, "\u2581famous": 4315, "\u2581gently": 4316, "\u2581giving": 4317, "\u2581grieve": 4318, "\u2581groans": 4319, "\u2581hanged": 4320, "\u2581hardly": 4321, "\u2581kindly": 4322, "\u2581lovely": 4323, "\u2581muster": 4324, "\u2581parent": 4325, "\u2581pieces": 4326, "\u2581profit": 4327, "\u2581rascal": 4328, "\u2581rebell": 4329, "\u2581record": 4330, "\u2581season": 4331, "\u2581silent": 4332, "\u2581single": 4333, "\u2581smiles": 4334, "\u2581taught": 4335, "\u2581thrice": 4336, "\u2581unless": 4337, "\u2581virgin": 4338, "\u2581wealth": 4339, "\u2581worthi": 4340, "\u2581Conspir": 4341, "\u2581Ireland": 4342, "\u2581Pomfret": 4343, "\u2581Sicilia": 4344, "\u2581Soldier": 4345, "\u2581accused": 4346, "\u2581arrived": 4347, "\u2581assured": 4348, "\u2581bearing": 4349, "\u2581bethink": 4350, "\u2581charged": 4351, "\u2581conceit": 4352, "\u2581conduct": 4353, "\u2581current": 4354, "\u2581destroy": 4355, "\u2581enforce": 4356, "\u2581forbear": 4357, "\u2581garland": 4358, "\u2581journey": 4359, "\u2581soundly": 4360, "\u2581special": 4361, "\u2581streets": 4362, "\u2581warlike": 4363, "\u2581whereof": 4364, "\u2581whisper": 4365, "\u2581willing": 4366, "\u2581wrought": 4367, "\u2581Huntsman": 4368, "\u2581Ratcliff": 4369, "\u2581Rosaline": 4370, "\u2581circumst": 4371, "\u2581constant": 4372, "\u2581greatest": 4373, "\u2581grievous": 4374, "\u2581maintain": 4375, "\u2581perforce": 4376, "\u2581revenged": 4377, "\u2581shoulder": 4378, "\u2581supposed": 4379, "\u2581FERDINAND": 4380, "\u2581afternoon": 4381, "\u2581committed": 4382, "\u2581messenger": 4383, "\u2581perpetual": 4384, "\u2581protector": 4385, "\u2581sanctuary": 4386, "\u2581willingly": 4387, "\u2581affections": 4388, "\u2581commission": 4389, "\u2581parliament": 4390, "\u2581instruments": 4391, "\u2581imprisonment": 4392, "Th": 4393, "gl": 4394, "ib": 4395, "pr": 4396, "zz": 4397, "\u2581z": 4398, ";--": 4399, "LIS": 4400, "aly": 4401, "ams": 4402, "cei": 4403, "con": 4404, "dig": 4405, "eat": 4406, "gar": 4407, "icy": 4408, "ipe": 4409, "ipp": 4410, "ker": 4411, "law": 4412, "nal": 4413, "nty": 4414, "rac": 4415, "ser": 4416, "uch": 4417, "ulf": 4418, "upt": 4419, "vet": 4420, "\u2581Fo": 4421, "\u2581Ho": 4422, "\u2581Sm": 4423, "\u2581Vi": 4424, "\u2581fi": 4425, "\u2581sy": 4426, "aces": 4427, "aded": 4428, "ages": 4429, "alis": 4430, "ater": 4431, "clam": 4432, "deem": 4433, "eder": 4434, "enna": 4435, "erby": 4436, "erer": 4437, "esar": 4438, "fall": 4439, "grim": 4440, "iety": 4441, "llen": 4442, "more": 4443, "mory": 4444, "omen": 4445, "onci": 4446, "owry": 4447, "pass": 4448, "roll": 4449, "rrel": 4450, "ties": 4451, "time": 4452, "tled": 4453, "uing": 4454, "uten": 4455, "vior": 4456, "\u2581Acc": 4457, "\u2581Ben": 4458, "\u2581Bus": 4459, "\u2581Min": 4460, "\u2581Six": 4461, "\u2581Tar": 4462, "\u2581ach": 4463, "\u2581ago": 4464, "\u2581apt": 4465, "\u2581dim": 4466, "\u2581fun": 4467, "\u2581hie": 4468, "\u2581hor": 4469, "\u2581lin": 4470, "\u2581mel": 4471, "\u2581mir": 4472, "\u2581oak": 4473, "\u2581pot": 4474, "\u2581sal": 4475, "\u2581sue": 4476, "\u2581une": 4477, "\u2581ves": 4478, "Twere": 4479, "aming": 4480, "ative": 4481, "erity": 4482, "ested": 4483, "etite": 4484, "faced": 4485, "forth": 4486, "groom": 4487, "harge": 4488, "ierce": 4489, "ignty": 4490, "orted": 4491, "osing": 4492, "ouchs": 4493, "ourse": 4494, "shire": 4495, "ulate": 4496, "ullus": 4497, "\u2581Anti": 4498, "\u2581Cond": 4499, "\u2581Conf": 4500, "\u2581Dare": 4501, "\u2581Draw": 4502, "\u2581aunt": 4503, "\u2581bade": 4504, "\u2581begu": 4505, "\u2581boys": 4506, "\u2581cere": 4507, "\u2581cher": 4508, "\u2581clim": 4509, "\u2581feet": 4510, "\u2581food": 4511, "\u2581fors": 4512, "\u2581frow": 4513, "\u2581helm": 4514, "\u2581holp": 4515, "\u2581horn": 4516, "\u2581inqu": 4517, "\u2581lent": 4518, "\u2581mult": 4519, "\u2581nail": 4520, "\u2581port": 4521, "\u2581rare": 4522, "\u2581reck": 4523, "\u2581rejo": 4524, "\u2581rust": 4525, "\u2581salt": 4526, "\u2581sees": 4527, "\u2581sell": 4528, "\u2581sets": 4529, "\u2581sire": 4530, "\u2581snow": 4531, "\u2581sore": 4532, "\u2581sple": 4533, "\u2581stro": 4534, "\u2581tall": 4535, "\u2581task": 4536, "\u2581unst": 4537, "\u2581whip": 4538, "\u2581wide": 4539, "\u2581wing": 4540, "\u2581yoke": 4541, "\u2581yond": 4542, "eeming": 4543, "father": 4544, "forced": 4545, "semble": 4546, "soever": 4547, "\u2581Derby": 4548, "\u2581Makes": 4549, "\u2581Milan": 4550, "\u2581Noble": 4551, "\u2581Salis": 4552, "\u2581abide": 4553, "\u2581agree": 4554, "\u2581alack": 4555, "\u2581below": 4556, "\u2581blunt": 4557, "\u2581books": 4558, "\u2581brace": 4559, "\u2581chase": 4560, "\u2581confe": 4561, "\u2581corre": 4562, "\u2581craft": 4563, "\u2581diffe": 4564, "\u2581equal": 4565, "\u2581event": 4566, "\u2581exerc": 4567, "\u2581fancy": 4568, "\u2581fires": 4569, "\u2581flood": 4570, "\u2581habit": 4571, "\u2581image": 4572, "\u2581manif": 4573, "\u2581merit": 4574, "\u2581newly": 4575, "\u2581oaths": 4576, "\u2581pitch": 4577, "\u2581pound": 4578, "\u2581prett": 4579, "\u2581prick": 4580, "\u2581regal": 4581, "\u2581ruled": 4582, "\u2581smell": 4583, "\u2581sooth": 4584, "\u2581stabb": 4585, "\u2581sting": 4586, "\u2581stopp": 4587, "\u2581stout": 4588, "\u2581stret": 4589, "\u2581tarry": 4590, "\u2581twain": 4591, "\u2581weeps": 4592, "\u2581wrink": 4593, "ancholy": 4594, "itation": 4595, "ruction": 4596, "utenant": 4597, "\u2581Caesar": 4598, "\u2581Cannot": 4599, "\u2581Fourth": 4600, "\u2581Marian": 4601, "\u2581Rather": 4602, "\u2581Tyrrel": 4603, "\u2581Vienna": 4604, "\u2581appeal": 4605, "\u2581assure": 4606, "\u2581ballad": 4607, "\u2581barren": 4608, "\u2581beasts": 4609, "\u2581betray": 4610, "\u2581caught": 4611, "\u2581charac": 4612, "\u2581deceit": 4613, "\u2581disple": 4614, "\u2581fairer": 4615, "\u2581forced": 4616, "\u2581graves": 4617, "\u2581knaves": 4618, "\u2581length": 4619, "\u2581mouths": 4620, "\u2581native": 4621, "\u2581partly": 4622, "\u2581points": 4623, "\u2581raised": 4624, "\u2581redeem": 4625, "\u2581regard": 4626, "\u2581resist": 4627, "\u2581saying": 4628, "\u2581secure": 4629, "\u2581shield": 4630, "\u2581slaves": 4631, "\u2581stroke": 4632, "\u2581surely": 4633, "\u2581unjust": 4634, "\u2581unkind": 4635, "\u2581vessel": 4636, "\u2581waking": 4637, "\u2581Proceed": 4638, "\u2581besides": 4639, "\u2581betimes": 4640, "\u2581commons": 4641, "\u2581complex": 4642, "\u2581defence": 4643, "\u2581descend": 4644, "\u2581desires": 4645, "\u2581dignity": 4646, "\u2581fairest": 4647, "\u2581fashion": 4648, "\u2581feeling": 4649, "\u2581forfeit": 4650, "\u2581forgive": 4651, "\u2581froward": 4652, "\u2581parting": 4653, "\u2581pilgrim": 4654, "\u2581reconci": 4655, "\u2581substit": 4656, "\u2581suspect": 4657, "\u2581tempest": 4658, "\u2581tremble": 4659, "\u2581trumpet": 4660, "\u2581tyranny": 4661, "\u2581unhappy": 4662, "\u2581virtues": 4663, "\u2581accident": 4664, "\u2581alliance": 4665, "\u2581although": 4666, "\u2581apparent": 4667, "\u2581appetite": 4668, "\u2581breathed": 4669, "\u2581contempt": 4670, "\u2581devotion": 4671, "\u2581disgrace": 4672, "\u2581exchange": 4673, "\u2581faithful": 4674, "\u2581forswear": 4675, "\u2581mistrust": 4676, "\u2581obedient": 4677, "\u2581offended": 4678, "\u2581penitent": 4679, "\u2581powerful": 4680, "\u2581renowned": 4681, "\u2581sickness": 4682, "\u2581standing": 4683, "\u2581treasure": 4684, "\u2581weakness": 4685, "\u2581Salisbury": 4686, "\u2581according": 4687, "\u2581beholding": 4688, "\u2581complaint": 4689, "\u2581falsehood": 4690, "\u2581household": 4691, "\u2581rebellion": 4692, "\u2581reverence": 4693, "\u2581wholesome": 4694, "\u2581bridegroom": 4695, "\u2581conference": 4696, "\u2581determined": 4697, "\u2581impossible": 4698, "\u2581melancholy": 4699, "\u2581patricians": 4700, "\u2581sovereignty": 4701, "\u2581entertainment": 4702, "Ay": 4703, "DR": 4704, "IT": 4705, "gn": 4706, "ns": 4707, "rs": 4708, "xe": 4709, ".--": 4710, "EOM": 4711, "LOU": 4712, "bod": 4713, "com": 4714, "eve": 4715, "iam": 4716, "nes": 4717, "rat": 4718, "tic": 4719, "uit": 4720, "\u2581Af": 4721, "\u2581Aw": 4722, "\u2581Kn": 4723, "\u2581Ra": 4724, "GHBY": 4725, "ROTH": 4726, "ases": 4727, "bear": 4728, "cary": 4729, "cate": 4730, "cies": 4731, "dita": 4732, "fold": 4733, "ical": 4734, "illy": 4735, "inct": 4736, "irty": 4737, "iter": 4738, "ivil": 4739, "ized": 4740, "long": 4741, "maid": 4742, "mong": 4743, "onst": 4744, "sell": 4745, "teen": 4746, "ulch": 4747, "weal": 4748, "wife": 4749, "\u2581ADR": 4750, "\u2581Cle": 4751, "\u2581Cry": 4752, "\u2581Cur": 4753, "\u2581Get": 4754, "\u2581Him": 4755, "\u2581Lie": 4756, "\u2581Thr": 4757, "\u2581Val": 4758, "\u2581Ven": 4759, "\u2581WIL": 4760, "\u2581axe": 4761, "\u2581bir": 4762, "\u2581bon": 4763, "\u2581deb": 4764, "\u2581eng": 4765, "\u2581jot": 4766, "\u2581lap": 4767, "\u2581nap": 4768, "\u2581ope": 4769, "\u2581ped": 4770, "\u2581pee": 4771, "\u2581spl": 4772, "\u2581spy": 4773, "\u2581ste": 4774, "\u2581suc": 4775, "\u2581tim": 4776, "\u2581var": 4777, "\u2581vel": 4778, "\u2581vol": 4779, "\u2581wid": 4780, "\u2581yes": 4781, "aning": 4782, "earer": 4783, "erves": 4784, "herit": 4785, "icles": 4786, "imble": 4787, "irect": 4788, "itten": 4789, "omach": 4790, "ories": 4791, "othes": 4792, "otted": 4793, "stery": 4794, "uries": 4795, "ushes": 4796, "\u2581Anon": 4797, "\u2581Betw": 4798, "\u2581Each": 4799, "\u2581Fort": 4800, "\u2581Hail": 4801, "\u2581Lart": 4802, "\u2581Many": 4803, "\u2581Soft": 4804, "\u2581Time": 4805, "\u2581Tush": 4806, "\u2581Vill": 4807, "\u2581blem": 4808, "\u2581bran": 4809, "\u2581bred": 4810, "\u2581buck": 4811, "\u2581coff": 4812, "\u2581cost": 4813, "\u2581curt": 4814, "\u2581deck": 4815, "\u2581decl": 4816, "\u2581edge": 4817, "\u2581fact": 4818, "\u2581fawn": 4819, "\u2581fish": 4820, "\u2581gaze": 4821, "\u2581grat": 4822, "\u2581iron": 4823, "\u2581knot": 4824, "\u2581lift": 4825, "\u2581line": 4826, "\u2581mess": 4827, "\u2581mood": 4828, "\u2581rail": 4829, "\u2581rain": 4830, "\u2581reap": 4831, "\u2581ride": 4832, "\u2581ripe": 4833, "\u2581sham": 4834, "\u2581shri": 4835, "\u2581slip": 4836, "\u2581spit": 4837, "\u2581tail": 4838, "\u2581toad": 4839, "\u2581toil": 4840, "\u2581tres": 4841, "\u2581wake": 4842, "\u2581west": 4843, "\u2581whit": 4844, "\u2581wink": 4845, "bation": 4846, "itable": 4847, "seless": 4848, "\u2581Among": 4849, "\u2581Bushy": 4850, "\u2581CLEOM": 4851, "\u2581Didst": 4852, "\u2581FROTH": 4853, "\u2581Happy": 4854, "\u2581Italy": 4855, "\u2581Somet": 4856, "\u2581Sound": 4857, "\u2581Uncle": 4858, "\u2581babes": 4859, "\u2581began": 4860, "\u2581burst": 4861, "\u2581chall": 4862, "\u2581civil": 4863, "\u2581coron": 4864, "\u2581counc": 4865, "\u2581disgu": 4866, "\u2581dowry": 4867, "\u2581eagle": 4868, "\u2581estim": 4869, "\u2581hangs": 4870, "\u2581harsh": 4871, "\u2581hated": 4872, "\u2581heirs": 4873, "\u2581human": 4874, "\u2581impat": 4875, "\u2581incen": 4876, "\u2581innoc": 4877, "\u2581liken": 4878, "\u2581lover": 4879, "\u2581marks": 4880, "\u2581minds": 4881, "\u2581mirth": 4882, "\u2581negle": 4883, "\u2581occup": 4884, "\u2581offic": 4885, "\u2581pause": 4886, "\u2581scold": 4887, "\u2581spect": 4888, "\u2581stick": 4889, "\u2581super": 4890, "\u2581swain": 4891, "\u2581takes": 4892, "\u2581taunt": 4893, "\u2581thick": 4894, "\u2581tooth": 4895, "\u2581wager": 4896, "\u2581wakes": 4897, "\u2581warri": 4898, "LOUGHBY": 4899, "\u2581ADRIAN": 4900, "\u2581Behold": 4901, "\u2581Better": 4902, "\u2581County": 4903, "\u2581Follow": 4904, "\u2581Return": 4905, "\u2581Tullus": 4906, "\u2581abused": 4907, "\u2581bigger": 4908, "\u2581chaste": 4909, "\u2581craves": 4910, "\u2581dearly": 4911, "\u2581deaths": 4912, "\u2581dismal": 4913, "\u2581fierce": 4914, "\u2581frowns": 4915, "\u2581griefs": 4916, "\u2581infant": 4917, "\u2581keeper": 4918, "\u2581league": 4919, "\u2581lesser": 4920, "\u2581lovest": 4921, "\u2581manage": 4922, "\u2581memory": 4923, "\u2581modest": 4924, "\u2581object": 4925, "\u2581pierce": 4926, "\u2581policy": 4927, "\u2581refuse": 4928, "\u2581remove": 4929, "\u2581repeal": 4930, "\u2581repose": 4931, "\u2581retire": 4932, "\u2581revolt": 4933, "\u2581rights": 4934, "\u2581seldom": 4935, "\u2581served": 4936, "\u2581shrewd": 4937, "\u2581shroud": 4938, "\u2581sights": 4939, "\u2581steeds": 4940, "\u2581subtle": 4941, "\u2581suffic": 4942, "\u2581suitor": 4943, "\u2581sullen": 4944, "\u2581supply": 4945, "\u2581thirty": 4946, "\u2581thread": 4947, "\u2581trusty": 4948, "\u2581uncles": 4949, "\u2581visage": 4950, "banished": 4951, "othecary": 4952, "ouchsafe": 4953, "\u2581Commend": 4954, "\u2581Lartius": 4955, "\u2581Mariana": 4956, "\u2581Perdita": 4957, "\u2581Through": 4958, "\u2581Whether": 4959, "\u2581William": 4960, "\u2581clothes": 4961, "\u2581conceal": 4962, "\u2581confirm": 4963, "\u2581dearest": 4964, "\u2581descent": 4965, "\u2581feather": 4966, "\u2581foreign": 4967, "\u2581gallant": 4968, "\u2581growing": 4969, "\u2581meeting": 4970, "\u2581modesty": 4971, "\u2581mystery": 4972, "\u2581perhaps": 4973, "\u2581plainly": 4974, "\u2581proclam": 4975, "\u2581prophet": 4976, "\u2581redress": 4977, "\u2581remorse": 4978, "\u2581removed": 4979, "\u2581satisfy": 4980, "\u2581scandal": 4981, "\u2581sepulch": 4982, "\u2581shadows": 4983, "\u2581sorrows": 4984, "\u2581strokes": 4985, "\u2581stumble": 4986, "\u2581succeed": 4987, "\u2581sweeter": 4988, "\u2581torture": 4989, "\u2581windows": 4990, "\u2581writing": 4991, "\u2581yielded": 4992, "\u2581younger": 4993, "\u2581absolute": 4994, "\u2581accursed": 4995, "\u2581acquaint": 4996, "\u2581careless": 4997, "\u2581executed": 4998, "\u2581exercise": 4999, "\u2581fourteen": 5000, "\u2581heartily": 5001, "\u2581heavenly": 5002, "\u2581monument": 5003, "\u2581opposite": 5004, "\u2581pleasing": 5005, "\u2581purchase": 5006, "\u2581selfsame": 5007, "\u2581servants": 5008, "\u2581stranger": 5009, "\u2581stronger": 5010, "\u2581trespass": 5011, "\u2581withdraw": 5012, "\u2581wondrous": 5013, "\u2581youngest": 5014, "\u2581CLEOMENES": 5015, "\u2581adventure": 5016, "\u2581appointed": 5017, "\u2581beauteous": 5018, "\u2581determine": 5019, "\u2581direction": 5020, "\u2581extremity": 5021, "\u2581flatterer": 5022, "\u2581greatness": 5023, "\u2581ignorance": 5024, "\u2581infection": 5025, "\u2581mischance": 5026, "\u2581privilege": 5027, "\u2581trembling": 5028, "\u2581WILLOUGHBY": 5029, "\u2581commonweal": 5030, "\u2581countrymen": 5031, "\u2581triumphant": 5032, "\u2581Conspirator": 5033, "\u2581adversaries": 5034, "\u2581executioner": 5035, "\u2581instruction": 5036, "EP": 5037, "ax": 5038, "gy": 5039, "we": 5040, "ARN": 5041, "EPH": 5042, "INE": 5043, "ann": 5044, "app": 5045, "aug": 5046, "bio": 5047, "but": 5048, "cue": 5049, "esu": 5050, "iar": 5051, "ips": 5052, "mas": 5053, "ola": 5054, "oon": 5055, "owl": 5056, "rif": 5057, "sey": 5058, "sha": 5059, "son": 5060, "sop": 5061, "\u2581Ap": 5062, "\u2581Gu": 5063, "\u2581Im": 5064, "\u2581Oh": 5065, "\u2581Wr": 5066, "\u2581ah": 5067, "\u2581sn": 5068, "AMUS": 5069, "aker": 5070, "ares": 5071, "ased": 5072, "athe": 5073, "ayed": 5074, "bble": 5075, "bert": 5076, "cels": 5077, "ders": 5078, "enge": 5079, "hern": 5080, "hrew": 5081, "iced": 5082, "icio": 5083, "iddy": 5084, "iege": 5085, "ilth": 5086, "ital": 5087, "ived": 5088, "iver": 5089, "lied": 5090, "nken": 5091, "oops": 5092, "oubt": 5093, "rage": 5094, "raid": 5095, "rank": 5096, "rity": 5097, "sire": 5098, "some": 5099, "ueen": 5100, "\u2581Att": 5101, "\u2581Bre": 5102, "\u2581Bur": 5103, "\u2581Del": 5104, "\u2581Ely": 5105, "\u2581Fal": 5106, "\u2581Imp": 5107, "\u2581Old": 5108, "\u2581Pri": 5109, "\u2581RUT": 5110, "\u2581Sur": 5111, "\u2581Wed": 5112, "\u2581Woe": 5113, "\u2581ale": 5114, "\u2581bag": 5115, "\u2581cat": 5116, "\u2581fix": 5117, "\u2581hig": 5118, "\u2581hom": 5119, "\u2581hop": 5120, "\u2581ink": 5121, "\u2581lur": 5122, "\u2581mil": 5123, "\u2581net": 5124, "\u2581orn": 5125, "\u2581sav": 5126, "\u2581tig": 5127, "\u2581tou": 5128, "\u2581tro": 5129, "\u2581unm": 5130, "\u2581yon": 5131, "ables": 5132, "acles": 5133, "agues": 5134, "ainty": 5135, "ansom": 5136, "ardel": 5137, "atest": 5138, "athed": 5139, "cheth": 5140, "chief": 5141, "eping": 5142, "ering": 5143, "hamed": 5144, "icate": 5145, "inate": 5146, "ision": 5147, "itiff": 5148, "keley": 5149, "ontes": 5150, "orney": 5151, "pense": 5152, "ratch": 5153, "rible": 5154, "twill": 5155, "unate": 5156, "\u2581Anne": 5157, "\u2581BARN": 5158, "\u2581Cast": 5159, "\u2581Dido": 5160, "\u2581Disp": 5161, "\u2581Does": 5162, "\u2581Fair": 5163, "\u2581Find": 5164, "\u2581Gree": 5165, "\u2581Hang": 5166, "\u2581Perc": 5167, "\u2581Send": 5168, "\u2581Vaug": 5169, "\u2581Wife": 5170, "\u2581ages": 5171, "\u2581alms": 5172, "\u2581bank": 5173, "\u2581bere": 5174, "\u2581bill": 5175, "\u2581bore": 5176, "\u2581butt": 5177, "\u2581caps": 5178, "\u2581coll": 5179, "\u2581cram": 5180, "\u2581crow": 5181, "\u2581date": 5182, "\u2581deaf": 5183, "\u2581dogs": 5184, "\u2581dove": 5185, "\u2581drag": 5186, "\u2581eter": 5187, "\u2581exam": 5188, "\u2581fant": 5189, "\u2581flow": 5190, "\u2581fret": 5191, "\u2581godd": 5192, "\u2581grew": 5193, "\u2581hare": 5194, "\u2581heat": 5195, "\u2581hers": 5196, "\u2581hind": 5197, "\u2581hire": 5198, "\u2581laws": 5199, "\u2581lets": 5200, "\u2581luck": 5201, "\u2581main": 5202, "\u2581neat": 5203, "\u2581nest": 5204, "\u2581nice": 5205, "\u2581numb": 5206, "\u2581nupt": 5207, "\u2581page": 5208, "\u2581paid": 5209, "\u2581path": 5210, "\u2581pear": 5211, "\u2581pern": 5212, "\u2581prep": 5213, "\u2581rank": 5214, "\u2581serp": 5215, "\u2581sirs": 5216, "\u2581subd": 5217, "\u2581thie": 5218, "\u2581thin": 5219, "\u2581tren": 5220, "\u2581trif": 5221, "\u2581unfe": 5222, "\u2581unse": 5223, "\u2581urge": 5224, "\u2581vent": 5225, "\u2581ward": 5226, "\u2581wolf": 5227, "\u2581wore": 5228, "\u2581worm": 5229, "\u2581zeal": 5230, "ARDINE": 5231, "IDAMUS": 5232, "ceives": 5233, "ending": 5234, "ercing": 5235, "fellow": 5236, "harged": 5237, "headed": 5238, "ilence": 5239, "ingers": 5240, "master": 5241, "orough": 5242, "pardon": 5243, "scalus": 5244, "ushing": 5245, "\u2581Elbow": 5246, "\u2581Grace": 5247, "\u2581Green": 5248, "\u2581Hadst": 5249, "\u2581Licio": 5250, "\u2581Prove": 5251, "\u2581Queen": 5252, "\u2581Shore": 5253, "\u2581abuse": 5254, "\u2581amiss": 5255, "\u2581angel": 5256, "\u2581appea": 5257, "\u2581backs": 5258, "\u2581bands": 5259, "\u2581beaut": 5260, "\u2581beget": 5261, "\u2581birds": 5262, "\u2581blast": 5263, "\u2581boast": 5264, "\u2581bread": 5265, "\u2581breed": 5266, "\u2581brown": 5267, "\u2581burns": 5268, "\u2581burnt": 5269, "\u2581charm": 5270, "\u2581cheap": 5271, "\u2581dower": 5272, "\u2581dozen": 5273, "\u2581flint": 5274, "\u2581forty": 5275, "\u2581freed": 5276, "\u2581giddy": 5277, "\u2581goods": 5278, "\u2581grain": 5279, "\u2581heels": 5280, "\u2581honey": 5281, "\u2581jewel": 5282, "\u2581lance": 5283, "\u2581limbs": 5284, "\u2581limit": 5285, "\u2581lower": 5286, "\u2581lying": 5287, "\u2581metal": 5288, "\u2581moral": 5289, "\u2581moves": 5290, "\u2581noted": 5291, "\u2581price": 5292, "\u2581prime": 5293, "\u2581reply": 5294, "\u2581share": 5295, "\u2581shook": 5296, "\u2581sings": 5297, "\u2581spoil": 5298, "\u2581stale": 5299, "\u2581steps": 5300, "\u2581stern": 5301, "\u2581straw": 5302, "\u2581suits": 5303, "\u2581sweat": 5304, "\u2581swore": 5305, "\u2581thumb": 5306, "\u2581torch": 5307, "\u2581troop": 5308, "\u2581trunk": 5309, "\u2581waves": 5310, "\u2581wills": 5311, "ribunes": 5312, "\u2581Cambio": 5313, "\u2581Making": 5314, "\u2581Strike": 5315, "\u2581Surrey": 5316, "\u2581Whiles": 5317, "\u2581arrest": 5318, "\u2581befall": 5319, "\u2581bestow": 5320, "\u2581borrow": 5321, "\u2581bottom": 5322, "\u2581contro": 5323, "\u2581covert": 5324, "\u2581escape": 5325, "\u2581fardel": 5326, "\u2581graced": 5327, "\u2581guests": 5328, "\u2581haught": 5329, "\u2581hungry": 5330, "\u2581injury": 5331, "\u2581joints": 5332, "\u2581likely": 5333, "\u2581liking": 5334, "\u2581livery": 5335, "\u2581looked": 5336, "\u2581meddle": 5337, "\u2581minute": 5338, "\u2581months": 5339, "\u2581parted": 5340, "\u2581places": 5341, "\u2581rapier": 5342, "\u2581rebels": 5343, "\u2581restra": 5344, "\u2581sacrif": 5345, "\u2581saints": 5346, "\u2581senses": 5347, "\u2581shapes": 5348, "\u2581shines": 5349, "\u2581shrift": 5350, "\u2581sooner": 5351, "\u2581sought": 5352, "\u2581spleen": 5353, "\u2581statue": 5354, "\u2581strive": 5355, "\u2581thirst": 5356, "\u2581transp": 5357, "\u2581troops": 5358, "\u2581tyrann": 5359, "\u2581unfold": 5360, "\u2581velvet": 5361, "\u2581weapon": 5362, "\u2581wooing": 5363, "\u2581yields": 5364, "\u2581Another": 5365, "\u2581Escalus": 5366, "\u2581Fortune": 5367, "\u2581Justice": 5368, "\u2581Leontes": 5369, "\u2581RUTLAND": 5370, "\u2581Vaughan": 5371, "\u2581Villain": 5372, "\u2581Whereto": 5373, "\u2581actions": 5374, "\u2581advised": 5375, "\u2581affords": 5376, "\u2581burning": 5377, "\u2581caitiff": 5378, "\u2581careful": 5379, "\u2581carried": 5380, "\u2581censure": 5381, "\u2581cherish": 5382, "\u2581clamour": 5383, "\u2581conjure": 5384, "\u2581disease": 5385, "\u2581dismiss": 5386, "\u2581drunken": 5387, "\u2581execute": 5388, "\u2581fearing": 5389, "\u2581happily": 5390, "\u2581imagine": 5391, "\u2581liberal": 5392, "\u2581madness": 5393, "\u2581misfort": 5394, "\u2581monarch": 5395, "\u2581monster": 5396, "\u2581nuptial": 5397, "\u2581offices": 5398, "\u2581peevish": 5399, "\u2581pitiful": 5400, "\u2581praises": 5401, "\u2581process": 5402, "\u2581putting": 5403, "\u2581rejoice": 5404, "\u2581royalty": 5405, "\u2581sadness": 5406, "\u2581scatter": 5407, "\u2581shallow": 5408, "\u2581stomach": 5409, "\u2581stretch": 5410, "\u2581suitors": 5411, "\u2581tapster": 5412, "\u2581telling": 5413, "\u2581thereby": 5414, "\u2581upright": 5415, "\u2581wanting": 5416, "\u2581whereon": 5417, "\u2581written": 5418, "\u2581Although": 5419, "\u2581Berkeley": 5420, "\u2581Laurence": 5421, "\u2581Remember": 5422, "\u2581anointed": 5423, "\u2581behavior": 5424, "\u2581bitterly": 5425, "\u2581bleeding": 5426, "\u2581blessing": 5427, "\u2581childish": 5428, "\u2581conceive": 5429, "\u2581counsell": 5430, "\u2581flourish": 5431, "\u2581immortal": 5432, "\u2581inclined": 5433, "\u2581lengthen": 5434, "\u2581likeness": 5435, "\u2581midnight": 5436, "\u2581nobility": 5437, "\u2581officers": 5438, "\u2581ruthless": 5439, "\u2581sleeping": 5440, "\u2581somewhat": 5441, "\u2581thinking": 5442, "\u2581tomorrow": 5443, "\u2581violence": 5444, "\u2581warriors": 5445, "\u2581Methought": 5446, "\u2581Wherefore": 5447, "\u2581Wiltshire": 5448, "\u2581apprehend": 5449, "\u2581breathing": 5450, "\u2581challenge": 5451, "\u2581character": 5452, "\u2581companion": 5453, "\u2581courteous": 5454, "\u2581discourse": 5455, "\u2581dispersed": 5456, "\u2581forthwith": 5457, "\u2581grandsire": 5458, "\u2581lightning": 5459, "\u2581methought": 5460, "\u2581necessity": 5461, "\u2581prettiest": 5462, "\u2581prevented": 5463, "\u2581senseless": 5464, "\u2581sepulchre": 5465, "\u2581substance": 5466, "\u2581ARCHIDAMUS": 5467, "\u2581BARNARDINE": 5468, "\u2581churchyard": 5469, "\u2581coronation": 5470, "\u2581pernicious": 5471, "\u2581possession": 5472, "\u2581proportion": 5473, "\u2581reputation": 5474, "\u2581succession": 5475, "\u2581threatening": 5476, "\u2581commonwealth": 5477, "\u2581intelligence": 5478, "\u2581proclamation": 5479, "AG": 5480, "IR": 5481, "OT": 5482, "ta": 5483, "wd": 5484, "yc": 5485, "BAN": 5486, "CRO": 5487, "EOR": 5488, "MOR": 5489, "WAT": 5490, "acy": 5491, "adv": 5492, "arm": 5493, "asp": 5494, "bey": 5495, "cri": 5496, "dal": 5497, "ded": 5498, "dst": 5499, "got": 5500, "hen": 5501, "ndy": 5502, "oes": 5503, "rog": 5504, "sen": 5505, "uns": 5506, "zed": 5507, "\u2581Em": 5508, "\u2581Ga": 5509, "\u2581Qu": 5510, "\u2581fr": 5511, "\u2581gn": 5512, "AGOT": 5513, "ably": 5514, "aged": 5515, "agot": 5516, "ardy": 5517, "cket": 5518, "cure": 5519, "ersu": 5520, "foot": 5521, "give": 5522, "here": 5523, "hilo": 5524, "hire": 5525, "iban": 5526, "iece": 5527, "igon": 5528, "itch": 5529, "join": 5530, "kind": 5531, "lace": 5532, "olks": 5533, "oned": 5534, "rald": 5535, "reet": 5536, "rich": 5537, "riel": 5538, "roof": 5539, "spur": 5540, "that": 5541, "ulls": 5542, "umed": 5543, "upid": 5544, "ushi": 5545, "utch": 5546, "vied": 5547, "wing": 5548, "\u2581Add": 5549, "\u2581CAR": 5550, "\u2581ELY": 5551, "\u2581FIT": 5552, "\u2581Fit": 5553, "\u2581Gra": 5554, "\u2581Hie": 5555, "\u2581Hon": 5556, "\u2581Mis": 5557, "\u2581SIR": 5558, "\u2581Saw": 5559, "\u2581Sly": 5560, "\u2581Sus": 5561, "\u2581Ten": 5562, "\u2581Wit": 5563, "\u2581aud": 5564, "\u2581bay": 5565, "\u2581bol": 5566, "\u2581bru": 5567, "\u2581cab": 5568, "\u2581cop": 5569, "\u2581dem": 5570, "\u2581fin": 5571, "\u2581gam": 5572, "\u2581gap": 5573, "\u2581ice": 5574, "\u2581inv": 5575, "\u2581leg": 5576, "\u2581lun": 5577, "\u2581mat": 5578, "\u2581mew": 5579, "\u2581nar": 5580, "\u2581pop": 5581, "\u2581por": 5582, "\u2581rag": 5583, "\u2581rue": 5584, "\u2581sau": 5585, "\u2581sca": 5586, "\u2581sed": 5587, "\u2581una": 5588, "\u2581wax": 5589, "\u2581wet": 5590, "CROOP": 5591, "ELAND": 5592, "EORGE": 5593, "EPHEN": 5594, "LIBAN": 5595, "LISLE": 5596, "WATER": 5597, "alter": 5598, "arers": 5599, "blood": 5600, "chers": 5601, "emper": 5602, "erest": 5603, "guard": 5604, "gundy": 5605, "ickle": 5606, "igent": 5607, "igned": 5608, "ilful": 5609, "iliar": 5610, "iners": 5611, "iring": 5612, "ishes": 5613, "light": 5614, "mbers": 5615, "olved": 5616, "order": 5617, "oured": 5618, "ranch": 5619, "reant": 5620, "shall": 5621, "sophy": 5622, "ulous": 5623, "verty": 5624, "vided": 5625, "volio": 5626, "which": 5627, "\u2581Capt": 5628, "\u2581Desp": 5629, "\u2581Dian": 5630, "\u2581Else": 5631, "\u2581Ever": 5632, "\u2581Five": 5633, "\u2581Full": 5634, "\u2581Gard": 5635, "\u2581Jesu": 5636, "\u2581Live": 5637, "\u2581Much": 5638, "\u2581Name": 5639, "\u2581Part": 5640, "\u2581Virt": 5641, "\u2581WEST": 5642, "\u2581aged": 5643, "\u2581also": 5644, "\u2581anch": 5645, "\u2581balm": 5646, "\u2581beef": 5647, "\u2581bell": 5648, "\u2581bent": 5649, "\u2581brat": 5650, "\u2581busy": 5651, "\u2581buzz": 5652, "\u2581cent": 5653, "\u2581coat": 5654, "\u2581cook": 5655, "\u2581drew": 5656, "\u2581felt": 5657, "\u2581flat": 5658, "\u2581fray": 5659, "\u2581fres": 5660, "\u2581goss": 5661, "\u2581hail": 5662, "\u2581herd": 5663, "\u2581hist": 5664, "\u2581hoar": 5665, "\u2581hurl": 5666, "\u2581keys": 5667, "\u2581lect": 5668, "\u2581lewd": 5669, "\u2581load": 5670, "\u2581lock": 5671, "\u2581lour": 5672, "\u2581mars": 5673, "\u2581misc": 5674, "\u2581mour": 5675, "\u2581omit": 5676, "\u2581owes": 5677, "\u2581pace": 5678, "\u2581palm": 5679, "\u2581pent": 5680, "\u2581pick": 5681, "\u2581pict": 5682, "\u2581pill": 5683, "\u2581pomp": 5684, "\u2581push": 5685, "\u2581rack": 5686, "\u2581rate": 5687, "\u2581rear": 5688, "\u2581rend": 5689, "\u2581robb": 5690, "\u2581sess": 5691, "\u2581shel": 5692, "\u2581shop": 5693, "\u2581shru": 5694, "\u2581smil": 5695, "\u2581soci": 5696, "\u2581soil": 5697, "\u2581surp": 5698, "\u2581tack": 5699, "\u2581term": 5700, "\u2581tied": 5701, "\u2581tops": 5702, "\u2581tree": 5703, "\u2581trim": 5704, "\u2581unre": 5705, "\u2581vast": 5706, "\u2581wave": 5707, "\u2581week": 5708, "\u2581wipe": 5709, "action": 5710, "egrity": 5711, "idered": 5712, "igonus": 5713, "isting": 5714, "nesday": 5715, "owards": 5716, "spurgh": 5717, "tering": 5718, "ventry": 5719, "\u2581Above": 5720, "\u2581Adieu": 5721, "\u2581BAGOT": 5722, "\u2581Bagot": 5723, "\u2581Blunt": 5724, "\u2581Canst": 5725, "\u2581Comes": 5726, "\u2581False": 5727, "\u2581Persu": 5728, "\u2581Raven": 5729, "\u2581Shalt": 5730, "\u2581Swear": 5731, "\u2581Thine": 5732, "\u2581Trust": 5733, "\u2581Welsh": 5734, "\u2581Women": 5735, "\u2581Yield": 5736, "\u2581abund": 5737, "\u2581accom": 5738, "\u2581alleg": 5739, "\u2581amain": 5740, "\u2581ambit": 5741, "\u2581apace": 5742, "\u2581array": 5743, "\u2581beams": 5744, "\u2581beats": 5745, "\u2581clock": 5746, "\u2581cozen": 5747, "\u2581crook": 5748, "\u2581disin": 5749, "\u2581divor": 5750, "\u2581droop": 5751, "\u2581eaten": 5752, "\u2581eight": 5753, "\u2581ended": 5754, "\u2581exped": 5755, "\u2581falls": 5756, "\u2581fever": 5757, "\u2581fiend": 5758, "\u2581frail": 5759, "\u2581frank": 5760, "\u2581frost": 5761, "\u2581gains": 5762, "\u2581gifts": 5763, "\u2581goose": 5764, "\u2581helps": 5765, "\u2581imper": 5766, "\u2581infer": 5767, "\u2581insol": 5768, "\u2581lambs": 5769, "\u2581likes": 5770, "\u2581lions": 5771, "\u2581lists": 5772, "\u2581merri": 5773, "\u2581mould": 5774, "\u2581ought": 5775, "\u2581paint": 5776, "\u2581petty": 5777, "\u2581philo": 5778, "\u2581plebe": 5779, "\u2581purge": 5780, "\u2581raven": 5781, "\u2581reach": 5782, "\u2581revel": 5783, "\u2581robes": 5784, "\u2581rouse": 5785, "\u2581saved": 5786, "\u2581ships": 5787, "\u2581shoes": 5788, "\u2581sides": 5789, "\u2581silly": 5790, "\u2581skill": 5791, "\u2581slipp": 5792, "\u2581stays": 5793, "\u2581stead": 5794, "\u2581stops": 5795, "\u2581tired": 5796, "\u2581towns": 5797, "\u2581train": 5798, "\u2581waked": 5799, "\u2581wears": 5800, "ceiving": 5801, "isement": 5802, "iveness": 5803, "mediate": 5804, "onstant": 5805, "umbling": 5806, "\u2581Appear": 5807, "\u2581Curtis": 5808, "\u2581GEORGE": 5809, "\u2581Gaoler": 5810, "\u2581Minola": 5811, "\u2581Nature": 5812, "\u2581SCROOP": 5813, "\u2581Things": 5814, "\u2581Venice": 5815, "\u2581afraid": 5816, "\u2581amends": 5817, "\u2581aspect": 5818, "\u2581attain": 5819, "\u2581beaten": 5820, "\u2581betide": 5821, "\u2581boldly": 5822, "\u2581bowels": 5823, "\u2581brains": 5824, "\u2581bridal": 5825, "\u2581cheque": 5826, "\u2581chosen": 5827, "\u2581cloudy": 5828, "\u2581couple": 5829, "\u2581dearer": 5830, "\u2581depose": 5831, "\u2581detest": 5832, "\u2581eldest": 5833, "\u2581eleven": 5834, "\u2581errand": 5835, "\u2581esteem": 5836, "\u2581except": 5837, "\u2581falcon": 5838, "\u2581figure": 5839, "\u2581fondly": 5840, "\u2581gladly": 5841, "\u2581hazard": 5842, "\u2581height": 5843, "\u2581herald": 5844, "\u2581homely": 5845, "\u2581kisses": 5846, "\u2581landed": 5847, "\u2581lately": 5848, "\u2581livest": 5849, "\u2581lovers": 5850, "\u2581marvel": 5851, "\u2581middle": 5852, "\u2581narrow": 5853, "\u2581nights": 5854, "\u2581notice": 5855, "\u2581obsequ": 5856, "\u2581prefer": 5857, "\u2581prodig": 5858, "\u2581prompt": 5859, "\u2581proved": 5860, "\u2581purple": 5861, "\u2581ransom": 5862, "\u2581reckon": 5863, "\u2581riches": 5864, "\u2581savage": 5865, "\u2581seated": 5866, "\u2581seized": 5867, "\u2581severe": 5868, "\u2581signal": 5869, "\u2581slight": 5870, "\u2581sounds": 5871, "\u2581spread": 5872, "\u2581stolen": 5873, "\u2581storms": 5874, "\u2581strict": 5875, "\u2581swears": 5876, "\u2581takest": 5877, "\u2581testim": 5878, "\u2581tricks": 5879, "\u2581troubl": 5880, "\u2581vanity": 5881, "\u2581varlet": 5882, "\u2581wisely": 5883, "MORELAND": 5884, "perience": 5885, "\u2581Becomes": 5886, "\u2581CALIBAN": 5887, "\u2581Caliban": 5888, "\u2581Captain": 5889, "\u2581Comfort": 5890, "\u2581Neither": 5891, "\u2581Perhaps": 5892, "\u2581Prepare": 5893, "\u2581STEPHEN": 5894, "\u2581Towards": 5895, "\u2581Whereof": 5896, "\u2581amongst": 5897, "\u2581amorous": 5898, "\u2581ashamed": 5899, "\u2581bidding": 5900, "\u2581blemish": 5901, "\u2581ceremon": 5902, "\u2581cheerly": 5903, "\u2581conclud": 5904, "\u2581consequ": 5905, "\u2581couldst": 5906, "\u2581designs": 5907, "\u2581earthly": 5908, "\u2581example": 5909, "\u2581extreme": 5910, "\u2581fantast": 5911, "\u2581favours": 5912, "\u2581fingers": 5913, "\u2581freedom": 5914, "\u2581furnish": 5915, "\u2581ghostly": 5916, "\u2581goddess": 5917, "\u2581grandam": 5918, "\u2581grieved": 5919, "\u2581grieves": 5920, "\u2581heavier": 5921, "\u2581holding": 5922, "\u2581hopeful": 5923, "\u2581kinsmen": 5924, "\u2581knowing": 5925, "\u2581learned": 5926, "\u2581marvell": 5927, "\u2581members": 5928, "\u2581mightst": 5929, "\u2581neglect": 5930, "\u2581ourself": 5931, "\u2581outrage": 5932, "\u2581parents": 5933, "\u2581parties": 5934, "\u2581partner": 5935, "\u2581poverty": 5936, "\u2581presume": 5937, "\u2581profane": 5938, "\u2581prophes": 5939, "\u2581provide": 5940, "\u2581restore": 5941, "\u2581retired": 5942, "\u2581scratch": 5943, "\u2581settled": 5944, "\u2581signify": 5945, "\u2581smother": 5946, "\u2581sounded": 5947, "\u2581sweetly": 5948, "\u2581temples": 5949, "\u2581tempted": 5950, "\u2581thieves": 5951, "\u2581travell": 5952, "\u2581weapons": 5953, "\u2581winters": 5954, "\u2581worldly": 5955, "\u2581Benvolio": 5956, "\u2581Burgundy": 5957, "\u2581CARLISLE": 5958, "\u2581Coventry": 5959, "\u2581Gardener": 5960, "\u2581Patience": 5961, "\u2581Proclaim": 5962, "\u2581Tribunes": 5963, "\u2581Withdraw": 5964, "\u2581attorney": 5965, "\u2581bastards": 5966, "\u2581boldness": 5967, "\u2581compound": 5968, "\u2581conclude": 5969, "\u2581confound": 5970, "\u2581conquest": 5971, "\u2581contents": 5972, "\u2581courtier": 5973, "\u2581cowardly": 5974, "\u2581darkness": 5975, "\u2581devilish": 5976, "\u2581entrance": 5977, "\u2581greeting": 5978, "\u2581likewise": 5979, "\u2581merchant": 5980, "\u2581mildness": 5981, "\u2581mutinous": 5982, "\u2581persuade": 5983, "\u2581piercing": 5984, "\u2581preserve": 5985, "\u2581provoked": 5986, "\u2581revenges": 5987, "\u2581speaking": 5988, "\u2581suddenly": 5989, "\u2581thankful": 5990, "\u2581treasons": 5991, "\u2581troubled": 5992, "\u2581usurping": 5993, "\u2581villains": 5994, "\u2581youthful": 5995, "\u2581Antigonus": 5996, "\u2581Vouchsafe": 5997, "\u2581Wednesday": 5998, "\u2581ambitious": 5999, "\u2581condemned": 6000, "\u2581constable": 6001, "\u2581departure": 6002, "\u2581downright": 6003, "\u2581instantly": 6004, "\u2581integrity": 6005, "\u2581ministers": 6006, "\u2581musicians": 6007, "\u2581nobleness": 6008, "\u2581readiness": 6009, "\u2581reconcile": 6010, "\u2581sentenced": 6011, "\u2581tyrannous": 6012, "\u2581wandering": 6013, "\u2581accusation": 6014, "\u2581acquainted": 6015, "\u2581allegiance": 6016, "\u2581complexion": 6017, "\u2581entreaties": 6018, "\u2581estimation": 6019, "\u2581flattering": 6020, "\u2581lamentable": 6021, "\u2581misfortune": 6022, "\u2581neighbours": 6023, "\u2581occupation": 6024, "\u2581philosophy": 6025, "\u2581pilgrimage": 6026, "\u2581recompense": 6027, "\u2581substitute": 6028, "\u2581sufficient": 6029, "\u2581unkindness": 6030, "\u2581Ravenspurgh": 6031, "\u2581approbation": 6032, "\u2581destruction": 6033, "\u2581WESTMORELAND": 6034, "\u2581circumstance": 6035, "\u2581discontented": 6036, "\u2581satisfaction": 6037, "br": 6038, "do": 6039, "eb": 6040, "uc": 6041, "ug": 6042, "Hic": 6043, "amy": 6044, "bot": 6045, "boy": 6046, "cra": 6047, "cus": 6048, "des": 6049, "gea": 6050, "gic": 6051, "inu": 6052, "len": 6053, "lor": 6054, "low": 6055, "off": 6056, "ril": 6057, "rop": 6058, "tin": 6059, "uiv": 6060, "urb": 6061, "uts": 6062, "wer": 6063, "\u2581Ac": 6064, "\u2581Er": 6065, "\u2581ug": 6066, "What": 6067, "alks": 6068, "ands": 6069, "aped": 6070, "back": 6071, "bour": 6072, "bric": 6073, "cest": 6074, "ctor": 6075, "done": 6076, "ella": 6077, "eves": 6078, "ewks": 6079, "gues": 6080, "hage": 6081, "hand": 6082, "hors": 6083, "icle": 6084, "ifth": 6085, "inal": 6086, "kest": 6087, "lain": 6088, "last": 6089, "lect": 6090, "lier": 6091, "made": 6092, "nday": 6093, "oble": 6094, "onio": 6095, "orax": 6096, "oriz": 6097, "oses": 6098, "rish": 6099, "tied": 6100, "ules": 6101, "uned": 6102, "unis": 6103, "vive": 6104, "wear": 6105, "work": 6106, "\u2581Adv": 6107, "\u2581Aff": 6108, "\u2581Che": 6109, "\u2581Dep": 6110, "\u2581Div": 6111, "\u2581Har": 6112, "\u2581Jup": 6113, "\u2581Mur": 6114, "\u2581Ned": 6115, "\u2581Pem": 6116, "\u2581Rel": 6117, "\u2581Sit": 6118, "\u2581Syc": 6119, "\u2581Tra": 6120, "\u2581ack": 6121, "\u2581afe": 6122, "\u2581ann": 6123, "\u2581ape": 6124, "\u2581ash": 6125, "\u2581bul": 6126, "\u2581dot": 6127, "\u2581eff": 6128, "\u2581fan": 6129, "\u2581fox": 6130, "\u2581fre": 6131, "\u2581hag": 6132, "\u2581key": 6133, "\u2581mas": 6134, "\u2581moe": 6135, "\u2581mom": 6136, "\u2581nod": 6137, "\u2581obs": 6138, "\u2581pow": 6139, "\u2581pup": 6140, "\u2581rhe": 6141, "\u2581rig": 6142, "\u2581rum": 6143, "\u2581sap": 6144, "\u2581sow": 6145, "\u2581thw": 6146, "\u2581tie": 6147, "\u2581vul": 6148, "Twixt": 6149, "aints": 6150, "amity": 6151, "asant": 6152, "avour": 6153, "awful": 6154, "aying": 6155, "board": 6156, "ening": 6157, "horse": 6158, "iders": 6159, "inces": 6160, "inies": 6161, "inted": 6162, "ively": 6163, "lance": 6164, "longs": 6165, "ocate": 6166, "oster": 6167, "peian": 6168, "ption": 6169, "roach": 6170, "shine": 6171, "sooth": 6172, "there": 6173, "trees": 6174, "ually": 6175, "uring": 6176, "water": 6177, "\u2581ABRA": 6178, "\u2581Best": 6179, "\u2581Bold": 6180, "\u2581Cart": 6181, "\u2581Cont": 6182, "\u2581Dest": 6183, "\u2581Fall": 6184, "\u2581Fell": 6185, "\u2581Foul": 6186, "\u2581Happ": 6187, "\u2581Kent": 6188, "\u2581Kind": 6189, "\u2581Lead": 6190, "\u2581Lend": 6191, "\u2581Lies": 6192, "\u2581Nept": 6193, "\u2581Over": 6194, "\u2581Purs": 6195, "\u2581Read": 6196, "\u2581Scot": 6197, "\u2581Talk": 6198, "\u2581Troy": 6199, "\u2581Wert": 6200, "\u2581West": 6201, "\u2581acts": 6202, "\u2581aims": 6203, "\u2581alar": 6204, "\u2581amaz": 6205, "\u2581baby": 6206, "\u2581bail": 6207, "\u2581bald": 6208, "\u2581blot": 6209, "\u2581blue": 6210, "\u2581bowl": 6211, "\u2581bows": 6212, "\u2581cler": 6213, "\u2581cool": 6214, "\u2581cord": 6215, "\u2581crab": 6216, "\u2581crim": 6217, "\u2581dash": 6218, "\u2581dece": 6219, "\u2581deer": 6220, "\u2581defy": 6221, "\u2581desc": 6222, "\u2581dine": 6223, "\u2581diso": 6224, "\u2581dole": 6225, "\u2581dram": 6226, "\u2581earl": 6227, "\u2581fift": 6228, "\u2581fulf": 6229, "\u2581game": 6230, "\u2581grim": 6231, "\u2581gust": 6232, "\u2581harl": 6233, "\u2581heel": 6234, "\u2581hill": 6235, "\u2581inch": 6236, "\u2581lads": 6237, "\u2581leap": 6238, "\u2581lick": 6239, "\u2581lief": 6240, "\u2581lute": 6241, "\u2581mask": 6242, "\u2581meal": 6243, "\u2581meed": 6244, "\u2581milk": 6245, "\u2581nigh": 6246, "\u2581noon": 6247, "\u2581nort": 6248, "\u2581obsc": 6249, "\u2581pant": 6250, "\u2581peer": 6251, "\u2581perd": 6252, "\u2581pest": 6253, "\u2581plan": 6254, "\u2581pour": 6255, "\u2581race": 6256, "\u2581ranc": 6257, "\u2581rein": 6258, "\u2581roof": 6259, "\u2581runs": 6260, "\u2581rush": 6261, "\u2581sack": 6262, "\u2581shot": 6263, "\u2581silk": 6264, "\u2581sixt": 6265, "\u2581song": 6266, "\u2581stag": 6267, "\u2581summ": 6268, "\u2581terr": 6269, "\u2581torn": 6270, "\u2581trow": 6271, "\u2581undo": 6272, "\u2581vass": 6273, "\u2581veil": 6274, "\u2581vial": 6275, "\u2581welc": 6276, "\u2581yare": 6277, "BISHOP": 6278, "advent": 6279, "aments": 6280, "anders": 6281, "arried": 6282, "attern": 6283, "enches": 6284, "govern": 6285, "iments": 6286, "ittany": 6287, "lihood": 6288, "ossess": 6289, "ousins": 6290, "rament": 6291, "rantic": 6292, "twould": 6293, "uivant": 6294, "ulting": 6295, "\u2581Alban": 6296, "\u2581Ariel": 6297, "\u2581Bound": 6298, "\u2581Break": 6299, "\u2581Cupid": 6300, "\u2581Fetch": 6301, "\u2581Gives": 6302, "\u2581Ready": 6303, "\u2581Teach": 6304, "\u2581Tewks": 6305, "\u2581Thank": 6306, "\u2581Throw": 6307, "\u2581Touch": 6308, "\u2581Truly": 6309, "\u2581Tunis": 6310, "\u2581Twice": 6311, "\u2581aloud": 6312, "\u2581apart": 6313, "\u2581arise": 6314, "\u2581ashes": 6315, "\u2581blaze": 6316, "\u2581bliss": 6317, "\u2581blown": 6318, "\u2581brand": 6319, "\u2581cabin": 6320, "\u2581canop": 6321, "\u2581champ": 6322, "\u2581chose": 6323, "\u2581clean": 6324, "\u2581cloak": 6325, "\u2581coast": 6326, "\u2581cords": 6327, "\u2581crept": 6328, "\u2581crows": 6329, "\u2581crush": 6330, "\u2581cushi": 6331, "\u2581diest": 6332, "\u2581dined": 6333, "\u2581dried": 6334, "\u2581drift": 6335, "\u2581dukes": 6336, "\u2581eager": 6337, "\u2581evils": 6338, "\u2581faced": 6339, "\u2581fleet": 6340, "\u2581flock": 6341, "\u2581folks": 6342, "\u2581fount": 6343, "\u2581front": 6344, "\u2581fully": 6345, "\u2581gaunt": 6346, "\u2581grass": 6347, "\u2581groom": 6348, "\u2581haunt": 6349, "\u2581kites": 6350, "\u2581level": 6351, "\u2581linea": 6352, "\u2581lodge": 6353, "\u2581lowly": 6354, "\u2581mates": 6355, "\u2581medic": 6356, "\u2581midst": 6357, "\u2581model": 6358, "\u2581moody": 6359, "\u2581mouse": 6360, "\u2581murde": 6361, "\u2581nails": 6362, "\u2581named": 6363, "\u2581pearl": 6364, "\u2581pilot": 6365, "\u2581pinch": 6366, "\u2581prate": 6367, "\u2581print": 6368, "\u2581puiss": 6369, "\u2581rests": 6370, "\u2581roses": 6371, "\u2581sadly": 6372, "\u2581score": 6373, "\u2581seeks": 6374, "\u2581shade": 6375, "\u2581shown": 6376, "\u2581slily": 6377, "\u2581spark": 6378, "\u2581spurs": 6379, "\u2581stark": 6380, "\u2581steep": 6381, "\u2581stiff": 6382, "\u2581stink": 6383, "\u2581surpr": 6384, "\u2581swoon": 6385, "\u2581tardy": 6386, "\u2581theme": 6387, "\u2581tiger": 6388, "\u2581toads": 6389, "\u2581trees": 6390, "\u2581tutor": 6391, "\u2581unpro": 6392, "\u2581vouch": 6393, "\u2581waits": 6394, "\u2581whist": 6395, "\u2581worms": 6396, "\u2581wring": 6397, "advised": 6398, "angling": 6399, "emption": 6400, "ication": 6401, "racious": 6402, "rateful": 6403, "\u2581Answer": 6404, "\u2581Antium": 6405, "\u2581Bishop": 6406, "\u2581Murder": 6407, "\u2581Stands": 6408, "\u2581Sunday": 6409, "\u2581Virtue": 6410, "\u2581Walter": 6411, "\u2581abhorr": 6412, "\u2581accomp": 6413, "\u2581acknow": 6414, "\u2581afeard": 6415, "\u2581ancest": 6416, "\u2581angels": 6417, "\u2581asking": 6418, "\u2581belong": 6419, "\u2581bereft": 6420, "\u2581beside": 6421, "\u2581bestri": 6422, "\u2581bosoms": 6423, "\u2581bounty": 6424, "\u2581branch": 6425, "\u2581breaks": 6426, "\u2581burden": 6427, "\u2581butter": 6428, "\u2581causes": 6429, "\u2581closed": 6430, "\u2581crying": 6431, "\u2581dearth": 6432, "\u2581deform": 6433, "\u2581depend": 6434, "\u2581devils": 6435, "\u2581devour": 6436, "\u2581distra": 6437, "\u2581easily": 6438, "\u2581embass": 6439, "\u2581enrich": 6440, "\u2581exceed": 6441, "\u2581fallen": 6442, "\u2581feasts": 6443, "\u2581framed": 6444, "\u2581frozen": 6445, "\u2581gather": 6446, "\u2581graces": 6447, "\u2581growth": 6448, "\u2581herein": 6449, "\u2581hinder": 6450, "\u2581insinu": 6451, "\u2581invent": 6452, "\u2581inward": 6453, "\u2581knocks": 6454, "\u2581leaden": 6455, "\u2581lenity": 6456, "\u2581lights": 6457, "\u2581linger": 6458, "\u2581lodged": 6459, "\u2581magist": 6460, "\u2581meaner": 6461, "\u2581mildly": 6462, "\u2581moiety": 6463, "\u2581moment": 6464, "\u2581moving": 6465, "\u2581nimble": 6466, "\u2581orator": 6467, "\u2581patron": 6468, "\u2581pedlar": 6469, "\u2581pitied": 6470, "\u2581plants": 6471, "\u2581pursue": 6472, "\u2581reigns": 6473, "\u2581resemb": 6474, "\u2581rushes": 6475, "\u2581safely": 6476, "\u2581search": 6477, "\u2581speedy": 6478, "\u2581spider": 6479, "\u2581stocks": 6480, "\u2581strife": 6481, "\u2581taking": 6482, "\u2581taunts": 6483, "\u2581temple": 6484, "\u2581thrown": 6485, "\u2581unlike": 6486, "\u2581unlook": 6487, "\u2581unluck": 6488, "\u2581unruly": 6489, "\u2581unseen": 6490, "\u2581utmost": 6491, "\u2581watery": 6492, "\u2581wedded": 6493, "\u2581window": 6494, "\u2581worser": 6495, "\u2581yester": 6496, "isterous": 6497, "shearing": 6498, "standing": 6499, "\u2581ABRAHAM": 6500, "\u2581Antonio": 6501, "\u2581Command": 6502, "\u2581Confess": 6503, "\u2581Content": 6504, "\u2581Courage": 6505, "\u2581Jupiter": 6506, "\u2581Mistake": 6507, "\u2581Neptune": 6508, "\u2581Prosper": 6509, "\u2581Suppose": 6510, "\u2581Sycorax": 6511, "\u2581Thyself": 6512, "\u2581adverse": 6513, "\u2581afflict": 6514, "\u2581appears": 6515, "\u2581avoided": 6516, "\u2581battles": 6517, "\u2581beggars": 6518, "\u2581bending": 6519, "\u2581breasts": 6520, "\u2581carries": 6521, "\u2581chances": 6522, "\u2581charges": 6523, "\u2581climate": 6524, "\u2581compare": 6525, "\u2581dancing": 6526, "\u2581destiny": 6527, "\u2581dissemb": 6528, "\u2581disturb": 6529, "\u2581endured": 6530, "\u2581eternal": 6531, "\u2581falling": 6532, "\u2581fifteen": 6533, "\u2581frantic": 6534, "\u2581glasses": 6535, "\u2581hangman": 6536, "\u2581harbour": 6537, "\u2581harmony": 6538, "\u2581harvest": 6539, "\u2581heinous": 6540, "\u2581history": 6541, "\u2581ignoble": 6542, "\u2581impeach": 6543, "\u2581inquire": 6544, "\u2581intents": 6545, "\u2581lasting": 6546, "\u2581leaving": 6547, "\u2581loathed": 6548, "\u2581lodging": 6549, "\u2581loyalty": 6550, "\u2581lunatic": 6551, "\u2581manhood": 6552, "\u2581marshal": 6553, "\u2581midwife": 6554, "\u2581minutes": 6555, "\u2581mothers": 6556, "\u2581murders": 6557, "\u2581mustard": 6558, "\u2581numbers": 6559, "\u2581persons": 6560, "\u2581popular": 6561, "\u2581prating": 6562, "\u2581pursuit": 6563, "\u2581quarter": 6564, "\u2581require": 6565, "\u2581revenue": 6566, "\u2581roaring": 6567, "\u2581secrets": 6568, "\u2581serious": 6569, "\u2581serpent": 6570, "\u2581sitting": 6571, "\u2581sixteen": 6572, "\u2581springs": 6573, "\u2581steward": 6574, "\u2581support": 6575, "\u2581surfeit": 6576, "\u2581talking": 6577, "\u2581thereto": 6578, "\u2581trifles": 6579, "\u2581venture": 6580, "\u2581wronged": 6581, "adventure": 6582, "\u2581Brittany": 6583, "\u2581Capulets": 6584, "\u2581Carthage": 6585, "\u2581Isabella": 6586, "\u2581Pembroke": 6587, "\u2581Scotland": 6588, "\u2581Sometime": 6589, "\u2581Tarpeian": 6590, "\u2581Volscian": 6591, "\u2581advanced": 6592, "\u2581advocate": 6593, "\u2581approved": 6594, "\u2581attended": 6595, "\u2581believed": 6596, "\u2581blushing": 6597, "\u2581branches": 6598, "\u2581calamity": 6599, "\u2581changing": 6600, "\u2581chiefest": 6601, "\u2581commands": 6602, "\u2581commends": 6603, "\u2581concerns": 6604, "\u2581confeder": 6605, "\u2581cracking": 6606, "\u2581damnable": 6607, "\u2581delicate": 6608, "\u2581despised": 6609, "\u2581distress": 6610, "\u2581doubtful": 6611, "\u2581downfall": 6612, "\u2581drinking": 6613, "\u2581enforced": 6614, "\u2581entreaty": 6615, "\u2581everlast": 6616, "\u2581extremes": 6617, "\u2581familiar": 6618, "\u2581forehead": 6619, "\u2581forsooth": 6620, "\u2581humility": 6621, "\u2581incensed": 6622, "\u2581infected": 6623, "\u2581learning": 6624, "\u2581manifest": 6625, "\u2581mischief": 6626, "\u2581mountain": 6627, "\u2581murdered": 6628, "\u2581musician": 6629, "\u2581nighting": 6630, "\u2581northern": 6631, "\u2581offences": 6632, "\u2581perjured": 6633, "\u2581prophecy": 6634, "\u2581prophesy": 6635, "\u2581proudest": 6636, "\u2581provided": 6637, "\u2581recreant": 6638, "\u2581reported": 6639, "\u2581sensible": 6640, "\u2581singular": 6641, "\u2581smallest": 6642, "\u2581statutes": 6643, "\u2581sweetest": 6644, "\u2581swelling": 6645, "\u2581unworthy": 6646, "\u2581whoreson": 6647, "\u2581wrinkled": 6648, "\u2581yielding": 6649, "\u2581Montagues": 6650, "\u2581Tewksbury": 6651, "\u2581Volscians": 6652, "\u2581afterward": 6653, "\u2581confessor": 6654, "\u2581conqueror": 6655, "\u2581discharge": 6656, "\u2581disgraced": 6657, "\u2581guiltless": 6658, "\u2581injustice": 6659, "\u2581innocence": 6660, "\u2581interrupt": 6661, "\u2581loathsome": 6662, "\u2581multitude": 6663, "\u2581murderous": 6664, "\u2581ornaments": 6665, "\u2581otherwise": 6666, "\u2581plebeians": 6667, "\u2581royalties": 6668, "\u2581sacrament": 6669, "\u2581safeguard": 6670, "\u2581shoulders": 6671, "\u2581suffering": 6672, "\u2581thousands": 6673, "\u2581unwilling": 6674, "\u2581wonderful": 6675, "\u2581ARCHBISHOP": 6676, "\u2581Lieutenant": 6677, "\u2581boisterous": 6678, "\u2581compassion": 6679, "\u2581conclusion": 6680, "\u2581confession": 6681, "\u2581confidence": 6682, "\u2581considered": 6683, "\u2581correction": 6684, "\u2581corruption": 6685, "\u2581counsellor": 6686, "\u2581flatterers": 6687, "\u2581friendship": 6688, "\u2581henceforth": 6689, "\u2581likelihood": 6690, "\u2581marvellous": 6691, "\u2581oppression": 6692, "\u2581perfection": 6693, "\u2581prosperity": 6694, "\u2581redemption": 6695, "\u2581revengeful": 6696, "\u2581slanderous": 6697, "\u2581sufferance": 6698, "\u2581tenderness": 6699, "\u2581visitation": 6700, "\u2581whatsoever": 6701, "\u2581whispering": 6702, "\u2581brotherhood": 6703, "\u2581ceremonious": 6704, "\u2581consequence": 6705, "\u2581displeasure": 6706, "\u2581imagination": 6707, "\u2581lamentation": 6708, "\u2581proceedings": 6709, "Be": 6710, "He": 6711, "St": 6712, "cr": 6713, "ex": 6714, "lm": 6715, "lu": 6716, "ph": 6717, "AGE": 6718, "ANI": 6719, "ONA": 6720, "REY": 6721, "The": 6722, "ado": 6723, "ais": 6724, "ald": 6725, "ank": 6726, "asy": 6727, "ato": 6728, "aws": 6729, "bid": 6730, "cat": 6731, "cel": 6732, "cip": 6733, "cis": 6734, "civ": 6735, "eks": 6736, "eny": 6737, "hur": 6738, "idd": 6739, "iel": 6740, "imo": 6741, "ims": 6742, "iqu": 6743, "isk": 6744, "jud": 6745, "key": 6746, "lip": 6747, "met": 6748, "mph": 6749, "ops": 6750, "rge": 6751, "ros": 6752, "rup": 6753, "ted": 6754, "thw": 6755, "uge": 6756, "ule": 6757, "ums": 6758, "wit": 6759, "\u2581Ag": 6760, "\u2581Cy": 6761, "\u2581Du": 6762, "\u2581EM": 6763, "\u2581Ro": 6764, "\u2581av": 6765, "\u2581hy": 6766, "\u2581om": 6767, "\u2581vi": 6768, "Gain": 6769, "This": 6770, "adem": 6771, "atri": 6772, "azon": 6773, "bell": 6774, "bles": 6775, "cast": 6776, "cock": 6777, "core": 6778, "cund": 6779, "duce": 6780, "ebus": 6781, "ffer": 6782, "gage": 6783, "ghts": 6784, "gled": 6785, "good": 6786, "gory": 6787, "gued": 6788, "iner": 6789, "inew": 6790, "ingu": 6791, "itty": 6792, "ival": 6793, "izab": 6794, "kens": 6795, "lled": 6796, "look": 6797, "loqu": 6798, "love": 6799, "miss": 6800, "mpet": 6801, "odow": 6802, "olar": 6803, "olve": 6804, "omin": 6805, "peci": 6806, "phan": 6807, "pped": 6808, "ppet": 6809, "pret": 6810, "quet": 6811, "quis": 6812, "reth": 6813, "rial": 6814, "rief": 6815, "rion": 6816, "ropp": 6817, "seem": 6818, "seth": 6819, "side": 6820, "sion": 6821, "sses": 6822, "uced": 6823, "umes": 6824, "umny": 6825, "umps": 6826, "ungs": 6827, "upon": 6828, "urer": 6829, "urvy": 6830, "voke": 6831, "will": 6832, "xton": 6833, "your": 6834, "\u2581Any": 6835, "\u2581Arm": 6836, "\u2581Ass": 6837, "\u2581Bad": 6838, "\u2581Ban": 6839, "\u2581Def": 6840, "\u2581Dor": 6841, "\u2581End": 6842, "\u2581Fly": 6843, "\u2581Ill": 6844, "\u2581Ins": 6845, "\u2581Jer": 6846, "\u2581Jud": 6847, "\u2581Jun": 6848, "\u2581Lam": 6849, "\u2581Pha": 6850, "\u2581Pho": 6851, "\u2581Red": 6852, "\u2581Ren": 6853, "\u2581Run": 6854, "\u2581SUR": 6855, "\u2581Sin": 6856, "\u2581Tur": 6857, "\u2581box": 6858, "\u2581coz": 6859, "\u2581ded": 6860, "\u2581der": 6861, "\u2581dil": 6862, "\u2581ebb": 6863, "\u2581fem": 6864, "\u2581fet": 6865, "\u2581fif": 6866, "\u2581gaz": 6867, "\u2581haw": 6868, "\u2581ire": 6869, "\u2581kna": 6870, "\u2581mum": 6871, "\u2581non": 6872, "\u2581obt": 6873, "\u2581pox": 6874, "\u2581ren": 6875, "\u2581stu": 6876, "\u2581tax": 6877, "\u2581tea": 6878, "\u2581toe": 6879, "\u2581ton": 6880, "\u2581toy": 6881, "\u2581tur": 6882, "\u2581vig": 6883, "ANIEL": 6884, "Twill": 6885, "aches": 6886, "adise": 6887, "alion": 6888, "allel": 6889, "andle": 6890, "antle": 6891, "asing": 6892, "athom": 6893, "blown": 6894, "chool": 6895, "craft": 6896, "echer": 6897, "eches": 6898, "ethon": 6899, "feits": 6900, "glass": 6901, "gnant": 6902, "grown": 6903, "habit": 6904, "heard": 6905, "holds": 6906, "icial": 6907, "iding": 6908, "illed": 6909, "isome": 6910, "ivers": 6911, "licit": 6912, "lling": 6913, "neath": 6914, "nsion": 6915, "opher": 6916, "overy": 6917, "plish": 6918, "ptory": 6919, "rails": 6920, "rieve": 6921, "runes": 6922, "scals": 6923, "scape": 6924, "ships": 6925, "stone": 6926, "strel": 6927, "thing": 6928, "throw": 6929, "tised": 6930, "verse": 6931, "versy": 6932, "whelm": 6933, "where": 6934, "\u2581BONA": 6935, "\u2581Back": 6936, "\u2581Cher": 6937, "\u2581Cold": 6938, "\u2581DION": 6939, "\u2581Fill": 6940, "\u2581Fran": 6941, "\u2581Gold": 6942, "\u2581Harp": 6943, "\u2581Herc": 6944, "\u2581High": 6945, "\u2581Holy": 6946, "\u2581Host": 6947, "\u2581Join": 6948, "\u2581Just": 6949, "\u2581Left": 6950, "\u2581NATH": 6951, "\u2581Obey": 6952, "\u2581Open": 6953, "\u2581PAGE": 6954, "\u2581Pres": 6955, "\u2581Prof": 6956, "\u2581Rest": 6957, "\u2581Urge": 6958, "\u2581abod": 6959, "\u2581abst": 6960, "\u2581airy": 6961, "\u2581alto": 6962, "\u2581answ": 6963, "\u2581arch": 6964, "\u2581awry": 6965, "\u2581beet": 6966, "\u2581boon": 6967, "\u2581bush": 6968, "\u2581cann": 6969, "\u2581card": 6970, "\u2581cave": 6971, "\u2581chaf": 6972, "\u2581chap": 6973, "\u2581chop": 6974, "\u2581clap": 6975, "\u2581coal": 6976, "\u2581crew": 6977, "\u2581cuck": 6978, "\u2581dame": 6979, "\u2581diet": 6980, "\u2581doct": 6981, "\u2581dumb": 6982, "\u2581farm": 6983, "\u2581feat": 6984, "\u2581fest": 6985, "\u2581fits": 6986, "\u2581foil": 6987, "\u2581fold": 6988, "\u2581forn": 6989, "\u2581gait": 6990, "\u2581gaol": 6991, "\u2581gape": 6992, "\u2581geld": 6993, "\u2581gulf": 6994, "\u2581hall": 6995, "\u2581halt": 6996, "\u2581heap": 6997, "\u2581hole": 6998, "\u2581hood": 6999, "\u2581idly": 7000, "\u2581inve": 7001, "\u2581jade": 7002, "\u2581knit": 7003, "\u2581lace": 7004, "\u2581levy": 7005, "\u2581liar": 7006, "\u2581link": 7007, "\u2581liqu": 7008, "\u2581male": 7009, "\u2581marr": 7010, "\u2581mast": 7011, "\u2581moan": 7012, "\u2581muff": 7013, "\u2581negl": 7014, "\u2581obst": 7015, "\u2581pate": 7016, "\u2581pays": 7017, "\u2581perf": 7018, "\u2581pine": 7019, "\u2581prec": 7020, "\u2581puff": 7021, "\u2581pull": 7022, "\u2581rats": 7023, "\u2581rent": 7024, "\u2581ridd": 7025, "\u2581rode": 7026, "\u2581sear": 7027, "\u2581sequ": 7028, "\u2581sith": 7029, "\u2581spar": 7030, "\u2581sped": 7031, "\u2581stem": 7032, "\u2581sued": 7033, "\u2581sugg": 7034, "\u2581sung": 7035, "\u2581syll": 7036, "\u2581tink": 7037, "\u2581ugly": 7038, "\u2581unth": 7039, "\u2581vine": 7040, "\u2581warn": 7041, "\u2581wasp": 7042, "\u2581weal": 7043, "\u2581weed": 7044, "\u2581whet": 7045, "Gainst": 7046, "actors": 7047, "ailing": 7048, "aining": 7049, "antime": 7050, "apable": 7051, "arison": 7052, "asures": 7053, "bearer": 7054, "cedent": 7055, "chelor": 7056, "elting": 7057, "erving": 7058, "estern": 7059, "franch": 7060, "iquity": 7061, "ivered": 7062, "leness": 7063, "liness": 7064, "mongst": 7065, "omenes": 7066, "orizel": 7067, "otless": 7068, "ouches": 7069, "piring": 7070, "randam": 7071, "ressed": 7072, "rician": 7073, "riment": 7074, "strong": 7075, "terate": 7076, "ueless": 7077, "uments": 7078, "voided": 7079, "witted": 7080, "\u2581Again": 7081, "\u2581Arise": 7082, "\u2581Carry": 7083, "\u2581Every": 7084, "\u2581Fifth": 7085, "\u2581Flore": 7086, "\u2581Forth": 7087, "\u2581Groom": 7088, "\u2581Infer": 7089, "\u2581Knock": 7090, "\u2581Lodow": 7091, "\u2581Lovel": 7092, "\u2581Mercy": 7093, "\u2581Percy": 7094, "\u2581Seize": 7095, "\u2581Shame": 7096, "\u2581Sixth": 7097, "\u2581Smile": 7098, "\u2581Tarqu": 7099, "\u2581Wales": 7100, "\u2581Whate": 7101, "\u2581Worse": 7102, "\u2581Write": 7103, "\u2581actor": 7104, "\u2581admir": 7105, "\u2581admit": 7106, "\u2581afoot": 7107, "\u2581afore": 7108, "\u2581allay": 7109, "\u2581aloof": 7110, "\u2581amend": 7111, "\u2581antic": 7112, "\u2581apply": 7113, "\u2581arbit": 7114, "\u2581argos": 7115, "\u2581armed": 7116, "\u2581beads": 7117, "\u2581befal": 7118, "\u2581begot": 7119, "\u2581blade": 7120, "\u2581bleed": 7121, "\u2581bodes": 7122, "\u2581bount": 7123, "\u2581brass": 7124, "\u2581brawl": 7125, "\u2581bribe": 7126, "\u2581broad": 7127, "\u2581budge": 7128, "\u2581chest": 7129, "\u2581climb": 7130, "\u2581coals": 7131, "\u2581crest": 7132, "\u2581dared": 7133, "\u2581decay": 7134, "\u2581doors": 7135, "\u2581doves": 7136, "\u2581draws": 7137, "\u2581drows": 7138, "\u2581eloqu": 7139, "\u2581embra": 7140, "\u2581error": 7141, "\u2581exact": 7142, "\u2581fills": 7143, "\u2581filth": 7144, "\u2581flame": 7145, "\u2581foret": 7146, "\u2581graft": 7147, "\u2581greyh": 7148, "\u2581hatch": 7149, "\u2581hazel": 7150, "\u2581hears": 7151, "\u2581hedge": 7152, "\u2581heigh": 7153, "\u2581herbs": 7154, "\u2581holid": 7155, "\u2581imped": 7156, "\u2581impud": 7157, "\u2581lends": 7158, "\u2581locks": 7159, "\u2581loins": 7160, "\u2581loose": 7161, "\u2581lungs": 7162, "\u2581madly": 7163, "\u2581magic": 7164, "\u2581miles": 7165, "\u2581musty": 7166, "\u2581noses": 7167, "\u2581notes": 7168, "\u2581penny": 7169, "\u2581perem": 7170, "\u2581plate": 7171, "\u2581prays": 7172, "\u2581privy": 7173, "\u2581pupil": 7174, "\u2581quake": 7175, "\u2581rages": 7176, "\u2581rebel": 7177, "\u2581relig": 7178, "\u2581repet": 7179, "\u2581ripen": 7180, "\u2581rites": 7181, "\u2581rocks": 7182, "\u2581safer": 7183, "\u2581sands": 7184, "\u2581saucy": 7185, "\u2581scape": 7186, "\u2581scour": 7187, "\u2581separ": 7188, "\u2581shift": 7189, "\u2581shout": 7190, "\u2581siege": 7191, "\u2581signs": 7192, "\u2581sinew": 7193, "\u2581slack": 7194, "\u2581spilt": 7195, "\u2581split": 7196, "\u2581staff": 7197, "\u2581stirs": 7198, "\u2581sugar": 7199, "\u2581tamed": 7200, "\u2581tents": 7201, "\u2581thres": 7202, "\u2581token": 7203, "\u2581tower": 7204, "\u2581treat": 7205, "\u2581tried": 7206, "\u2581truer": 7207, "\u2581unple": 7208, "\u2581using": 7209, "\u2581value": 7210, "\u2581waken": 7211, "\u2581wheel": 7212, "\u2581whipt": 7213, "enerate": 7214, "entious": 7215, "fulness": 7216, "herited": 7217, "itories": 7218, "izabeth": 7219, "kenbury": 7220, "picious": 7221, "shining": 7222, "venient": 7223, "\u2581Attend": 7224, "\u2581Belike": 7225, "\u2581Calais": 7226, "\u2581Commit": 7227, "\u2581Cursed": 7228, "\u2581Darest": 7229, "\u2581Direct": 7230, "\u2581EMILIA": 7231, "\u2581Emilia": 7232, "\u2581Enough": 7233, "\u2581Forbid": 7234, "\u2581Greece": 7235, "\u2581Hector": 7236, "\u2581Herald": 7237, "\u2581Neighb": 7238, "\u2581Renown": 7239, "\u2581Repent": 7240, "\u2581SURREY": 7241, "\u2581Twenty": 7242, "\u2581Verily": 7243, "\u2581agreed": 7244, "\u2581allies": 7245, "\u2581anchor": 7246, "\u2581appell": 7247, "\u2581ashore": 7248, "\u2581assemb": 7249, "\u2581attent": 7250, "\u2581befits": 7251, "\u2581beseem": 7252, "\u2581beware": 7253, "\u2581bishop": 7254, "\u2581bleeds": 7255, "\u2581bought": 7256, "\u2581braved": 7257, "\u2581canker": 7258, "\u2581canopy": 7259, "\u2581caused": 7260, "\u2581centre": 7261, "\u2581chains": 7262, "\u2581chival": 7263, "\u2581coldly": 7264, "\u2581combat": 7265, "\u2581confer": 7266, "\u2581contri": 7267, "\u2581create": 7268, "\u2581darken": 7269, "\u2581debase": 7270, "\u2581deeper": 7271, "\u2581deeply": 7272, "\u2581defect": 7273, "\u2581denial": 7274, "\u2581device": 7275, "\u2581diadem": 7276, "\u2581dragon": 7277, "\u2581dreamt": 7278, "\u2581dwells": 7279, "\u2581entire": 7280, "\u2581events": 7281, "\u2581famish": 7282, "\u2581female": 7283, "\u2581fights": 7284, "\u2581firmly": 7285, "\u2581fitted": 7286, "\u2581forces": 7287, "\u2581forest": 7288, "\u2581fouler": 7289, "\u2581gaoler": 7290, "\u2581gloves": 7291, "\u2581harlot": 7292, "\u2581higher": 7293, "\u2581homage": 7294, "\u2581horror": 7295, "\u2581hunger": 7296, "\u2581impart": 7297, "\u2581infirm": 7298, "\u2581issued": 7299, "\u2581jocund": 7300, "\u2581killed": 7301, "\u2581latest": 7302, "\u2581limits": 7303, "\u2581looker": 7304, "\u2581louder": 7305, "\u2581madest": 7306, "\u2581madman": 7307, "\u2581malign": 7308, "\u2581marble": 7309, "\u2581mellow": 7310, "\u2581merely": 7311, "\u2581minded": 7312, "\u2581mutiny": 7313, "\u2581napkin": 7314, "\u2581naught": 7315, "\u2581needle": 7316, "\u2581nobler": 7317, "\u2581nursed": 7318, "\u2581obtain": 7319, "\u2581orphan": 7320, "\u2581pedant": 7321, "\u2581permit": 7322, "\u2581pledge": 7323, "\u2581plucks": 7324, "\u2581pocket": 7325, "\u2581pounds": 7326, "\u2581prerog": 7327, "\u2581profan": 7328, "\u2581prunes": 7329, "\u2581puppet": 7330, "\u2581quaint": 7331, "\u2581queens": 7332, "\u2581ragged": 7333, "\u2581raging": 7334, "\u2581rebuke": 7335, "\u2581render": 7336, "\u2581rescue": 7337, "\u2581resort": 7338, "\u2581rising": 7339, "\u2581rivers": 7340, "\u2581sayest": 7341, "\u2581scorns": 7342, "\u2581shower": 7343, "\u2581shriek": 7344, "\u2581shrink": 7345, "\u2581silken": 7346, "\u2581skulls": 7347, "\u2581sleeps": 7348, "\u2581sleepy": 7349, "\u2581solely": 7350, "\u2581spices": 7351, "\u2581starve": 7352, "\u2581strait": 7353, "\u2581stream": 7354, "\u2581street": 7355, "\u2581succor": 7356, "\u2581sunder": 7357, "\u2581suppli": 7358, "\u2581sweets": 7359, "\u2581tailor": 7360, "\u2581thorns": 7361, "\u2581threes": 7362, "\u2581trades": 7363, "\u2581tumble": 7364, "\u2581turned": 7365, "\u2581unborn": 7366, "\u2581unrest": 7367, "\u2581vassal": 7368, "\u2581volume": 7369, "\u2581vulgar": 7370, "\u2581widows": 7371, "\u2581wilful": 7372, "\u2581winged": 7373, "\u2581wisest": 7374, "\u2581woeful": 7375, "\u2581wolves": 7376, "ervation": 7377, "ifferent": 7378, "osterous": 7379, "pecially": 7380, "\u2581Advance": 7381, "\u2581Amongst": 7382, "\u2581Beshrew": 7383, "\u2581Between": 7384, "\u2581Betwixt": 7385, "\u2581Condemn": 7386, "\u2581Forbear": 7387, "\u2581Francis": 7388, "\u2581Grandam": 7389, "\u2581Gregory": 7390, "\u2581Masters": 7391, "\u2581Measure": 7392, "\u2581Phoebus": 7393, "\u2581achieve": 7394, "\u2581appoint": 7395, "\u2581assault": 7396, "\u2581baggage": 7397, "\u2581banquet": 7398, "\u2581beastly": 7399, "\u2581beating": 7400, "\u2581beguile": 7401, "\u2581blister": 7402, "\u2581calumny": 7403, "\u2581capital": 7404, "\u2581captive": 7405, "\u2581changes": 7406, "\u2581closely": 7407, "\u2581conspir": 7408, "\u2581contrad": 7409, "\u2581cordial": 7410, "\u2581council": 7411, "\u2581counted": 7412, "\u2581cousins": 7413, "\u2581created": 7414, "\u2581cuckold": 7415, "\u2581curious": 7416, "\u2581curtain": 7417, "\u2581dangers": 7418, "\u2581deceive": 7419, "\u2581degrees": 7420, "\u2581demands": 7421, "\u2581direful": 7422, "\u2581disobed": 7423, "\u2581divided": 7424, "\u2581divines": 7425, "\u2581divorce": 7426, "\u2581earldom": 7427, "\u2581exclaim": 7428, "\u2581faction": 7429, "\u2581faintly": 7430, "\u2581falsely": 7431, "\u2581fasting": 7432, "\u2581feeding": 7433, "\u2581follies": 7434, "\u2581footman": 7435, "\u2581forsake": 7436, "\u2581gentler": 7437, "\u2581getting": 7438, "\u2581glories": 7439, "\u2581happier": 7440, "\u2581haughty": 7441, "\u2581hideous": 7442, "\u2581highway": 7443, "\u2581hurried": 7444, "\u2581infring": 7445, "\u2581inherit": 7446, "\u2581knowest": 7447, "\u2581lecture": 7448, "\u2581lightly": 7449, "\u2581longest": 7450, "\u2581lustful": 7451, "\u2581matters": 7452, "\u2581merrily": 7453, "\u2581mockery": 7454, "\u2581mocking": 7455, "\u2581natures": 7456, "\u2581notwith": 7457, "\u2581nourish": 7458, "\u2581pardons": 7459, "\u2581pastime": 7460, "\u2581pattern": 7461, "\u2581perjury": 7462, "\u2581picture": 7463, "\u2581plaints": 7464, "\u2581procure": 7465, "\u2581profits": 7466, "\u2581pursued": 7467, "\u2581raiment": 7468, "\u2581rancour": 7469, "\u2581rascals": 7470, "\u2581recover": 7471, "\u2581replied": 7472, "\u2581reproof": 7473, "\u2581rewards": 7474, "\u2581roundly": 7475, "\u2581scarlet": 7476, "\u2581scholar": 7477, "\u2581shelter": 7478, "\u2581showers": 7479, "\u2581smiling": 7480, "\u2581society": 7481, "\u2581solicit": 7482, "\u2581spiders": 7483, "\u2581suffice": 7484, "\u2581superfl": 7485, "\u2581suppose": 7486, "\u2581supreme": 7487, "\u2581tainted": 7488, "\u2581threats": 7489, "\u2581throats": 7490, "\u2581tonight": 7491, "\u2581tribune": 7492, "\u2581tribute": 7493, "\u2581undergo": 7494, "\u2581villany": 7495, "\u2581warning": 7496, "\u2581wayward": 7497, "\u2581weighty": 7498, "\u2581wenches": 7499, "\u2581western": 7500, "\u2581whistle": 7501, "\u2581wonders": 7502, "mediately": 7503, "perienced": 7504, "\u2581Antiates": 7505, "\u2581Consider": 7506, "\u2581Dispatch": 7507, "\u2581Doricles": 7508, "\u2581Evermore": 7509, "\u2581Florizel": 7510, "\u2581Hercules": 7511, "\u2581Lodowick": 7512, "\u2581Meantime": 7513, "\u2581Overdone": 7514, "\u2581Phaethon": 7515, "\u2581Thoughts": 7516, "\u2581Touching": 7517, "\u2581Welshmen": 7518, "\u2581achieved": 7519, "\u2581admitted": 7520, "\u2581affright": 7521, "\u2581ambition": 7522, "\u2581appeared": 7523, "\u2581bachelor": 7524, "\u2581backward": 7525, "\u2581bankrupt": 7526, "\u2581baseness": 7527, "\u2581bootless": 7528, "\u2581brawling": 7529, "\u2581breaking": 7530, "\u2581breathes": 7531, "\u2581breeding": 7532, "\u2581chastity": 7533, "\u2581choleric": 7534, "\u2581comforts": 7535, "\u2581confines": 7536, "\u2581consumed": 7537, "\u2581councils": 7538, "\u2581counsels": 7539, "\u2581delights": 7540, "\u2581discords": 7541, "\u2581disorder": 7542, "\u2581distingu": 7543, "\u2581division": 7544, "\u2581drunkard": 7545, "\u2581embraced": 7546, "\u2581entrails": 7547, "\u2581farthest": 7548, "\u2581festival": 7549, "\u2581fighting": 7550, "\u2581frighted": 7551, "\u2581fruitful": 7552, "\u2581function": 7553, "\u2581governor": 7554, "\u2581harmless": 7555, "\u2581husbands": 7556, "\u2581imperial": 7557, "\u2581indirect": 7558, "\u2581inferior": 7559, "\u2581injuries": 7560, "\u2581intended": 7561, "\u2581knightly": 7562, "\u2581ladyship": 7563, "\u2581mariners": 7564, "\u2581medicine": 7565, "\u2581merciful": 7566, "\u2581millions": 7567, "\u2581minstrel": 7568, "\u2581miseries": 7569, "\u2581mounting": 7570, "\u2581mourning": 7571, "\u2581needless": 7572, "\u2581nobleman": 7573, "\u2581peaceful": 7574, "\u2581publicly": 7575, "\u2581puissant": 7576, "\u2581receives": 7577, "\u2581regiment": 7578, "\u2581remedies": 7579, "\u2581required": 7580, "\u2581requires": 7581, "\u2581resolute": 7582, "\u2581restored": 7583, "\u2581returned": 7584, "\u2581scarcely": 7585, "\u2581scolding": 7586, "\u2581stirring": 7587, "\u2581stooping": 7588, "\u2581strongly": 7589, "\u2581strumpet": 7590, "\u2581sunshine": 7591, "\u2581tenderly": 7592, "\u2581terrible": 7593, "\u2581timeless": 7594, "\u2581trembles": 7595, "\u2581triumphs": 7596, "\u2581unlawful": 7597, "\u2581vineyard": 7598, "\u2581welcomes": 7599, "\u2581worthily": 7600, "\u2581Affection": 7601, "\u2581Cleomenes": 7602, "\u2581Elizabeth": 7603, "\u2581NATHANIEL": 7604, "\u2581Patrician": 7605, "\u2581amazement": 7606, "\u2581blessings": 7607, "\u2581caparison": 7608, "\u2581concluded": 7609, "\u2581confusion": 7610, "\u2581consorted": 7611, "\u2581counterpo": 7612, "\u2581cowardice": 7613, "\u2581creatures": 7614, "\u2581delivered": 7615, "\u2581disguised": 7616, "\u2581dissemble": 7617, "\u2581elsewhere": 7618, "\u2581extremest": 7619, "\u2581following": 7620, "\u2581greetings": 7621, "\u2581impatient": 7622, "\u2581importune": 7623, "\u2581injurious": 7624, "\u2581insolence": 7625, "\u2581insulting": 7626, "\u2581lightness": 7627, "\u2581merriment": 7628, "\u2581mistaking": 7629, "\u2581necessary": 7630, "\u2581notorious": 7631, "\u2581penitence": 7632, "\u2581physician": 7633, "\u2581poisonous": 7634, "\u2581possessed": 7635, "\u2581posterity": 7636, "\u2581precedent": 7637, "\u2581preserved": 7638, "\u2581prisoners": 7639, "\u2581reckoning": 7640, "\u2581repossess": 7641, "\u2581restraint": 7642, "\u2581solemnity": 7643, "\u2581testimony": 7644, "\u2581treachery": 7645, "\u2581troublous": 7646, "\u2581unfeigned": 7647, "\u2581utterance": 7648, "\u2581witnesses": 7649, "\u2581wrangling": 7650, "\u2581Apothecary": 7651, "\u2581Brakenbury": 7652, "\u2581advertised": 7653, "\u2581altogether": 7654, "\u2581assistance": 7655, "\u2581cheerfully": 7656, "\u2581commanding": 7657, "\u2581conditions": 7658, "\u2581difference": 7659, "\u2581discharged": 7660, "\u2581distressed": 7661, "\u2581expedition": 7662, "\u2581headstrong": 7663, "\u2581impatience": 7664, "\u2581impediment": 7665, "\u2581impression": 7666, "\u2581inconstant": 7667, "\u2581jealousies": 7668, "\u2581knighthood": 7669, "\u2581lieutenant": 7670, "\u2581peremptory": 7671, "\u2581persuasion": 7672, "\u2581pestilence": 7673, "\u2581pronounced": 7674, "\u2581repetition": 7675, "\u2581sisterhood": 7676, "\u2581underneath": 7677, "\u2581witchcraft": 7678, "\u2581Christopher": 7679, "\u2581acknowledge": 7680, "\u2581chamberlain": 7681, "\u2581comfortable": 7682, "\u2581composition": 7683, "\u2581controversy": 7684, "\u2581forgiveness": 7685, "\u2581grandfather": 7686, "\u2581inclination": 7687, "\u2581indifferent": 7688, "\u2581interchange": 7689, "\u2581nightingale": 7690, "\u2581prerogative": 7691, "\u2581territories": 7692, "\u2581transported": 7693, "\u2581apprehension": 7694, "\u2581chastisement": 7695, "\u2581schoolmaster": 7696, "\u2581circumstances": 7697, "\u2581understanding": 7698, "\u2581notwithstanding": 7699, "'!": 7700, "CI": 7701, "My": 7702, "Ty": 7703, "av": 7704, "co": 7705, "oz": 7706, "sy": 7707, "We": 7708, "te": 7709, "wh": 7710, "'--": 7711, "ARL": 7712, "UNT": 7713, "alf": 7714, "alo": 7715, "ami": 7716, "aus": 7717, "bel": 7718, "bes": 7719, "can": 7720, "cho": 7721, "cts": 7722, "din": 7723, "dis": 7724, "dra": 7725, "dur": 7726, "ech": 7727, "ele": 7728, "erp": 7729, "erw": 7730, "fly": 7731, "gom": 7732, "hos": 7733, "hra": 7734, "ias": 7735, "iby": 7736, "ige": 7737, "iod": 7738, "isc": 7739, "las": 7740, "leh": 7741, "lex": 7742, "liv": 7743, "lla": 7744, "mak": 7745, "min": 7746, "nel": 7747, "net": 7748, "nit": 7749, "nut": 7750, "oln": 7751, "orc": 7752, "pol": 7753, "por": 7754, "qua": 7755, "reg": 7756, "ris": 7757, "sia": 7758, "ton": 7759, "ubs": 7760, "umn": 7761, "usc": 7762, "uto": 7763, "vir": 7764, "\u2581BL": 7765, "\u2581Pe": 7766, "\u2581SA": 7767, "\u2581Ti": 7768, "\u2581Tr": 7769, "\u2581au": 7770, "\u2581cy": 7771, "\u2581eg": 7772, "\u2581el": 7773, "\u2581ew": 7774, "\u2581ib": 7775, "\u2581la": 7776, "\u2581na": 7777, "\u2581ny": 7778, "\u2581ox": 7779, "CISC": 7780, "Fore": 7781, "Good": 7782, "Hear": 7783, "Soul": 7784, "Tell": 7785, "acks": 7786, "agoz": 7787, "aith": 7788, "alem": 7789, "alls": 7790, "ange": 7791, "anks": 7792, "apes": 7793, "arth": 7794, "ashy": 7795, "atin": 7796, "aved": 7797, "bast": 7798, "bery": 7799, "bled": 7800, "body": 7801, "bred": 7802, "cued": 7803, "dent": 7804, "door": 7805, "eria": 7806, "eyed": 7807, "bu": 7808, "fix": 7809, "pse": 7810, "spo": 7811, "vil": 7812, "alty": 7813, "fend": 7814, "ffic": 7815, "geal": 7816, "geon": 7817, "gher": 7818, "gone": 7819, "happ": 7820, "hear": 7821, "hers": 7822, "hild": 7823, "hoop": 7824, "hyme": 7825, "ican": 7826, "ilty": 7827, "inet": 7828, "isle": 7829, "itae": 7830, "itan": 7831, "keep": 7832, "lord": 7833, "lore": 7834, "lorn": 7835, "lous": 7836, "lves": 7837, "mary": 7838, "mast": 7839, "mind": 7840, "once": 7841, "oted": 7842, "pery": 7843, "phos": 7844, "pire": 7845, "ples": 7846, "pted": 7847, "pter": 7848, "qual": 7849, "reef": 7850, "rian": 7851, "ribe": 7852, "roop": 7853, "rung": 7854, "sick": 7855, "song": 7856, "take": 7857, "this": 7858, "tles": 7859, "tree": 7860, "tsey": 7861, "uity": 7862, "ulte": 7863, "unch": 7864, "urps": 7865, "utus": 7866, "vill": 7867, "vity": 7868, "\u2581Bea": 7869, "\u2581Beg": 7870, "\u2581Cob": 7871, "\u2581Cot": 7872, "\u2581Die": 7873, "\u2581Dou": 7874, "\u2581Dre": 7875, "\u2581Ele": 7876, "\u2581Err": 7877, "\u2581Eur": 7878, "\u2581Far": 7879, "\u2581Fer": 7880, "\u2581Hap": 7881, "\u2581Inf": 7882, "\u2581Lad": 7883, "\u2581Lud": 7884, "\u2581Mab": 7885, "\u2581Nat": 7886, "\u2581Opp": 7887, "\u2581Phi": 7888, "\u2581Pil": 7889, "\u2581Pit": 7890, "\u2581Ref": 7891, "\u2581Rus": 7892, "\u2581Sad": 7893, "\u2581Sub": 7894, "\u2581Uly": 7895, "\u2581Unb": 7896, "\u2581Unc": 7897, "\u2581Unw": 7898, "\u2581Var": 7899, "\u2581bau": 7900, "\u2581baw": 7901, "\u2581cas": 7902, "\u2581ced": 7903, "\u2581cri": 7904, "\u2581dol": 7905, "\u2581duc": 7906, "\u2581dug": 7907, "It": 7908, "arr": 7909, "azy": 7910, "bon": 7911, "book": 7912, "dict": 7913, "\u2581ant": 7914, "\u2581awe": 7915, "\u2581dun": 7916, "\u2581esc": 7917, "\u2581fed": 7918, "\u2581fen": 7919, "\u2581fut": 7920, "\u2581gay": 7921, "\u2581gir": 7922, "\u2581gle": 7923, "\u2581hab": 7924, "\u2581hen": 7925, "\u2581jar": 7926, "\u2581kit": 7927, "\u2581map": 7928, "\u2581mor": 7929, "\u2581mot": 7930, "\u2581mow": 7931, "\u2581nea": 7932, "\u2581nov": 7933, "\u2581oce": 7934, "\u2581orc": 7935, "\u2581ost": 7936, "\u2581phe": 7937, "\u2581pir": 7938, "\u2581poo": 7939, "\u2581pry": 7940, "\u2581raw": 7941, "\u2581rip": 7942, "\u2581rod": 7943, "\u2581roy": 7944, "\u2581rub": 7945, "\u2581sex": 7946, "\u2581sly": 7947, "\u2581sty": 7948, "\u2581tum": 7949, "\u2581utt": 7950, "\u2581vap": 7951, "\u2581vio": 7952, "\u2581web": 7953, "\u2581wra": 7954, "Heart": 7955, "abour": 7956, "acket": 7957, "ackey": 7958, "agate": 7959, "agems": 7960, "agine": 7961, "anous": 7962, "arded": 7963, "areth": 7964, "asciv": 7965, "asite": 7966, "assad": 7967, "ately": 7968, "atics": 7969, "atory": 7970, "aving": 7971, "bborn": 7972, "bered": 7973, "brain": 7974, "ccess": 7975, "ceipt": 7976, "child": 7977, "cible": 7978, "doing": 7979, "eases": 7980, "ected": 7981, "endom": 7982, "ennel": 7983, "ently": 7984, "erely": 7985, "erman": 7986, "ersha": 7987, "ggard": 7988, "gging": 7989, "greed": 7990, "gress": 7991, "hance": 7992, "iable": 7993, "icide": 7994, "icing": 7995, "ieldy": 7996, "ifter": 7997, "igeia": 7998, "ilver": 7999, "imois": 8000, "imple": 8001, "inite": 8002, "iving": 8003, "ivity": 8004, "izard": 8005, "jects": 8006, "journ": 8007, "abb": 8008, "bri": 8009, "cas": 8010, "voc": 8011, "cipl": 8012, "empl": 8013, "mony": 8014, "peak": 8015, "urbs": 8016, "\u2581Cut": 8017, "\u2581hew": 8018, "\u2581yew": 8019, "Souls": 8020, "guish": 8021, "lause": 8022, "lings": 8023, "loyal": 8024, "lphur": 8025, "nders": 8026, "odity": 8027, "oison": 8028, "olour": 8029, "omest": 8030, "oming": 8031, "ongue": 8032, "onour": 8033, "oting": 8034, "pence": 8035, "peror": 8036, "piece": 8037, "poses": 8038, "press": 8039, "prise": 8040, "pture": 8041, "quess": 8042, "quiet": 8043, "raign": 8044, "reach": 8045, "rings": 8046, "rosby": 8047, "score": 8048, "stood": 8049, "stool": 8050, "thren": 8051, "urity": 8052, "using": 8053, "ustle": 8054, "vener": 8055, "verns": 8056, "weary": 8057, "weigh": 8058, "wench": 8059, "women": 8060, "\u2581Acqu": 8061, "\u2581Adam": 8062, "\u2581Base": 8063, "\u2581Bore": 8064, "\u2581Bret": 8065, "\u2581Care": 8066, "\u2581Deep": 8067, "\u2581Dick": 8068, "\u2581Dion": 8069, "\u2581EARL": 8070, "\u2581FRAN": 8071, "\u2581Fitz": 8072, "\u2581Fool": 8073, "\u2581Gall": 8074, "\u2581Glad": 8075, "\u2581Half": 8076, "\u2581Hard": 8077, "\u2581Hung": 8078, "\u2581Jule": 8079, "\u2581Juno": 8080, "\u2581Last": 8081, "\u2581Leic": 8082, "\u2581Less": 8083, "\u2581Lift": 8084, "\u2581Luke": 8085, "\u2581Meet": 8086, "\u2581Near": 8087, "\u2581Nine": 8088, "\u2581Pale": 8089, "\u2581Ross": 8090, "\u2581Seal": 8091, "\u2581Sent": 8092, "\u2581Sirs": 8093, "\u2581Step": 8094, "\u2581Stir": 8095, "\u2581Stop": 8096, "\u2581Suff": 8097, "\u2581Tend": 8098, "\u2581Told": 8099, "\u2581Trem": 8100, "\u2581Weep": 8101, "\u2581Went": 8102, "\u2581adul": 8103, "\u2581aery": 8104, "\u2581agre": 8105, "\u2581aqua": 8106, "\u2581aust": 8107, "my": 8108, "soe": 8109, "hast": 8110, "warn": 8111, "\u2581Sel": 8112, "\u2581egg": 8113, "\u2581pul": 8114, "asted": 8115, "usual": 8116, "worth": 8117, "\u2581Carl": 8118, "\u2581Girl": 8119, "\u2581bait": 8120, "\u2581bale": 8121, "\u2581barb": 8122, "\u2581barr": 8123, "\u2581bash": 8124, "\u2581bate": 8125, "\u2581bats": 8126, "\u2581beho": 8127, "\u2581bide": 8128, "\u2581bier": 8129, "\u2581bind": 8130, "\u2581bone": 8131, "\u2581bulk": 8132, "\u2581calf": 8133, "\u2581caus": 8134, "\u2581cele": 8135, "\u2581cert": 8136, "\u2581chid": 8137, "\u2581cony": 8138, "\u2581crad": 8139, "\u2581crut": 8140, "\u2581cuff": 8141, "\u2581curs": 8142, "\u2581dial": 8143, "\u2581dimm": 8144, "\u2581doit": 8145, "\u2581emul": 8146, "\u2581exha": 8147, "\u2581eyeb": 8148, "\u2581fate": 8149, "\u2581fees": 8150, "\u2581file": 8151, "\u2581flag": 8152, "\u2581fowl": 8153, "\u2581gear": 8154, "\u2581gild": 8155, "\u2581gilt": 8156, "\u2581gnaw": 8157, "\u2581grub": 8158, "\u2581heal": 8159, "\u2581hilt": 8160, "\u2581hint": 8161, "\u2581hook": 8162, "\u2581howl": 8163, "\u2581hush": 8164, "\u2581ibat": 8165, "\u2581jump": 8166, "\u2581keen": 8167, "\u2581kern": 8168, "\u2581lain": 8169, "\u2581lame": 8170, "\u2581lamp": 8171, "\u2581lane": 8172, "\u2581lass": 8173, "\u2581lazy": 8174, "\u2581limb": 8175, "\u2581lurk": 8176, "\u2581mart": 8177, "\u2581mass": 8178, "\u2581mete": 8179, "\u2581ming": 8180, "\u2581muse": 8181, "\u2581mute": 8182, "\u2581nuns": 8183, "\u2581pals": 8184, "\u2581park": 8185, "\u2581peck": 8186, "\u2581pens": 8187, "\u2581pith": 8188, "\u2581poll": 8189, "\u2581raze": 8190, "\u2581resp": 8191, "\u2581road": 8192, "\u2581rood": 8193, "\u2581rope": 8194, "\u2581scra": 8195, "\u2581skin": 8196, "\u2581soar": 8197, "\u2581stew": 8198, "\u2581subm": 8199, "\u2581sues": 8200, "\u2581suns": 8201, "\u2581surm": 8202, "\u2581surn": 8203, "\u2581swim": 8204, "\u2581symp": 8205, "\u2581thra": 8206, "\u2581tire": 8207, "\u2581Staf": 8208, "\u2581ribb": 8209, "\u2581toss": 8210, "\u2581toys": 8211, "\u2581trod": 8212, "\u2581unaw": 8213, "\u2581unlo": 8214, "\u2581unsc": 8215, "\u2581vehe": 8216, "\u2581vest": 8217, "\u2581ware": 8218, "\u2581wary": 8219, "\u2581yard": 8220, "Tybalt": 8221, "acious": 8222, "antial": 8223, "arling": 8224, "atiate": 8225, "attery": 8226, "bering": 8227, "boding": 8228, "durate": 8229, "echery": 8230, "eliver": 8231, "ellows": 8232, "ension": 8233, "enting": 8234, "esters": 8235, "eterat": 8236, "favour": 8237, "gomery": 8238, "haniel": 8239, "horson": 8240, "iction": 8241, "ierced": 8242, "ighton": 8243, "inance": 8244, "inctly": 8245, "iously": 8246, "ixture": 8247, "lehill": 8248, "livion": 8249, "makers": 8250, "mbling": 8251, "minded": 8252, "oubted": 8253, "oughby": 8254, "overed": 8255, "people": 8256, "pherds": 8257, "randon": 8258, "reathe": 8259, "rehend": 8260, "retion": 8261, "ristol": 8262, "rolled": 8263, "ruised": 8264, "scaped": 8265, "school": 8266, "scribe": 8267, "shapen": 8268, "ternal": 8269, "tinent": 8270, "usalem": 8271, "usters": 8272, "vering": 8273, "withal": 8274, "\u2581Abbot": 8275, "\u2581Afric": 8276, "\u2581Alone": 8277, "\u2581April": 8278, "\u2581Awake": 8279, "\u2581BLUNT": 8280, "\u2581Black": 8281, "\u2581Blind": 8282, "\u2581Blood": 8283, "\u2581Blush": 8284, "\u2581Brave": 8285, "\u2581Cheer": 8286, "\u2581Child": 8287, "\u2581Const": 8288, "\u2581Dukes": 8289, "\u2581Envir": 8290, "\u2581Exton": 8291, "\u2581Found": 8292, "\u2581Given": 8293, "\u2581Guild": 8294, "\u2581Helen": 8295, "\u2581Irish": 8296, "\u2581James": 8297, "\u2581Knows": 8298, "\u2581LORDS": 8299, "\u2581Latin": 8300, "\u2581Lives": 8301, "\u2581Loved": 8302, "\u2581Mount": 8303, "\u2581Night": 8304, "\u2581Place": 8305, "\u2581Plain": 8306, "\u2581Pluck": 8307, "\u2581Proud": 8308, "\u2581Quick": 8309, "\u2581Ragoz": 8310, "\u2581Revol": 8311, "\u2581SALIS": 8312, "\u2581Sland": 8313, "\u2581Sleep": 8314, "\u2581Small": 8315, "\u2581Spoke": 8316, "\u2581Susan": 8317, "\u2581Takes": 8318, "\u2581Tiber": 8319, "\u2581Trans": 8320, "\u2581Turks": 8321, "\u2581White": 8322, "\u2581aches": 8323, "\u2581added": 8324, "\u2581adder": 8325, "\u2581adorn": 8326, "\u2581agony": 8327, "\u2581amity": 8328, "\u2581annoy": 8329, "\u2581asked": 8330, "\u2581atone": 8331, "\u2581awful": 8332, "\u2581bandy": 8333, "\u2581basil": 8334, "\u2581bawdy": 8335, "\u2581bench": 8336, "\u2581bills": 8337, "\u2581bites": 8338, "\u2581blasp": 8339, "\u2581blots": 8340, "\u2581bonds": 8341, "\u2581bonny": 8342, "\u2581bragg": 8343, "\u2581brine": 8344, "\u2581built": 8345, "\u2581chaff": 8346, "\u2581chain": 8347, "\u2581choke": 8348, "\u2581chron": 8349, "\u2581cleft": 8350, "\u2581coats": 8351, "\u2581cropp": 8352, "\u2581curbs": 8353, "\u2581daint": 8354, "\u2581depth": 8355, "\u2581dooms": 8356, "\u2581dropp": 8357, "\u2581edict": 8358, "\u2581effem": 8359, "\u2581endea": 8360, "\u2581endow": 8361, "\u2581ensue": 8362, "\u2581estab": 8363, "\u2581fails": 8364, "\u2581fence": 8365, "\u2581fifty": 8366, "\u2581flour": 8367, "\u2581forms": 8368, "\u2581gamut": 8369, "\u2581giant": 8370, "\u2581girls": 8371, "\u2581glove": 8372, "\u2581goest": 8373, "\u2581gorge": 8374, "\u2581greed": 8375, "\u2581grove": 8376, "\u2581hardy": 8377, "\u2581harms": 8378, "\u2581haven": 8379, "\u2581helms": 8380, "\u2581herds": 8381, "\u2581hills": 8382, "\u2581hoped": 8383, "\u2581impre": 8384, "\u2581incur": 8385, "\u2581influ": 8386, "\u2581knell": 8387, "\u2581lacks": 8388, "\u2581liars": 8389, "\u2581linen": 8390, "\u2581longs": 8391, "\u2581manly": 8392, "\u2581masqu": 8393, "\u2581moans": 8394, "\u2581needy": 8395, "\u2581niece": 8396, "\u2581ninet": 8397, "\u2581nymph": 8398, "\u2581outst": 8399, "\u2581parch": 8400, "\u2581parle": 8401, "\u2581pikes": 8402, "\u2581piled": 8403, "\u2581pines": 8404, "\u2581plays": 8405, "\u2581plent": 8406, "\u2581ports": 8407, "\u2581posts": 8408, "\u2581pratt": 8409, "\u2581quest": 8410, "\u2581rates": 8411, "\u2581rheum": 8412, "\u2581rings": 8413, "\u2581sails": 8414, "\u2581scare": 8415, "\u2581scars": 8416, "\u2581senis": 8417, "\u2581shine": 8418, "\u2581shock": 8419, "\u2581shunn": 8420, "\u2581slide": 8421, "\u2581smelt": 8422, "\u2581sober": 8423, "\u2581songs": 8424, "\u2581space": 8425, "\u2581spear": 8426, "\u2581spell": 8427, "\u2581spurn": 8428, "\u2581stage": 8429, "\u2581start": 8430, "\u2581stole": 8431, "\u2581strat": 8432, "\u2581stray": 8433, "\u2581strip": 8434, "\u2581stuck": 8435, "\u2581suret": 8436, "\u2581surly": 8437, "\u2581swine": 8438, "\u2581tales": 8439, "\u2581threw": 8440, "\u2581tides": 8441, "\u2581tunes": 8442, "\u2581unacc": 8443, "\u2581unfit": 8444, "\u2581unity": 8445, "\u2581unman": 8446, "\u2581unpre": 8447, "\u2581upper": 8448, "\u2581usage": 8449, "\u2581verge": 8450, "\u2581vices": 8451, "\u2581visor": 8452, "\u2581wagon": 8453, "\u2581walks": 8454, "\u2581whate": 8455, "aration": 8456, "bastian": 8457, "cession": 8458, "erwhelm": 8459, "forward": 8460, "igation": 8461, "liction": 8462, "minster": 8463, "reefold": 8464, "resseth": 8465, "seeming": 8466, "\u2581Amazon": 8467, "\u2581Assist": 8468, "\u2581Awaked": 8469, "\u2581Banish": 8470, "\u2581Become": 8471, "\u2581Castle": 8472, "\u2581Church": 8473, "\u2581Cobham": 8474, "\u2581Crosby": 8475, "\u2581Europe": 8476, "\u2581Except": 8477, "\u2581Fellow": 8478, "\u2581Forget": 8479, "\u2581Hallow": 8480, "\u2581Honest": 8481, "\u2581Julius": 8482, "\u2581Lammas": 8483, "\u2581Little": 8484, "\u2581Ludlow": 8485, "\u2581Merely": 8486, "\u2581Philip": 8487, "\u2581Plashy": 8488, "\u2581Player": 8489, "\u2581Prodig": 8490, "\u2581Redeem": 8491, "\u2581Repair": 8492, "\u2581Rescue": 8493, "\u2581Russia": 8494, "\u2581Sorrow": 8495, "\u2581Throng": 8496, "\u2581Tongue": 8497, "\u2581Valent": 8498, "\u2581Whence": 8499, "\u2581Withal": 8500, "\u2581Yonder": 8501, "\u2581abuses": 8502, "\u2581acting": 8503, "\u2581adulte": 8504, "\u2581ambush": 8505, "\u2581argosy": 8506, "\u2581ascend": 8507, "\u2581attach": 8508, "\u2581avouch": 8509, "\u2581bauble": 8510, "\u2581became": 8511, "\u2581beetle": 8512, "\u2581bewray": 8513, "\u2581births": 8514, "\u2581biting": 8515, "\u2581blasts": 8516, "\u2581blocks": 8517, "\u2581bonnet": 8518, "\u2581brazen": 8519, "\u2581broils": 8520, "\u2581buckle": 8521, "\u2581burial": 8522, "\u2581busied": 8523, "\u2581bustle": 8524, "\u2581candle": 8525, "\u2581cannib": 8526, "\u2581chafed": 8527, "\u2581charms": 8528, "\u2581cheers": 8529, "\u2581chides": 8530, "\u2581clergy": 8531, "\u2581clothe": 8532, "\u2581coffin": 8533, "\u2581colder": 8534, "\u2581commit": 8535, "\u2581conver": 8536, "\u2581courts": 8537, "\u2581crimes": 8538, "\u2581crutch": 8539, "\u2581dainty": 8540, "\u2581dances": 8541, "\u2581daring": 8542, "\u2581darkly": 8543, "\u2581decree": 8544, "\u2581digest": 8545, "\u2581dishes": 8546, "\u2581divers": 8547, "\u2581divide": 8548, "\u2581doings": 8549, "\u2581drinks": 8550, "\u2581driven": 8551, "\u2581drowsy": 8552, "\u2581ducats": 8553, "\u2581eating": 8554, "\u2581elders": 8555, "\u2581encomp": 8556, "\u2581enjoin": 8557, "\u2581enjoys": 8558, "\u2581enters": 8559, "\u2581execut": 8560, "\u2581expost": 8561, "\u2581fabric": 8562, "\u2581fathom": 8563, "\u2581feeble": 8564, "\u2581fester": 8565, "\u2581fickle": 8566, "\u2581fiends": 8567, "\u2581filthy": 8568, "\u2581fitter": 8569, "\u2581flayed": 8570, "\u2581fliers": 8571, "\u2581flinty": 8572, "\u2581floods": 8573, "\u2581fourth": 8574, "\u2581fruits": 8575, "\u2581future": 8576, "\u2581garlic": 8577, "\u2581gentry": 8578, "\u2581ginger": 8579, "\u2581gotten": 8580, "\u2581gratis": 8581, "\u2581greets": 8582, "\u2581handle": 8583, "\u2581happen": 8584, "\u2581harder": 8585, "\u2581hearth": 8586, "\u2581hounds": 8587, "\u2581hourly": 8588, "\u2581humane": 8589, "\u2581impose": 8590, "\u2581infamy": 8591, "\u2581issues": 8592, "\u2581jewels": 8593, "\u2581justly": 8594, "\u2581kennel": 8595, "\u2581kitche": 8596, "\u2581leader": 8597, "\u2581lesson": 8598, "\u2581levied": 8599, "\u2581lineal": 8600, "\u2581lively": 8601, "\u2581mantle": 8602, "\u2581mathem": 8603, "\u2581melted": 8604, "\u2581mirror": 8605, "\u2581morsel": 8606, "\u2581nearer": 8607, "\u2581nerves": 8608, "\u2581nettle": 8609, "\u2581ordain": 8610, "\u2581parcel": 8611, "\u2581passes": 8612, "\u2581penury": 8613, "\u2581period": 8614, "\u2581placed": 8615, "\u2581planet": 8616, "\u2581porter": 8617, "\u2581potion": 8618, "\u2581powder": 8619, "\u2581presum": 8620, "\u2581pricks": 8621, "\u2581proofs": 8622, "\u2581prover": 8623, "\u2581purged": 8624, "\u2581purses": 8625, "\u2581quarre": 8626, "\u2581rabble": 8627, "\u2581rarest": 8628, "\u2581refuge": 8629, "\u2581region": 8630, "\u2581rehear": 8631, "\u2581relish": 8632, "\u2581remiss": 8633, "\u2581remote": 8634, "\u2581repaid": 8635, "\u2581revell": 8636, "\u2581revers": 8637, "\u2581revive": 8638, "\u2581rigour": 8639, "\u2581rogues": 8640, "\u2581rumour": 8641, "\u2581saddle": 8642, "\u2581salute": 8643, "\u2581scouts": 8644, "\u2581seemed": 8645, "\u2581shamed": 8646, "\u2581sheets": 8647, "\u2581shores": 8648, "\u2581shouts": 8649, "\u2581sickly": 8650, "\u2581smiled": 8651, "\u2581soften": 8652, "\u2581softly": 8653, "\u2581solace": 8654, "\u2581spoils": 8655, "\u2581starts": 8656, "\u2581strain": 8657, "\u2581strang": 8658, "\u2581streak": 8659, "\u2581stride": 8660, "\u2581string": 8661, "\u2581subdue": 8662, "\u2581suborn": 8663, "\u2581summon": 8664, "\u2581supple": 8665, "\u2581survey": 8666, "\u2581talked": 8667, "\u2581tatter": 8668, "\u2581tellus": 8669, "\u2581thorny": 8670, "\u2581thrift": 8671, "\u2581throng": 8672, "\u2581tinker": 8673, "\u2581titles": 8674, "\u2581traged": 8675, "\u2581tragic": 8676, "\u2581treaty": 8677, "\u2581treble": 8678, "\u2581trudge": 8679, "\u2581tumult": 8680, "\u2581turtle": 8681, "\u2581uneven": 8682, "\u2581unwill": 8683, "\u2581urging": 8684, "\u2581usurer": 8685, "\u2581vanish": 8686, "\u2581verity": 8687, "\u2581vigour": 8688, "\u2581violet": 8689, "\u2581waning": 8690, "\u2581wasted": 8691, "\u2581welkin": 8692, "\u2581wheels": 8693, "\u2581wheres": 8694, "\u2581wildly": 8695, "\u2581wishes": 8696, "\u2581wooers": 8697, "\u2581yellow": 8698, "asonable": 8699, "changing": 8700, "cription": 8701, "peration": 8702, "ratitude": 8703, "\u2581Bearing": 8704, "\u2581Brandon": 8705, "\u2581Breathe": 8706, "\u2581Bristol": 8707, "\u2581Brought": 8708, "\u2581Delphos": 8709, "\u2581Destroy": 8710, "\u2581Dighton": 8711, "\u2581Enforce": 8712, "\u2581Forgive": 8713, "\u2581Forrest": 8714, "\u2581Happily": 8715, "\u2581Heavens": 8716, "\u2581Hostess": 8717, "\u2581Imagine": 8718, "\u2581Mariner": 8719, "\u2581Meaning": 8720, "\u2581Mercury": 8721, "\u2581Princes": 8722, "\u2581Seeking": 8723, "\u2581Setting": 8724, "\u2581Showing": 8725, "\u2581Silence": 8726, "\u2581Tarquin": 8727, "\u2581Thither": 8728, "\u2581Ulysses": 8729, "\u2581Valeria": 8730, "\u2581Witness": 8731, "\u2581Wouldst": 8732, "\u2581ability": 8733, "\u2581amended": 8734, "\u2581anguish": 8735, "\u2581arrival": 8736, "\u2581article": 8737, "\u2581ballads": 8738, "\u2581bargain": 8739, "\u2581bashful": 8740, "\u2581battery": 8741, "\u2581beggary": 8742, "\u2581begging": 8743, "\u2581belongs": 8744, "\u2581beshrew": 8745, "\u2581besiege": 8746, "\u2581bewitch": 8747, "\u2581bondage": 8748, "\u2581breaths": 8749, "\u2581briefly": 8750, "\u2581brittle": 8751, "\u2581buzzard": 8752, "\u2581calling": 8753, "\u2581capable": 8754, "\u2581carrion": 8755, "\u2581clouded": 8756, "\u2581coffers": 8757, "\u2581compell": 8758, "\u2581consort": 8759, "\u2581consuls": 8760, "\u2581consume": 8761, "\u2581control": 8762, "\u2581convent": 8763, "\u2581convers": 8764, "\u2581corners": 8765, "\u2581courses": 8766, "\u2581crowned": 8767, "\u2581cushion": 8768, "\u2581dastard": 8769, "\u2581dealing": 8770, "\u2581decrees": 8771, "\u2581derived": 8772, "\u2581deserts": 8773, "\u2581desired": 8774, "\u2581discipl": 8775, "\u2581discred": 8776, "\u2581dislike": 8777, "\u2581distrib": 8778, "\u2581doleful": 8779, "\u2581doublet": 8780, "\u2581doubted": 8781, "\u2581duteous": 8782, "\u2581effects": 8783, "\u2581engross": 8784, "\u2581evident": 8785, "\u2581fairies": 8786, "\u2581fitting": 8787, "\u2581foaming": 8788, "\u2581fooling": 8789, "\u2581footing": 8790, "\u2581forerun": 8791, "\u2581forlorn": 8792, "\u2581forsook": 8793, "\u2581fresher": 8794, "\u2581gainsay": 8795, "\u2581glister": 8796, "\u2581goodman": 8797, "\u2581gossips": 8798, "\u2581greatly": 8799, "\u2581hatches": 8800, "\u2581heavily": 8801, "\u2581helmets": 8802, "\u2581helping": 8803, "\u2581highest": 8804, "\u2581hostess": 8805, "\u2581incense": 8806, "\u2581infancy": 8807, "\u2581inhabit": 8808, "\u2581injured": 8809, "\u2581instead": 8810, "\u2581intends": 8811, "\u2581justify": 8812, "\u2581keeping": 8813, "\u2581kissing": 8814, "\u2581knavery": 8815, "\u2581longing": 8816, "\u2581lurking": 8817, "\u2581mangled": 8818, "\u2581mankind": 8819, "\u2581message": 8820, "\u2581mistook": 8821, "\u2581nearest": 8822, "\u2581nightly": 8823, "\u2581ominous": 8824, "\u2581opening": 8825, "\u2581opposed": 8826, "\u2581orchard": 8827, "\u2581orderly": 8828, "\u2581orphans": 8829, "\u2581painful": 8830, "\u2581parlous": 8831, "\u2581partake": 8832, "\u2581partial": 8833, "\u2581peasant": 8834, "\u2581perused": 8835, "\u2581plotted": 8836, "\u2581plucked": 8837, "\u2581poorest": 8838, "\u2581portion": 8839, "\u2581praised": 8840, "\u2581precise": 8841, "\u2581presses": 8842, "\u2581prodigy": 8843, "\u2581produce": 8844, "\u2581proffer": 8845, "\u2581pursues": 8846, "\u2581qualify": 8847, "\u2581quality": 8848, "\u2581quicken": 8849, "\u2581receipt": 8850, "\u2581recount": 8851, "\u2581regreet": 8852, "\u2581release": 8853, "\u2581relieve": 8854, "\u2581requite": 8855, "\u2581resteth": 8856, "\u2581returns": 8857, "\u2581rightly": 8858, "\u2581robbers": 8859, "\u2581royally": 8860, "\u2581sailors": 8861, "\u2581scourge": 8862, "\u2581seeking": 8863, "\u2581seemeth": 8864, "\u2581sending": 8865, "\u2581serving": 8866, "\u2581session": 8867, "\u2581shorten": 8868, "\u2581slender": 8869, "\u2581smoking": 8870, "\u2581soonest": 8871, "\u2581spotted": 8872, "\u2581sprites": 8873, "\u2581stabbed": 8874, "\u2581stripes": 8875, "\u2581studied": 8876, "\u2581studies": 8877, "\u2581subdued": 8878, "\u2581suburbs": 8879, "\u2581sulphur": 8880, "\u2581summers": 8881, "\u2581surname": 8882, "\u2581sweeten": 8883, "\u2581swifter": 8884, "\u2581swiftly": 8885, "\u2581teeming": 8886, "\u2581tending": 8887, "\u2581thirsty": 8888, "\u2581torches": 8889, "\u2581traffic": 8890, "\u2581turning": 8891, "\u2581univers": 8892, "\u2581unusual": 8893, "\u2581violate": 8894, "\u2581waiting": 8895, "\u2581wealthy": 8896, "\u2581wearing": 8897, "\u2581whipped": 8898, "\u2581winding": 8899, "\u2581wishing": 8900, "ascivious": 8901, "beseeming": 8902, "pretation": 8903, "\u2581Abhorson": 8904, "\u2581Accursed": 8905, "\u2581Acquaint": 8906, "\u2581Carlisle": 8907, "\u2581Chertsey": 8908, "\u2581Children": 8909, "\u2581FRANCISC": 8910, "\u2581Persuade": 8911, "\u2581Ragozine": 8912, "\u2581Renowned": 8913, "\u2581Senators": 8914, "\u2581Stafford": 8915, "\u2581Standing": 8916, "\u2581Thinking": 8917, "\u2581Together": 8918, "\u2581Yourself": 8919, "\u2581abundant": 8920, "\u2581affected": 8921, "\u2581ambassad": 8922, "\u2581applause": 8923, "\u2581argument": 8924, "\u2581articles": 8925, "\u2581aspiring": 8926, "\u2581assembly": 8927, "\u2581bastardy": 8928, "\u2581beauties": 8929, "\u2581beggarly": 8930, "\u2581beguiled": 8931, "\u2581brethren": 8932, "\u2581bringing": 8933, "\u2581butchers": 8934, "\u2581censured": 8935, "\u2581ceremony": 8936, "\u2581champion": 8937, "\u2581charters": 8938, "\u2581cheerful": 8939, "\u2581chivalry": 8940, "\u2581complete": 8941, "\u2581confined": 8942, "\u2581creation": 8943, "\u2581creeping": 8944, "\u2581criminal": 8945, "\u2581crutches": 8946, "\u2581daylight": 8947, "\u2581deceased": 8948, "\u2581delivery": 8949, "\u2581detested": 8950, "\u2581differen": 8951, "\u2581directly": 8952, "\u2581discreet": 8953, "\u2581diseases": 8954, "\u2581disguise": 8955, "\u2581disloyal": 8956, "\u2581disperse": 8957, "\u2581disposed": 8958, "\u2581drooping": 8959, "\u2581drowning": 8960, "\u2581dwelling": 8961, "\u2581election": 8962, "\u2581elements": 8963, "\u2581embraces": 8964, "\u2581enfranch": 8965, "\u2581entering": 8966, "\u2581exclaims": 8967, "\u2581external": 8968, "\u2581factious": 8969, "\u2581fashions": 8970, "\u2581fearless": 8971, "\u2581feasting": 8972, "\u2581foretell": 8973, "\u2581freshest": 8974, "\u2581fretting": 8975, "\u2581frowning": 8976, "\u2581handsome": 8977, "\u2581homicide": 8978, "\u2581hopeless": 8979, "\u2581horrible": 8980, "\u2581infinite": 8981, "\u2581infringe": 8982, "\u2581instance": 8983, "\u2581interest": 8984, "\u2581jointure": 8985, "\u2581laboured": 8986, "\u2581laughter": 8987, "\u2581leanness": 8988, "\u2581manacles": 8989, "\u2581marquess": 8990, "\u2581marrying": 8991, "\u2581mightily": 8992, "\u2581molehill": 8993, "\u2581mutinies": 8994, "\u2581nineteen": 8995, "\u2581obdurate": 8996, "\u2581oblivion": 8997, "\u2581obscured": 8998, "\u2581ordering": 8999, "\u2581painting": 9000, "\u2581paradise": 9001, "\u2581parasite": 9002, "\u2581pleaseth": 9003, "\u2581posterns": 9004, "\u2581pregnant": 9005, "\u2581prevails": 9006, "\u2581prodigal": 9007, "\u2581profound": 9008, "\u2581purposes": 9009, "\u2581reckless": 9010, "\u2581relation": 9011, "\u2581reprieve": 9012, "\u2581requital": 9013, "\u2581reserved": 9014, "\u2581resisted": 9015, "\u2581respects": 9016, "\u2581restrain": 9017, "\u2581rosemary": 9018, "\u2581security": 9019, "\u2581severity": 9020, "\u2581slanders": 9021, "\u2581somebody": 9022, "\u2581speeches": 9023, "\u2581speedily": 9024, "\u2581stealing": 9025, "\u2581steterat": 9026, "\u2581stinking": 9027, "\u2581stubborn": 9028, "\u2581stumbled": 9029, "\u2581swearing": 9030, "\u2581thorough": 9031, "\u2581timorous": 9032, "\u2581torments": 9033, "\u2581toucheth": 9034, "\u2581trencher": 9035, "\u2581trenches": 9036, "\u2581tumbling": 9037, "\u2581unawares": 9038, "\u2581ungentle": 9039, "\u2581unjustly": 9040, "\u2581unrevere": 9041, "\u2581unthrift": 9042, "\u2581vexation": 9043, "\u2581visiting": 9044, "\u2581warrants": 9045, "\u2581watchful": 9046, "\u2581womanish": 9047, "\u2581worships": 9048, "\u2581worthier": 9049, "estershire": 9050, "\u2581Condition": 9051, "\u2581Fitzwater": 9052, "\u2581Forthwith": 9053, "\u2581Hallowmas": 9054, "\u2581Jerusalem": 9055, "\u2581Nathaniel": 9056, "\u2581Perchance": 9057, "\u2581Persuades": 9058, "\u2581SALISBURY": 9059, "\u2581Sebastian": 9060, "\u2581abundance": 9061, "\u2581accompany": 9062, "\u2581agreement": 9063, "\u2581ancestors": 9064, "\u2581appellant": 9065, "\u2581arguments": 9066, "\u2581attorneys": 9067, "\u2581beautiful": 9068, "\u2581beginning": 9069, "\u2581butterfly": 9070, "\u2581certainly": 9071, "\u2581clamorous": 9072, "\u2581commodity": 9073, "\u2581complices": 9074, "\u2581consented": 9075, "\u2581conserves": 9076, "\u2581continued": 9077, "\u2581customary": 9078, "\u2581deformity": 9079, "\u2581diligence": 9080, "\u2581discovery": 9081, "\u2581distemper": 9082, "\u2581doubtless": 9083, "\u2581eloquence": 9084, "\u2581emulation": 9085, "\u2581encourage": 9086, "\u2581entreated": 9087, "\u2581expressly": 9088, "\u2581fantastic": 9089, "\u2581fortnight": 9090, "\u2581fortunate": 9091, "\u2581heaviness": 9092, "\u2581incapable": 9093, "\u2581infirmity": 9094, "\u2581innocency": 9095, "\u2581innocents": 9096, "\u2581insinuate": 9097, "\u2581intercept": 9098, "\u2581invention": 9099, "\u2581lengthens": 9100, "\u2581liberties": 9101, "\u2581malicious": 9102, "\u2581malignant": 9103, "\u2581minstrels": 9104, "\u2581momentary": 9105, "\u2581moveables": 9106, "\u2581murdering": 9107, "\u2581obsequies": 9108, "\u2581offenders": 9109, "\u2581ordinance": 9110, "\u2581overheard": 9111, "\u2581overthrow": 9112, "\u2581patiently": 9113, "\u2581perchance": 9114, "\u2581persuaded": 9115, "\u2581petitions": 9116, "\u2581pleasures": 9117, "\u2581privately": 9118, "\u2581qualities": 9119, "\u2581residence": 9120, "\u2581sacrifice": 9121, "\u2581separated": 9122, "\u2581shameless": 9123, "\u2581shepherds": 9124, "\u2581signories": 9125, "\u2581sparkling": 9126, "\u2581spectacle": 9127, "\u2581strangely": 9128, "\u2581subscribe": 9129, "\u2581suppliant": 9130, "\u2581surprised": 9131, "\u2581temperate": 9132, "\u2581threefold": 9133, "\u2581threshold": 9134, "\u2581throughly": 9135, "\u2581transport": 9136, "\u2581unavoided": 9137, "\u2581uncertain": 9138, "\u2581unluckily": 9139, "\u2581villanous": 9140, "\u2581whereupon": 9141, "\u2581wondering": 9142, "\u2581worthiest": 9143, "\u2581Englishman": 9144, "\u2581Montgomery": 9145, "\u2581Pursuivant": 9146, "\u2581Willoughby": 9147, "\u2581accomplish": 9148, "\u2581adulteress": 9149, "\u2581affliction": 9150, "\u2581afterwards": 9151, "\u2581alteration": 9152, "\u2581apothecary": 9153, "\u2581approaches": 9154, "\u2581changeling": 9155, "\u2581charitable": 9156, "\u2581companions": 9157, "\u2581complaints": 9158, "\u2581conspiracy": 9159, "\u2581countryman": 9160, "\u2581degenerate": 9161, "\u2581detestable": 9162, "\u2581discretion": 9163, "\u2581disinherit": 9164, "\u2581displeased": 9165, "\u2581distinctly": 9166, "\u2581effeminate": 9167, "\u2581enterprise": 9168, "\u2581especially": 9169, "\u2581favourable": 9170, "\u2581forefather": 9171, "\u2581imposition": 9172, "\u2581ingrateful": 9173, "\u2581inveterate": 9174, "\u2581lineaments": 9175, "\u2581magistrate": 9176, "\u2581maidenhead": 9177, "\u2581manifested": 9178, "\u2581meditation": 9179, "\u2581physicians": 9180, "\u2581proceeding": 9181, "\u2581profession": 9182, "\u2581prophecies": 9183, "\u2581punishment": 9184, "\u2581reasonable": 9185, "\u2581reconciled": 9186, "\u2581remembered": 9187, "\u2581spectators": 9188, "\u2581speechless": 9189, "\u2581stratagems": 9190, "\u2581strengthen": 9191, "\u2581submission": 9192, "\u2581temperance": 9193, "\u2581tongueless": 9194, "\u2581unaccustom": 9195, "\u2581unpleasing": 9196, "\u2581unprovided": 9197, "\u2581victorious": 9198, "\u2581worshipful": 9199, "\u2581wrongfully": 9200, "\u2581Christendom": 9201, "\u2581Westminster": 9202, "\u2581accusations": 9203, "\u2581advancement": 9204, "\u2581authorities": 9205, "\u2581commandment": 9206, "\u2581complexions": 9207, "\u2581confederate": 9208, "\u2581considering": 9209, "\u2581countermand": 9210, "\u2581deliverance": 9211, "\u2581desperately": 9212, "\u2581dissembling": 9213, "\u2581distinguish": 9214, "\u2581enforcement": 9215, "\u2581everlasting": 9216, "\u2581fantastical": 9217, "\u2581fornication": 9218, "\u2581immediately": 9219, "\u2581inheritance": 9220, "\u2581mathematics": 9221, "\u2581necessities": 9222, "\u2581preparation": 9223, "\u2581resemblance": 9224, "\u2581yesternight": 9225, "\u2581acquaintance": 9226, "\u2581disinherited": 9227, "\u2581embracements": 9228, "\u2581instructions": 9229, "\u2581intercession": 9230, "\u2581lamentations": 9231, "\u2581peradventure": 9232, "\u2581preposterous": 9233, "\u2581wretchedness": 9234, "An": 9235, "LL": 9236, "How": 9237, "Rem": 9238, "Sic": 9239, "VEL": 9240, "Yea": 9241, "chb": 9242, "dex": 9243, "eaf": 9244, "emp": 9245, "fig": 9246, "hic": 9247, "hod": 9248, "how": 9249, "ics": 9250, "ids": 9251, "igs": 9252, "imy": 9253, "lix": 9254, "ogy": 9255, "omy": 9256, "onz": 9257, "pit": 9258, "rip": 9259, "uel": 9260, "uft": 9261, "vex": 9262, "zes": 9263, "\u2581--": 9264, "\u2581CH": 9265, "\u2581Di": 9266, "\u2581Es": 9267, "AUGH": 9268, "ITUS": 9269, "OVEL": 9270, "Stay": 9271, "Than": 9272, "Thus": 9273, "anda": 9274, "auph": 9275, "avel": 9276, "beat": 9277, "bion": 9278, "bout": 9279, "boys": 9280, "butt": 9281, "comb": 9282, "cote": 9283, "crow": 9284, "disp": 9285, "dyed": 9286, "edic": 9287, "eing": 9288, "erry": 9289, "erth": 9290, "fast": 9291, "flow": 9292, "fond": 9293, "gars": 9294, "gger": 9295, "hank": 9296, "heth": 9297, "ibya": 9298, "ifle": 9299, "imer": 9300, "isit": 9301, "izes": 9302, "lant": 9303, "lars": 9304, "lymp": 9305, "merc": 9306, "much": 9307, "ii": 9308, "EAS": 9309, "add": 9310, "eys": 9311, "haw": 9312, "ifs": 9313, "tri": 9314, "why": 9315, "\u2581Bu": 9316, "\u2581Sk": 9317, "aned": 9318, "atal": 9319, "ists": 9320, "itic": 9321, "lies": 9322, "nant": 9323, "nard": 9324, "nity": 9325, "opsa": 9326, "orks": 9327, "orts": 9328, "pocr": 9329, "pper": 9330, "quer": 9331, "ques": 9332, "ride": 9333, "rine": 9334, "rius": 9335, "shot": 9336, "tern": 9337, "thou": 9338, "tico": 9339, "tino": 9340, "viol": 9341, "west": 9342, "wind": 9343, "\u2581ALL": 9344, "\u2581Arg": 9345, "\u2581Ask": 9346, "\u2581Aut": 9347, "\u2581Bar": 9348, "\u2581Day": 9349, "\u2581Dra": 9350, "\u2581Dry": 9351, "\u2581Fam": 9352, "\u2581Gro": 9353, "\u2581Imm": 9354, "\u2581Ing": 9355, "\u2581Inj": 9356, "\u2581Joy": 9357, "\u2581Lim": 9358, "\u2581Mir": 9359, "\u2581Nea": 9360, "\u2581Sea": 9361, "\u2581Thi": 9362, "\u2581alt": 9363, "\u2581cel": 9364, "\u2581coc": 9365, "\u2581cod": 9366, "\u2581coy": 9367, "\u2581fay": 9368, "\u2581fel": 9369, "\u2581fis": 9370, "\u2581gas": 9371, "\u2581gun": 9372, "\u2581ker": 9373, "\u2581lic": 9374, "\u2581mam": 9375, "\u2581orb": 9376, "\u2581rar": 9377, "\u2581rav": 9378, "\u2581sce": 9379, "\u2581sew": 9380, "\u2581shy": 9381, "\u2581sla": 9382, "\u2581tot": 9383, "EASUR": 9384, "Faith": 9385, "affod": 9386, "alian": 9387, "amill": 9388, "andon": 9389, "annib": 9390, "arell": 9391, "avius": 9392, "brary": 9393, "cipal": 9394, "creat": 9395, "cures": 9396, "death": 9397, "domin": 9398, "doubt": 9399, "flies": 9400, "goose": 9401, "hargy": 9402, "heart": 9403, "hrase": 9404, "idels": 9405, "ideth": 9406, "idity": 9407, "cre": 9408, "ora": 9409, "\u2581cu": 9410, "ERKE": 9411, "bary": 9412, "dish": 9413, "eath": 9414, "exor": 9415, "init": 9416, "live": 9417, "rons": 9418, "stit": 9419, "\u2581Ens": 9420, "\u2581Led": 9421, "\u2581Sum": 9422, "\u2581Wot": 9423, "\u2581bug": 9424, "\u2581lit": 9425, "hampt": 9426, "heads": 9427, "iency": 9428, "igate": 9429, "igree": 9430, "illyv": 9431, "inest": 9432, "inish": 9433, "inkle": 9434, "inter": 9435, "isson": 9436, "isted": 9437, "itary": 9438, "mercy": 9439, "metic": 9440, "ology": 9441, "onday": 9442, "ooing": 9443, "orant": 9444, "orged": 9445, "orpor": 9446, "otche": 9447, "oused": 9448, "pared": 9449, "ppers": 9450, "quent": 9451, "quish": 9452, "rates": 9453, "regia": 9454, "roses": 9455, "stain": 9456, "swoln": 9457, "uance": 9458, "uming": 9459, "uscad": 9460, "ushed": 9461, "utish": 9462, "ville": 9463, "wness": 9464, "\u2581Abra": 9465, "\u2581Alex": 9466, "\u2581Bare": 9467, "\u2581CHRI": 9468, "\u2581Chan": 9469, "\u2581Cuts": 9470, "\u2581Dece": 9471, "\u2581Deny": 9472, "\u2581Deuc": 9473, "\u2581Dogs": 9474, "\u2581Done": 9475, "\u2581Drop": 9476, "\u2581Fine": 9477, "\u2581Fors": 9478, "\u2581Gonz": 9479, "\u2581Heir": 9480, "\u2581Hour": 9481, "\u2581Howe": 9482, "\u2581Inqu": 9483, "\u2581Inst": 9484, "\u2581Maid": 9485, "\u2581Mort": 9486, "\u2581Need": 9487, "\u2581Nort": 9488, "\u2581Note": 9489, "\u2581Pass": 9490, "\u2581Past": 9491, "\u2581Safe": 9492, "\u2581Sher": 9493, "\u2581Sout": 9494, "\u2581Tick": 9495, "\u2581Wipe": 9496, "\u2581Wish": 9497, "\u2581Worc": 9498, "\u2581ague": 9499, "\u2581bars": 9500, "\u2581beam": 9501, "\u2581bede": 9502, "\u2581bias": 9503, "\u2581bled": 9504, "\u2581bout": 9505, "\u2581buds": 9506, "\u2581carc": 9507, "Lo": 9508, "No": 9509, "su": 9510, "xy": 9511, "HEY": 9512, "hew": 9513, "oro": 9514, "rid": 9515, "you": 9516, "\u2581Fe": 9517, "aths": 9518, "athy": 9519, "etry": 9520, "igen": 9521, "oise": 9522, "omed": 9523, "phew": 9524, "stal": 9525, "wood": 9526, "\u2581Fan": 9527, "\u2581Hoo": 9528, "\u2581Man": 9529, "\u2581Tor": 9530, "\u2581Unf": 9531, "\u2581aed": 9532, "\u2581hal": 9533, "\u2581inh": 9534, "\u2581jay": 9535, "\u2581maw": 9536, "iless": 9537, "\u2581CARD": 9538, "\u2581Sith": 9539, "\u2581acre": 9540, "\u2581clog": 9541, "\u2581clos": 9542, "\u2581cloy": 9543, "\u2581coil": 9544, "\u2581conn": 9545, "\u2581copy": 9546, "\u2581dall": 9547, "\u2581deem": 9548, "\u2581demi": 9549, "\u2581dews": 9550, "\u2581digg": 9551, "\u2581dump": 9552, "\u2581eggs": 9553, "\u2581enge": 9554, "\u2581epit": 9555, "\u2581ewes": 9556, "\u2581foem": 9557, "\u2581fork": 9558, "\u2581fuel": 9559, "\u2581fume": 9560, "\u2581fust": 9561, "\u2581gamb": 9562, "\u2581glit": 9563, "\u2581gore": 9564, "\u2581grud": 9565, "\u2581hack": 9566, "\u2581harp": 9567, "\u2581hewn": 9568, "\u2581indu": 9569, "\u2581itch": 9570, "\u2581larg": 9571, "\u2581lime": 9572, "\u2581lure": 9573, "\u2581magn": 9574, "\u2581maim": 9575, "\u2581malm": 9576, "\u2581meek": 9577, "\u2581navy": 9578, "\u2581nost": 9579, "\u2581noth": 9580, "\u2581nurs": 9581, "\u2581pies": 9582, "\u2581pipe": 9583, "\u2581pond": 9584, "\u2581pout": 9585, "\u2581ruff": 9586, "\u2581rung": 9587, "\u2581sadd": 9588, "\u2581sout": 9589, "\u2581swan": 9590, "\u2581thaw": 9591, "\u2581toes": 9592, "\u2581tore": 9593, "\u2581tuft": 9594, "\u2581unex": 9595, "\u2581unsw": 9596, "\u2581warp": 9597, "\u2581wive": 9598, "Charge": 9599, "EASURE": 9600, "abouts": 9601, "alance": 9602, "anched": 9603, "angled": 9604, "anting": 9605, "arting": 9606, "ateful": 9607, "nz": 9608, "ux": 9609, "\u2581:": 9610, "igm": 9611, "inc": 9612, "oan": 9613, "ody": 9614, "pan": 9615, "war": 9616, "\u2581Sl": 9617, "\u2581te": 9618, "Alas": 9619, "cked": 9620, "gent": 9621, "heir": 9622, "imon": 9623, "nock": 9624, "nzie": 9625, "rave": 9626, "recy": 9627, "test": 9628, "yers": 9629, "\u2581Ped": 9630, "\u2581aus": 9631, "\u2581pru": 9632, "\u2581rat": 9633, "Bless": 9634, "ading": 9635, "anied": 9636, "asury": 9637, "beard": 9638, "begot": 9639, "cting": 9640, "hoods": 9641, "maids": 9642, "orner": 9643, "otpan": 9644, "\u2581Held": 9645, "\u2581Kill": 9646, "\u2581ally": 9647, "\u2581bolt": 9648, "\u2581disb": 9649, "\u2581gest": 9650, "\u2581hiss": 9651, "\u2581sums": 9652, "\u2581triv": 9653, "\u2581twos": 9654, "Thanks": 9655, "active": 9656, "atrice": 9657, "attock": 9658, "auphin": 9659, "avoury": 9660, "aynard": 9661, "corner": 9662, "dinand": 9663, "empore": 9664, "erbear": 9665, "erness": 9666, "erpast": 9667, "erween": 9668, "footed": 9669, "gealed": 9670, "gnable": 9671, "hastly": 9672, "hating": 9673, "hearts": 9674, "honour": 9675, "icanor": 9676, "iddler": 9677, "inence": 9678, "judged": 9679, "ledged": 9680, "mitted": 9681, "olycus": 9682, "ortive": 9683, "ounsel": 9684, "ourest": 9685, "plight": 9686, "queath": 9687, "remacy": 9688, "server": 9689, "shaped": 9690, "silver": 9691, "simple": 9692, "spoken": 9693, "thread": 9694, "thwack": 9695, "thwart": 9696, "ticoat": 9697, "uities": 9698, "ulling": 9699, "valued": 9700, "venged": 9701, "vocate": 9702, "volous": 9703, "weighs": 9704, "winged": 9705, "\u2581Archb": 9706, "\u2581BERKE": 9707, "Ver": 9708, "azz": 9709, "fes": 9710, "few": 9711, "irp": 9712, "iry": 9713, "lay": 9714, "rob": 9715, "sec": 9716, "\u2581Hu": 9717, "\u2581Wa": 9718, "harm": 9719, "itud": 9720, "late": 9721, "ldst": 9722, "oder": 9723, "utor": 9724, "\u2581Cra": 9725, "\u2581Roy": 9726, "\u2581aut": 9727, "\u2581bem": 9728, "\u2581ham": 9729, "\u2581hay": 9730, "\u2581ine": 9731, "eries": 9732, "isons": 9733, "otent": 9734, "retty": 9735, "\u2581Hugh": 9736, "\u2581Laid": 9737, "\u2581Spur": 9738, "\u2581Sugg": 9739, "\u2581broo": 9740, "\u2581cape": 9741, "\u2581curb": 9742, "\u2581dugs": 9743, "\u2581gees": 9744, "\u2581meas": 9745, "\u2581reek": 9746, "Verily": 9747, "therea": 9748, "\u2581Brief": 9749, "\u2581Chide": 9750, "\u2581Cotus": 9751, "\u2581Count": 9752, "\u2581Crown": 9753, "\u2581Drawn": 9754, "\u2581Earth": 9755, "\u2581Force": 9756, "\u2581Greek": 9757, "\u2581Haply": 9758, "\u2581Holla": 9759, "\u2581House": 9760, "\u2581Inter": 9761, "\u2581Jacks": 9762, "\u2581Judas": 9763, "\u2581Kates": 9764, "\u2581LOVEL": 9765, "\u2581Laugh": 9766, "\u2581Libya": 9767, "\u2581Light": 9768, "\u2581Mopsa": 9769, "\u2581Olymp": 9770, "\u2581Plays": 9771, "\u2581Roger": 9772, "\u2581Shake": 9773, "\u2581Spare": 9774, "\u2581Stabb": 9775, "\u2581Stays": 9776, "\u2581Stirr": 9777, "\u2581TITUS": 9778, "\u2581Taste": 9779, "\u2581Threw": 9780, "\u2581Troth": 9781, "\u2581Tutor": 9782, "\u2581VAUGH": 9783, "\u2581Vince": 9784, "\u2581Visit": 9785, "\u2581Words": 9786, "\u2581Wrath": 9787, "\u2581Yorks": 9788, "\u2581abode": 9789, "\u2581admon": 9790, "\u2581aptly": 9791, "\u2581arith": 9792, "\u2581arrog": 9793, "\u2581baits": 9794, "\u2581banns": 9795, "\u2581bells": 9796, "\u2581blank": 9797, "\u2581brake": 9798, "\u2581brats": 9799, "\u2581brick": 9800, "\u2581bunch": 9801, "\u2581cable": 9802, "\u2581cakes": 9803, "\u2581canon": 9804, "\u2581cater": 9805, "\u2581cavil": 9806, "\u2581cedar": 9807, "aub": 9808, "ece": 9809, "ney": 9810, "par": 9811, "\u2581gy": 9812, "Come": 9813, "Rome": 9814, "peer": 9815, "pill": 9816, "uman": 9817, "\u2581Inc": 9818, "\u2581Oft": 9819, "\u2581Pen": 9820, "\u2581Ple": 9821, "\u2581Pra": 9822, "\u2581Pur": 9823, "\u2581ess": 9824, "\u2581nim": 9825, "\u2581rev": 9826, "\u2581slu": 9827, "Romeo": 9828, "agion": 9829, "amine": 9830, "elier": 9831, "ondam": 9832, "would": 9833, "\u2581Cour": 9834, "\u2581Fast": 9835, "\u2581Fore": 9836, "\u2581Land": 9837, "\u2581Wear": 9838, "\u2581Wood": 9839, "\u2581dive": 9840, "\u2581eyed": 9841, "\u2581pins": 9842, "\u2581puny": 9843, "\u2581seed": 9844, "\u2581unpo": 9845, "\u2581wean": 9846, "ellist": 9847, "sorrow": 9848, "\u2581Delay": 9849, "\u2581Venus": 9850, "\u2581apple": 9851, "\u2581avail": 9852, "\u2581brood": 9853, "\u2581clerk": 9854, "\u2581clubs": 9855, "\u2581cocke": 9856, "\u2581corns": 9857, "\u2581couch": 9858, "\u2581covet": 9859, "\u2581creep": 9860, "\u2581curds": 9861, "\u2581darts": 9862, "\u2581daunt": 9863, "\u2581deign": 9864, "\u2581deity": 9865, "\u2581demes": 9866, "\u2581domin": 9867, "\u2581drive": 9868, "\u2581drove": 9869, "\u2581dumps": 9870, "\u2581elbow": 9871, "\u2581extra": 9872, "\u2581falch": 9873, "\u2581fasts": 9874, "\u2581fawns": 9875, "\u2581fitly": 9876, "\u2581fixed": 9877, "\u2581fling": 9878, "\u2581flung": 9879, "\u2581funer": 9880, "\u2581gapes": 9881, "\u2581glean": 9882, "\u2581gusts": 9883, "\u2581gyves": 9884, "\u2581habil": 9885, "\u2581hates": 9886, "\u2581hides": 9887, "\u2581hoard": 9888, "\u2581holes": 9889, "\u2581horns": 9890, "\u2581hound": 9891, "\u2581hunts": 9892, "\u2581index": 9893, "\u2581ingen": 9894, "\u2581insur": 9895, "\u2581jades": 9896, "\u2581kills": 9897, "\u2581knack": 9898, "\u2581knots": 9899, "\u2581leash": 9900, "\u2581lucky": 9901, "\u2581masks": 9902, "\u2581meets": 9903, "\u2581mispl": 9904, "\u2581ocean": 9905, "\u2581ounce": 9906, "\u2581owest": 9907, "dro": 9908, "pur": 9909, "url": 9910, "\u2581Us": 9911, "Have": 9912, "Thou": 9913, "agon": 9914, "\u2581Fur": 9915, "\u2581Jew": 9916, "\u2581Rec": 9917, "\u2581giv": 9918, "\u2581lag": 9919, "\u2581riv": 9920, "\u2581roe": 9921, "atisf": 9922, "eling": 9923, "guing": 9924, "urned": 9925, "\u2581Gave": 9926, "\u2581Iron": 9927, "\u2581Prov": 9928, "\u2581Rise": 9929, "\u2581Wise": 9930, "\u2581arts": 9931, "\u2581lave": 9932, "\u2581rice": 9933, "\u2581riot": 9934, "\u2581sinc": 9935, "\u2581stam": 9936, "\u2581twin": 9937, "alties": 9938, "oneous": 9939, "urnish": 9940, "\u2581Kings": 9941, "\u2581Learn": 9942, "\u2581Scorn": 9943, "\u2581ample": 9944, "\u2581churl": 9945, "\u2581desol": 9946, "\u2581doers": 9947, "\u2581feign": 9948, "\u2581flout": 9949, "\u2581pence": 9950, "\u2581plume": 9951, "\u2581prank": 9952, "\u2581prone": 9953, "\u2581proro": 9954, "\u2581rayed": 9955, "\u2581razed": 9956, "\u2581renew": 9957, "\u2581rhyme": 9958, "\u2581rival": 9959, "\u2581roots": 9960, "\u2581rusty": 9961, "\u2581salve": 9962, "\u2581scale": 9963, "\u2581sheer": 9964, "\u2581sheet": 9965, "\u2581shrug": 9966, "\u2581shuns": 9967, "\u2581smock": 9968, "\u2581spawn": 9969, "\u2581spies": 9970, "\u2581stake": 9971, "\u2581steer": 9972, "\u2581stirr": 9973, "\u2581swarm": 9974, "\u2581tails": 9975, "\u2581tenth": 9976, "\u2581tilth": 9977, "\u2581tribe": 9978, "\u2581twigs": 9979, "\u2581unpar": 9980, "\u2581unpit": 9981, "\u2581unres": 9982, "\u2581unsus": 9983, "\u2581usest": 9984, "\u2581usual": 9985, "\u2581vaunt": 9986, "\u2581vitae": 9987, "\u2581waded": 9988, "\u2581waist": 9989, "\u2581wealt": 9990, "\u2581weeks": 9991, "\u2581wield": 9992, "\u2581wiser": 9993, "\u2581witty": 9994, "\u2581wooer": 9995, "\u2581wrapt": 9996, "Courage": 9997, "aculate": 9998, "allible": 9999, "annibal": 10000, "arewell": 10001, "attling": 10002, "comfort": 10003, "edicite": 10004, "ensible": 10005, "falling": 10006, "fellows": 10007, "ob": 10008, "Sir": 10009, "\u2581ci": 10010, "Hold": 10011, "cold": 10012, "mple": 10013, "tide": 10014, "tong": 10015, "\u2581Aim": 10016, "amour": 10017, "oughs": 10018, "reder": 10019, "reech": 10020, "ruple": 10021, "three": 10022, "uckle": 10023, "\u2581Begg": 10024, "\u2581Dull": 10025, "\u2581Free": 10026, "\u2581List": 10027, "\u2581Wond": 10028, "\u2581bull": 10029, "\u2581clip": 10030, "\u2581cull": 10031, "\u2581fade": 10032, "\u2581fitt": 10033, "\u2581gird": 10034, "\u2581nuts": 10035, "\u2581rapt": 10036, "\u2581robe": 10037, "\u2581stee": 10038, "\u2581trad": 10039, "\u2581unsk": 10040, "ashing": 10041, "astery": 10042, "berate": 10043, "closed": 10044, "\u2581Draws": 10045, "\u2581Forsw": 10046, "\u2581Tears": 10047, "\u2581afire": 10048, "\u2581assay": 10049, "\u2581cheat": 10050, "\u2581clime": 10051, "\u2581cloth": 10052, "\u2581clout": 10053, "\u2581dough": 10054, "\u2581games": 10055, "\u2581gripe": 10056, "\u2581inher": 10057, "\u2581perch": 10058, "\u2581prede": 10059, "\u2581skies": 10060, "\u2581stony": 10061, "hampton": 10062, "ictment": 10063, "iolanus": 10064, "itution": 10065, "landers": 10066, "longeth": 10067, "mblance": 10068, "mercies": 10069, "otchets": 10070, "ounding": 10071, "pillars": 10072, "pointed": 10073, "reation": 10074, "rivener": 10075, "running": 10076, "settled": 10077, "sheathe": 10078, "staring": 10079, "tongued": 10080, "ucation": 10081, "ucement": 10082, "wearied": 10083, "\u2581Accept": 10084, "\u2581Adrian": 10085, "\u2581Albion": 10086, "\u2581Ascend": 10087, "\u2581Barnet": 10088, "\u2581Became": 10089, "\u2581Bloody": 10090, "\u2581Boldly": 10091, "\u2581Breton": 10092, "\u2581CHRIST": 10093, "\u2581Change": 10094, "\u2581Crowns": 10095, "\u2581Desire": 10096, "\u2581Divine": 10097, "\u2581Doubly": 10098, "\u2581Eleven": 10099, "\u2581Exceed": 10100, "\u2581Flower": 10101, "\u2581Freder": 10102, "\u2581Golden": 10103, "\u2581Hacket": 10104, "\u2581Ladies": 10105, "\u2581Longer": 10106, "\u2581Mamill": 10107, "abs": 10108, "aby": 10109, "INAL": 10110, "agab": 10111, "aled": 10112, "gery": 10113, "hips": 10114, "rang": 10115, "rove": 10116, "\u2581esp": 10117, "\u2581oil": 10118, "apert": 10119, "heres": 10120, "inent": 10121, "liest": 10122, "match": 10123, "perly": 10124, "range": 10125, "sweet": 10126, "uding": 10127, "\u2581Echo": 10128, "\u2581Rage": 10129, "\u2581Rain": 10130, "\u2581Self": 10131, "\u2581Sure": 10132, "\u2581Vile": 10133, "\u2581adds": 10134, "\u2581apes": 10135, "\u2581asks": 10136, "\u2581begs": 10137, "\u2581diff": 10138, "\u2581doff": 10139, "\u2581hent": 10140, "\u2581logs": 10141, "\u2581purg": 10142, "\u2581rite": 10143, "\u2581shin": 10144, "\u2581tush": 10145, "\u2581untr": 10146, "ection": 10147, "geably": 10148, "ieving": 10149, "rimony": 10150, "\u2581Bless": 10151, "\u2581Keeps": 10152, "\u2581Tread": 10153, "\u2581artif": 10154, "\u2581disli": 10155, "\u2581heaps": 10156, "\u2581liver": 10157, "agabond": 10158, "ainties": 10159, "antages": 10160, "content": 10161, "rection": 10162, "ressing": 10163, "unction": 10164, "\u2581Namely": 10165, "\u2581Neapol": 10166, "\u2581Pilate": 10167, "\u2581Poison": 10168, "\u2581Potpan": 10169, "\u2581Prefix": 10170, "\u2581Pretty": 10171, "\u2581Priami": 10172, "\u2581Reason": 10173, "\u2581Rebell": 10174, "\u2581Relent": 10175, "\u2581Robert": 10176, "\u2581Saddle": 10177, "\u2581Scroop": 10178, "\u2581Scurvy": 10179, "\u2581Sicils": 10180, "\u2581Sigeia": 10181, "\u2581Simois": 10182, "\u2581Sister": 10183, "\u2581Softly": 10184, "\u2581Strive": 10185, "\u2581Summon": 10186, "\u2581Taking": 10187, "\u2581Temper": 10188, "\u2581Unfold": 10189, "\u2581Wrench": 10190, "\u2581abomin": 10191, "\u2581abound": 10192, "\u2581admits": 10193, "\u2581afresh": 10194, "\u2581alarum": 10195, "\u2581allied": 10196, "\u2581amount": 10197, "\u2581argued": 10198, "\u2581argues": 10199, "\u2581autumn": 10200, "\u2581awaken": 10201, "\u2581barber": 10202, "\u2581behove": 10203, "\u2581bended": 10204, "\u2581betake": 10205, "\u2581bisson": 10206, "\u2581blanks": 10207, "mew": 10208, "True": 10209, "cont": 10210, "days": 10211, "ints": 10212, "mock": 10213, "pray": 10214, "suck": 10215, "\u2581Spl": 10216, "\u2581nut": 10217, "\u2581sip": 10218, "assed": 10219, "aucas": 10220, "cease": 10221, "chest": 10222, "cloth": 10223, "dding": 10224, "fered": 10225, "herds": 10226, "ifies": 10227, "meant": 10228, "onted": 10229, "ossed": 10230, "rants": 10231, "shell": 10232, "\u2581Cret": 10233, "\u2581Incl": 10234, "\u2581Kiss": 10235, "\u2581Prop": 10236, "\u2581Shed": 10237, "\u2581ache": 10238, "\u2581boil": 10239, "\u2581gale": 10240, "\u2581medd": 10241, "\u2581peep": 10242, "\u2581pile": 10243, "\u2581prig": 10244, "\u2581rift": 10245, "\u2581rubs": 10246, "\u2581vail": 10247, "\u2581vall": 10248, "\u2581wool": 10249, "bridge": 10250, "ertile": 10251, "forter": 10252, "ianced": 10253, "\u2581Allow": 10254, "\u2581Prick": 10255, "\u2581chaos": 10256, "\u2581cured": 10257, "\u2581entit": 10258, "\u2581faded": 10259, "\u2581guide": 10260, "\u2581guile": 10261, "\u2581reins": 10262, "\u2581smack": 10263, "ouncing": 10264, "venteen": 10265, "\u2581Honour": 10266, "\u2581accent": 10267, "\u2581bloods": 10268, "\u2581bolder": 10269, "\u2581bottle": 10270, "\u2581bounds": 10271, "\u2581brands": 10272, "\u2581breech": 10273, "\u2581brooch": 10274, "\u2581bubble": 10275, "\u2581builds": 10276, "\u2581carbon": 10277, "\u2581carver": 10278, "\u2581casque": 10279, "\u2581causer": 10280, "\u2581celebr": 10281, "\u2581chairs": 10282, "\u2581chants": 10283, "\u2581chapel": 10284, "\u2581cipher": 10285, "\u2581closet": 10286, "\u2581cloven": 10287, "\u2581clutch": 10288, "\u2581cockle": 10289, "\u2581compet": 10290, "\u2581copest": 10291, "\u2581corpse": 10292, "\u2581cracks": 10293, "\u2581cradle": 10294, "\u2581crafts": 10295, "\u2581cramps": 10296, "\u2581curfew": 10297, "\u2581daffod": 10298, "\u2581damask": 10299, "\u2581danced": 10300, "\u2581denier": 10301, "\u2581detect": 10302, "\u2581dieted": 10303, "\u2581discom": 10304, "\u2581disfig": 10305, "\u2581dissol": 10306, "\u2581dolour": 10307, "yr": 10308, "rav": 10309, "When": 10310, "alms": 10311, "mend": 10312, "pile": 10313, "\u2581Dev": 10314, "\u2581Emb": 10315, "\u2581cox": 10316, "\u2581dul": 10317, "aketh": 10318, "comed": 10319, "inary": 10320, "maker": 10321, "\u2581bits": 10322, "\u2581boat": 10323, "\u2581coin": 10324, "\u2581hild": 10325, "\u2581hoop": 10326, "\u2581jars": 10327, "\u2581size": 10328, "\u2581slug": 10329, "ashion": 10330, "bodied": 10331, "orship": 10332, "\u2581Doing": 10333, "\u2581Grief": 10334, "\u2581Short": 10335, "\u2581Weigh": 10336, "\u2581Worth": 10337, "\u2581dates": 10338, "\u2581earls": 10339, "\u2581raged": 10340, "\u2581rider": 10341, "\u2581saves": 10342, "\u2581skins": 10343, "\u2581talks": 10344, "\u2581thigh": 10345, "\u2581track": 10346, "atesman": 10347, "keeping": 10348, "\u2581Argier": 10349, "\u2581Engage": 10350, "\u2581Matter": 10351, "\u2581beards": 10352, "\u2581brawls": 10353, "\u2581briers": 10354, "\u2581career": 10355, "\u2581confli": 10356, "\u2581devout": 10357, "\u2581dotard": 10358, "\u2581doting": 10359, "\u2581doubts": 10360, "\u2581drudge": 10361, "\u2581eagles": 10362, "\u2581easter": 10363,
[...]
